<pad>	0
<unk>	0
<s>	0
</s>	0
美国	-0
表示	-1
今天	-2
我们	-3
二十	-4
公司	-5
他们	-6
中国	-7
政府	-8
可能	-9
总统	-10
▁他	-11
▁这	-12
国家	-13
美元	-14
经济	-15
分之	-16
日本	-17
拉克	-18
百分之	-19
一个	-20
伊拉克	-21
布希	-22
组织	-23
进行	-24
国际	-25
目前	-26
官员	-27
世界	-28
▁美国	-29
▁在	-30
三十	-31
报导	-32
攻击	-33
行动	-34
指出	-35
举行	-36
这项	-37
问题	-38
一九	-39
斯坦	-40
的一	-41
不过	-42
英国	-43
地区	-44
因为	-45
北韩	-46
联合	-47
会议	-48
发生	-49
安全	-50
一名	-51
今年	-52
已经	-53
没有	-54
以及	-55
包括	-56
希望	-57
十二	-58
以色	-59
以色列	-60
去年	-61
恐怖	-62
研究	-63
要求	-64
告诉	-65
人员	-66
造成	-67
记者	-68
五十	-69
认为	-70
支持	-71
这个	-72
▁他说	-73
事件	-74
罗斯	-75
调查	-76
言人	-77
第一	-78
这些	-79
四十	-80
法国	-81
部长	-82
南韩	-83
市场	-84
欧洲	-85
一百	-86
巴勒	-87
发言人	-88
其他	-89
可以	-90
宣布	-91
工作	-92
全球	-93
第二	-94
会谈	-95
十一	-96
联合国	-97
以来	-98
俄罗斯	-99
决定	-100
巴勒斯坦	-101
他的	-102
计划	-103
时间	-104
部队	-105
声明	-106
▁但	-107
同时	-108
领袖	-109
显示	-110
必须	-111
提出	-112
00	-113
有关	-114
人士	-115
访问	-116
当局	-117
由于	-118
获得	-119
接受	-120
昨天	-121
主要	-122
发现	-123
一九九	-124
如果	-125
之后	-126
万美元	-127
比赛	-128
成为	-129
开始	-130
发表	-131
报告	-132
计画	-133
十五	-134
个月	-135
活动	-136
将在	-137
的人	-138
最后	-139
代表	-140
冠军	-141
成长	-142
贸易	-143
阿拉	-144
根据	-145
岁的	-146
一项	-147
银行	-148
新闻	-149
关系	-150
和平	-151
国会	-152
阿富	-153
委员	-154
阿富汗	-155
任何	-156
之前	-157
展开	-158
澳洲	-159
外交	-160
许多	-161
太空	-162
遭到	-163
民主	-164
德国	-165
总理	-166
人民	-167
▁不过	-168
其中	-169
方面	-170
严重	-171
是在	-172
结果	-173
死亡	-174
选手	-175
亿美元	-176
大的	-177
电视	-178
联盟	-179
北京	-180
美军	-181
提供	-182
反对	-183
增加	-184
军事	-185
参加	-186
准备	-187
欧盟	-188
中心	-189
曰本	-190
丧生	-191
武器	-192
委员会	-193
印度	-194
影响	-195
回教	-196
警方	-197
领导	-198
协议	-199
国务	-200
不会	-201
重要	-202
人的	-203
政治	-204
继续	-205
汽车	-206
选举	-207
台湾	-208
中说	-209
情况	-210
采取	-211
六十	-212
无法	-213
出现	-214
这是	-215
这种	-216
发展	-217
受到	-218
一年	-219
是否	-220
爆炸	-221
公开	-222
前往	-223
第三	-224
政策	-225
因此	-226
宫员	-227
过去	-228
所有	-229
自由	-230
正在	-231
谈判	-232
五百	-233
消息	-234
警告	-235
使用	-236
月二十	-237
措施	-238
结束	-239
自己	-240
媒体	-241
投资	-242
非常	-243
纽约	-244
合作	-245
上周	-246
国防	-247
企业	-248
此一	-249
亚洲	-250
▁日本	-251
但是	-252
石油	-253
冲突	-254
▁一	-255
小时	-256
目标	-257
民众	-258
通过	-259
十三	-260
一直	-261
同意	-262
印尼	-263
卫生	-264
虽然	-265
双方	-266
部分	-267
生产	-268
航空	-269
讨论	-270
全国	-271
份子	-272
一千	-273
战争	-274
未来	-275
达成	-276
十四	-277
受伤	-278
这次	-279
举行的	-280
社会	-281
今天在	-282
▁据	-283
主义	-284
▁布希	-285
呼吁	-286
协助	-287
飞弹	-288
核子	-289
欧元	-290
现在	-291
对于	-292
十六	-293
年的	-294
证实	-295
网路	-296
华盛	-297
--	-298
利亚	-299
期间	-300
联邦	-301
正式	-302
最近	-303
▁根据	-304
十七	-305
系统	-306
进入	-307
十八	-308
至少	-309
▁我	-310
主席	-311
发动	-312
华盛顿	-313
专家	-314
之一	-315
努力	-316
上的	-317
将于	-318
特别	-319
将会	-320
解决	-321
伊朗	-322
运动	-323
高峰	-324
三百	-325
规模	-326
的大	-327
集团	-328
六比	-329
有一	-330
的是	-331
减少	-332
当地	-333
最高	-334
巴基	-335
两百	-336
国的	-337
机会	-338
香港	-339
中的	-340
赢得	-341
威胁	-342
玫击	-343
炸弹	-344
两名	-345
指控	-346
▁这项	-347
也是	-348
大陆	-349
来的	-350
医院	-351
成员	-352
持续	-353
附近	-354
危机	-355
投票	-356
预定	-357
为了	-358
新的	-359
公里	-360
三年	-361
▁中国	-362
巴基斯坦	-363
他们的	-364
鲍尔	-365
官员说	-366
美国的	-367
今天说	-368
病毒	-369
地方	-370
公布	-371
团体	-372
纪录	-373
需要	-374
当时	-375
九月	-376
十九	-377
飞机	-378
改革	-379
科学	-380
的美国	-381
电话	-382
法院	-383
▁此	-384
布莱	-385
就是	-386
五年	-387
而且	-388
分析	-389
执行	-390
国内	-391
引述	-392
两个	-393
抗议	-394
负责	-395
交易	-396
出口	-397
制造	-398
中东	-399
机构	-400
之间	-401
拒绝	-402
导致	-403
南部	-404
击败	-405
白宫	-406
来自	-407
四百	-408
情报	-409
律宾	-410
感染	-411
奥运	-412
世养	-413
共和	-414
的话	-415
针对	-416
一步	-417
法新	-418
种子	-419
恢复	-420
班牙	-421
首都	-422
大学	-423
产品	-424
城市	-425
大利	-426
菲律宾	-427
西班牙	-428
大使	-429
新加	-430
法新社	-431
尽管	-432
会的	-433
表现	-434
二年	-435
知道	-436
预期	-437
义大利	-438
大选	-439
参与	-440
中央	-441
我们的	-442
台北	-443
人丧生	-444
西亚	-445
共同	-446
保护	-447
人数	-448
不是	-449
▁她	-450
大约	-451
新加坡	-452
超过	-453
阿拉法	-454
出的	-455
完成	-456
爆发	-457
内的	-458
日圆	-459
所以	-460
科技	-461
斯特	-462
引发	-463
▁英国	-464
应该	-465
四年	-466
男子	-467
个人	-468
月份	-469
面临	-470
一日	-471
首次	-472
透露	-473
金融	-474
国务院	-475
万人	-476
处理	-477
尼亚	-478
电脑	-479
感到	-480
历史	-481
阿拉伯	-482
加入	-483
稍早	-484
二百	-485
塔利	-486
上述	-487
维持	-488
总统布希	-489
担心	-490
警察	-491
阿拉法特	-492
爱滋	-493
一位	-494
方式	-495
决赛	-496
他在	-497
加强	-498
拥有	-499
进一步	-500
相当	-501
之际	-502
柯林	-503
利用	-504
最大	-505
任务	-506
再度	-507
能够	-508
塔利班	-509
服务	-510
公司的	-511
立即	-512
时候	-513
消费	-514
▁该	-515
担任	-516
的问题	-517
小泉	-518
北部	-519
取得	-520
民主党	-521
两人	-522
的新	-523
建议	-524
明年	-525
议员	-526
盖达	-527
抵达	-528
可能会	-529
令人	-530
示威	-531
分钟	-532
开发	-533
小组	-534
如何	-535
控制	-536
销售	-537
本周	-538
学生	-539
技术	-540
军方	-541
一点	-542
原因	-543
▁而	-544
在一	-545
暴力	-546
机场	-547
生活	-548
柯林顿	-549
工业	-550
的事	-551
他说	-552
并未	-553
一一	-554
告诉记者	-555
高级	-556
华府	-557
足球	-558
更多	-559
使得	-560
名的	-561
▁一名	-562
公开赛	-563
成功	-564
达到	-565
六月	-566
还有	-567
并不	-568
情势	-569
领先	-570
二十五	-571
并且	-572
第四	-573
逮捕	-574
多数	-575
泰国	-576
又说	-577
完全	-578
它们	-579
豪国	-580
另外	-581
基金	-582
二十四	-583
五千	-584
立场	-585
本月	-586
只有	-587
排名	-588
强调	-589
寻求	-590
法庭	-591
一次	-592
十月	-593
外国	-594
日在	-595
货币	-596
透过	-597
恐怖攻击	-598
土耳	-599
行为	-600
▁由于	-601
下午	-602
高峰会	-603
人口	-604
政权	-605
说明	-606
宾拉	-607
比亚	-608
十二月	-609
年来	-610
疾病	-611
的经济	-612
六百	-613
公尺	-614
重新	-615
成立	-616
电影	-617
三月	-618
进口	-619
对手	-620
一些	-621
反应	-622
我的	-623
紧急	-624
伦敦	-625
▁报导	-626
改变	-627
承认	-628
谈话	-629
油价	-630
承诺	-631
事务	-632
内阁	-633
外长	-634
八年	-635
引起	-636
宾拉登	-637
队的	-638
国务卿	-639
巴格	-640
性的	-641
叛军	-642
什么	-643
了解	-644
环境	-645
东京	-646
不能	-647
法律	-648
▁他们	-649
规定	-650
决议	-651
十一月	-652
越南	-653
今天表示	-654
▁阿	-655
病例	-656
两国	-657
预料	-658
▁我们	-659
都是	-660
的情况	-661
▁南韩	-662
三千	-663
九年	-664
推动	-665
签署	-666
国家的	-667
分子	-668
网站	-669
加拿	-670
危险	-671
标准	-672
▁目前	-673
单位	-674
自杀	-675
作为	-676
主管	-677
重大	-678
位于	-679
选人	-680
电视台	-681
即将	-682
电子	-683
地区的	-684
相信	-685
召开	-686
仍然	-687
官方	-688
禁止	-689
人受伤	-690
演说	-691
估计	-692
儿童	-693
在美国	-694
九一一	-695
妇女	-696
的国家	-697
检查	-698
四月	-699
五月	-700
年度	-701
球员	-702
除了	-703
三名	-704
财政	-705
管理	-706
首相	-707
不愿	-708
不断	-709
压力	-710
在二	-711
治疗	-712
很多	-713
协定	-714
巴格达	-715
一起	-716
经过	-717
改善	-718
建立	-719
七月	-720
独立	-721
告诉法新社	-722
拉夫	-723
人权	-724
指挥	-725
▁国际	-726
记者会	-727
境内	-728
的一项	-729
协会	-730
争议	-731
发布	-732
考虑	-733
有些	-734
人在	-735
稳定	-736
不同	-737
实施	-738
援助	-739
明天	-740
必要	-741
而言	-742
这位	-743
执政	-744
恐怖主义	-745
撮导	-746
员工	-747
好的	-748
巴黎	-749
甚至	-750
发言人说	-751
与美国	-752
部份	-753
中国大陆	-754
需求	-755
加拿大	-756
自从	-757
方案	-758
确定	-759
面对	-760
停止	-761
另一	-762
会晤	-763
者的	-764
已有	-765
能力	-766
觉得	-767
动物	-768
武装	-769
下的	-770
学校	-771
价格	-772
七年	-773
强烈	-774
七百	-775
各地	-776
地点	-777
二十二	-778
19	-779
居民	-780
只是	-781
看到	-782
巴西	-783
高达	-784
大幅	-785
消息人士	-786
对抗	-787
上午	-788
了一	-789
似乎	-790
▁这位	-791
中共	-792
▁这是	-793
商业	-794
法案	-795
相关	-796
尔斯	-797
并末	-798
布莱尔	-799
一样	-800
内容	-801
离开	-802
竞争	-803
这场	-804
将是	-805
能源	-806
六年	-807
人类	-808
试图	-809
非洲	-810
为止	-811
的前	-812
的最	-813
部门	-814
海珊	-815
▁以色列	-816
预算	-817
▁但是	-818
出席	-819
八十	-820
意外	-821
科学家	-822
律师	-823
网球	-824
一般	-825
保证	-826
如今	-827
声明说	-828
健康	-829
候选人	-830
爱滋病	-831
各国	-832
▁新	-833
数字	-834
打击	-835
天的	-836
如此	-837
首度	-838
▁马	-839
蒲亭	-840
星期	-841
连续	-842
成绩	-843
曾经	-844
一九八	-845
欢迎	-846
一家	-847
伦斯	-848
▁法国	-849
已在	-850
八月	-851
地震	-852
宣称	-853
七十	-854
部署	-855
国防部长	-856
朋友	-857
大规模	-858
大会	-859
升高	-860
这名	-861
组织的	-862
资料	-863
总署	-864
布希总统	-865
理事	-866
秘书	-867
声明中说	-868
两千	-869
会员	-870
时报	-871
格兰	-872
夏隆	-873
▁这些	-874
统计	-875
比较	-876
显然	-877
一场	-878
几乎	-879
现场	-880
发射	-881
八百	-882
目的	-883
音乐	-884
工厂	-885
撮告	-886
广播	-887
政府的	-888
大使馆	-889
在伊拉克	-890
根廷	-891
航空公司	-892
信心	-893
高尔	-894
然而	-895
疫情	-896
教宗	-897
分别	-898
升机	-899
军队	-900
办公	-901
基地	-902
证据	-903
约旦	-904
也将	-905
斯科	-906
土耳其	-907
提高	-908
▁艾	-909
关切	-910
司法	-911
恐怖份子	-912
塞尔	-913
士兵	-914
南亚	-915
这样	-916
▁联合国	-917
主办	-918
莫国	-919
长期	-920
不要	-921
紧张	-922
传统	-923
她的	-924
三个	-925
先前	-926
数百	-927
晚间	-928
被捕	-929
避免	-930
一万	-931
电台	-932
资讯	-933
曰在	-934
取消	-935
拿下	-936
然后	-937
国防部	-938
家庭	-939
发出	-940
莫他	-941
每年	-942
回合	-943
战斗	-944
▁世界	-945
挑战	-946
最大的	-947
难民	-948
平壤	-949
领导人	-950
农业	-951
状况	-952
德里	-953
批评	-954
时代	-955
昨晚	-956
七日	-957
否认	-958
人死亡	-959
上海	-960
可望	-961
预测	-962
劳工	-963
议题	-964
边界	-965
二十六	-966
的主要	-967
这顶	-968
一种	-969
群众	-970
国会议	-971
扩大	-972
说法	-973
理会	-974
还是	-975
来西亚	-976
飞行	-977
▁俄罗斯	-978
在此	-979
晋级	-980
末来	-981
二十三	-982
利率	-983
产业	-984
总部	-985
欧洲联盟	-986
医生	-987
的时候	-988
以前	-989
威特	-990
胜利	-991
手术	-992
000	-993
降低	-994
女子	-995
争取	-996
过程	-997
那么	-998
产生	-999
孩子	-1000
未能	-1001
失踪	-1002
破坏	-1003
爆炸案	-1004
的支持	-1005
总裁	-1006
保持	-1007
损失	-1008
选民	-1009
现年	-1010
供应	-1011
区的	-1012
法官	-1013
莱斯	-1014
设施	-1015
巴勒斯坦人	-1016
公共	-1017
北约	-1018
四千	-1019
该公司	-1020
海军	-1021
后的	-1022
非法	-1023
瑞士	-1024
伦斯斐	-1025
▁警方	-1026
金牌	-1027
▁虽然	-1028
十一日	-1029
的行动	-1030
莫斯科	-1031
也有	-1032
角色	-1033
训练	-1034
临时	-1035
半岛	-1036
点五	-1037
实验	-1038
拉斯	-1039
股市	-1040
维亚	-1041
返回	-1042
仪式	-1043
提出的	-1044
数十	-1045
进展	-1046
▁这名	-1047
▁大	-1048
文件	-1049
评估	-1050
条件	-1051
共和党	-1052
学家	-1053
左右	-1054
区域	-1055
至今	-1056
克斯	-1057
医疗	-1058
时说	-1059
选择	-1060
竞选	-1061
传出	-1062
复苏	-1063
原本	-1064
实际	-1065
阿布	-1066
名单	-1067
赛的	-1068
开放	-1069
每天	-1070
涉嫌	-1071
消费者	-1072
观光	-1073
绑架	-1074
资金	-1075
细胞	-1076
二零	-1077
▁他表示	-1078
盖达组织	-1079
项目	-1080
大厦	-1081
类似	-1082
的百分之	-1083
的安全	-1084
方法	-1085
瑞典	-1086
人质	-1087
日报	-1088
西岸	-1089
作出	-1090
议院	-1091
亿日圆	-1092
自己的	-1093
二十八	-1094
声称	-1095
乌地	-1096
以上	-1097
罹难	-1098
▁有	-1099
曾在	-1100
行的	-1101
秘书长	-1102
两年	-1103
行政	-1104
这起	-1105
沙乌地	-1106
全面	-1107
流感	-1108
的一个	-1109
女士	-1110
▁今年	-1111
数据	-1112
通讯	-1113
限制	-1114
五干	-1115
教育	-1116
万美元的	-1117
积极	-1118
对美国	-1119
平均	-1120
核武	-1121
▁今天	-1122
地球	-1123
找们	-1124
此项	-1125
的作	-1126
维奇	-1127
至于	-1128
文化	-1129
一天	-1130
利益	-1131
此事	-1132
顾问	-1133
▁此外	-1134
二十九	-1135
下降	-1136
阿根廷	-1137
关闭	-1138
建筑	-1139
▁尽管	-1140
▁澳洲	-1141
斯特拉	-1142
▁巴	-1143
支出	-1144
组成	-1145
业务	-1146
荷兰	-1147
表达	-1148
一月	-1149
才能	-1150
涉及	-1151
以六比	-1152
七比	-1153
他将	-1154
古巴	-1155
游击	-1156
办公室	-1157
▁当	-1158
中国的	-1159
停火	-1160
加州	-1161
下周	-1162
生物	-1163
预估	-1164
辞职	-1165
国会议员	-1166
▁它	-1167
杂志	-1168
责任	-1169
下令	-1170
业者	-1171
两天	-1172
食品	-1173
▁这个	-1174
该国	-1175
贝尔	-1176
可能是	-1177
领导的	-1178
马拉	-1179
南非	-1180
谴责	-1181
具有	-1182
经济成长	-1183
判决	-1184
态度	-1185
存在	-1186
▁同时	-1187
一九七	-1188
情形	-1189
财务	-1190
安南	-1191
西方	-1192
也不	-1193
解除	-1194
那些	-1195
金额	-1196
▁他在	-1197
的话说	-1198
阿尔	-1199
可是	-1200
条约	-1201
首长	-1202
九百	-1203
力的	-1204
因素	-1205
罗马	-1206
基金会	-1207
制裁	-1208
罪名	-1209
获利	-1210
放弃	-1211
研究人员	-1212
失业	-1213
金正	-1214
稍后	-1215
不久	-1216
二月	-1217
嫌犯	-1218
禽流感	-1219
原油	-1220
回应	-1221
部的	-1222
联军	-1223
尚未	-1224
四名	-1225
台北时间	-1226
俄国	-1227
交通	-1228
观察	-1229
对伊拉克	-1230
▁如果	-1231
理由	-1232
不得	-1233
在内	-1234
威廉	-1235
迹象	-1236
间的	-1237
企图	-1238
后来	-1239
指数	-1240
整个	-1241
证明	-1242
加萨	-1243
十年	-1244
坚持	-1245
分析家	-1246
安理会	-1247
参议员	-1248
二千	-1249
奖金	-1250
海外	-1251
状态	-1252
新闻社	-1253
最佳	-1254
明显	-1255
激进	-1256
尚末	-1257
确保	-1258
纪念	-1259
赛中	-1260
注意	-1261
直接	-1262
贝克	-1263
官员表示	-1264
收入	-1265
▁前	-1266
一定	-1267
民调	-1268
激烈	-1269
呼盱	-1270
北方	-1271
和其他	-1272
斯特拉达	-1273
不到	-1274
▁去年	-1275
攻击事件	-1276
下台	-1277
宪法	-1278
抨击	-1279
六千	-1280
接近	-1281
经常	-1282
工程	-1283
罹患	-1284
之间的	-1285
陷入	-1286
比利	-1287
同期	-1288
零点	-1289
从事	-1290
基因	-1291
决议案	-1292
人物	-1293
有人	-1294
女性	-1295
建设	-1296
民兵	-1297
现代	-1298
全世界	-1299
的可能	-1300
地位	-1301
万名	-1302
作业	-1303
政党	-1304
第五	-1305
主持	-1306
公民	-1307
球场	-1308
▁卡	-1309
大家	-1310
微软	-1311
日的	-1312
马来西亚	-1313
高层	-1314
10	-1315
通货	-1316
重要的	-1317
现象	-1318
评论	-1319
代表团	-1320
迄今	-1321
报导说	-1322
斯说	-1323
防御	-1324
二十七	-1325
的时间	-1326
▁德国	-1327
对话	-1328
设备	-1329
来说	-1330
精神	-1331
并没有	-1332
被控	-1333
主教	-1334
到了	-1335
空中	-1336
传染	-1337
将近	-1338
风险	-1339
七千	-1340
客机	-1341
尤其	-1342
希德	-1343
指称	-1344
美国总统布希	-1345
一致	-1346
电信	-1347
表决	-1348
两干	-1349
理事会	-1350
三干	-1351
反恐	-1352
违反	-1353
有的	-1354
选票	-1355
▁她说	-1356
它的	-1357
照片	-1358
三十五	-1359
困难	-1360
国务卿鲍尔	-1361
一周	-1362
前的	-1363
外交部	-1364
共有	-1365
凯瑞	-1366
带来	-1367
年轻	-1368
集会	-1369
我们将	-1370
克兰	-1371
南斯	-1372
明确	-1373
批准	-1374
是由	-1375
阶段	-1376
黄国	-1377
世界杯	-1378
▁以	-1379
随后	-1380
发生的	-1381
迅速	-1382
叙利亚	-1383
伙伴	-1384
检验	-1385
亚太	-1386
▁美国总统布希	-1387
在这	-1388
严重的	-1389
九十	-1390
会计	-1391
埃及	-1392
全部	-1393
布尔	-1394
某些	-1395
上个月	-1396
哥伦	-1397
意见	-1398
起来	-1399
两位	-1400
快速	-1401
重建	-1402
憎加	-1403
正常	-1404
距离	-1405
助理	-1406
分析师	-1407
反对党	-1408
多名	-1409
审判	-1410
若干	-1411
的影响	-1412
初步	-1413
生涯	-1414
哈克	-1415
汉城	-1416
伤亡	-1417
四十五	-1418
进行的	-1419
有效	-1420
连串	-1421
阻止	-1422
杀害	-1423
哥伦比亚	-1424
致命	-1425
设法	-1426
▁自	-1427
制度	-1428
少年	-1429
火车	-1430
给予	-1431
视为	-1432
警告说	-1433
尸体	-1434
设计	-1435
时表示	-1436
暂时	-1437
海啸	-1438
一九九九年	-1439
董事	-1440
你们	-1441
将与	-1442
经费	-1443
衰退	-1444
美洲	-1445
▁鲍尔	-1446
的主	-1447
唯一	-1448
喜欢	-1449
安排	-1450
起诉	-1451
十分	-1452
委会	-1453
申请	-1454
的不	-1455
贷款	-1456
最新	-1457
也在	-1458
会员国	-1459
的目标	-1460
出售	-1461
手机	-1462
二十一	-1463
直升机	-1464
米尔	-1465
国营	-1466
节目	-1467
▁北韩	-1468
▁欧盟	-1469
接触	-1470
看法	-1471
致力	-1472
四干	-1473
美国与	-1474
下跌	-1475
八千	-1476
太平	-1477
局长	-1478
心脏	-1479
卫星	-1480
内政	-1481
得到	-1482
维斯	-1483
仍在	-1484
因应	-1485
爱尔	-1486
合约	-1487
坚称	-1488
达成协议	-1489
基础	-1490
一事	-1491
医学	-1492
巴士	-1493
打算	-1494
产量	-1495
墨西	-1496
帮助	-1497
退出	-1498
生命	-1499
公里的	-1500
和美国	-1501
总统大选	-1502
缅甸	-1503
▁然而	-1504
英格兰	-1505
派遣	-1506
药物	-1507
基本	-1508
家人	-1509
长达	-1510
一干	-1511
将有	-1512
名人	-1513
今天报导	-1514
巴斯	-1515
或是	-1516
赤字	-1517
五角	-1518
创下	-1519
高兴	-1520
病患	-1521
中表示	-1522
克森	-1523
对此	-1524
誓告	-1525
大部分	-1526
并在	-1527
污染	-1528
都会	-1529
年代	-1530
成本	-1531
父母	-1532
国民	-1533
好战	-1534
旨在	-1535
爱尔兰	-1536
空军	-1537
的一名	-1538
海岸	-1539
自治	-1540
输出	-1541
双边	-1542
火箭	-1543
其中包括	-1544
告诉记者说	-1545
上升	-1546
此举	-1547
狂牛	-1548
首席	-1549
与会	-1550
人们	-1551
经营	-1552
庆祝	-1553
冠军的	-1554
目前的	-1555
发生在	-1556
游击队	-1557
之外	-1558
广泛	-1559
犯罪	-1560
发表的	-1561
副总统	-1562
万桶	-1563
此次	-1564
晚上	-1565
移民	-1566
锦标	-1567
第一次	-1568
释放	-1569
沙乌地阿拉伯	-1570
伍兹	-1571
名列	-1572
怀疑	-1573
罢工	-1574
是因为	-1575
占领	-1576
并非	-1577
速度	-1578
▁报导说	-1579
卫生组织	-1580
愿意	-1581
雪梨	-1582
世纪	-1583
教练	-1584
约有	-1585
终于	-1586
这么	-1587
太空站	-1588
我认为	-1589
▁李	-1590
六日	-1591
莉丝	-1592
▁伊拉克	-1593
上涨	-1594
太平洋	-1595
下一	-1596
事实	-1597
工会	-1598
设立	-1599
高球	-1600
河西岸	-1601
保险	-1602
战略	-1603
监督	-1604
雅罗	-1605
世贸	-1606
佛罗	-1607
促使	-1608
金大	-1609
化学	-1610
获胜	-1611
逐渐	-1612
共和国	-1613
在内的	-1614
攻击行动	-1615
价值	-1616
墨西哥	-1617
大楼	-1618
购买	-1619
一九九八年	-1620
清楚	-1621
监狱	-1622
同样	-1623
席哈克	-1624
艾斯特拉达	-1625
力量	-1626
为百分之	-1627
找到	-1628
贡国	-1629
在今年	-1630
关键	-1631
斯基	-1632
研发	-1633
资产	-1634
资深	-1635
广播公司	-1636
推出	-1637
提升	-1638
案的	-1639
的小	-1640
▁白宫	-1641
举行会谈	-1642
杉矶	-1643
直到	-1644
亿美元的	-1645
日益	-1646
遭遇	-1647
当选	-1648
管制	-1649
199	-1650
▁印度	-1651
合并	-1652
市的	-1653
一郎	-1654
墓金	-1655
朝鲜	-1656
犹太	-1657
美国人	-1658
三天	-1659
权力	-1660
资格	-1661
高度	-1662
比赛中	-1663
丑闻	-1664
密切	-1665
东南亚	-1666
外交官	-1667
不可	-1668
九日	-1669
另有	-1670
就会	-1671
贫穷	-1672
的原因	-1673
▁布	-1674
▁印尼	-1675
允许	-1676
兴建	-1677
宗教	-1678
经理	-1679
范围	-1680
油国	-1681
退休	-1682
乘客	-1683
大战	-1684
明星	-1685
点二	-1686
南斯拉夫	-1687
更加	-1688
死亡人数	-1689
玫击事件	-1690
任命	-1691
事业	-1692
参院	-1693
问题的	-1694
救援	-1695
回教徒	-1696
已被	-1697
进程	-1698
的情况下	-1699
两周	-1700
修正	-1701
几个	-1702
加达	-1703
即使	-1704
检察	-1705
▁报告	-1706
低于	-1707
再次	-1708
麦克	-1709
的工作	-1710
美国政府	-1711
仍有	-1712
民族	-1713
五角大厦	-1714
以后	-1715
一度	-1716
东西	-1717
真正	-1718
接着	-1719
点六	-1720
联台	-1721
都有	-1722
▁一位	-1723
比利时	-1724
美国经济	-1725
约旦河西岸	-1726
公布的	-1727
宫员说	-1728
八强	-1729
可能在	-1730
因而	-1731
妻子	-1732
达州	-1733
里斯	-1734
小泉纯	-1735
只要	-1736
工人	-1737
摧毁	-1738
但他	-1739
广告	-1740
第一个	-1741
不再	-1742
尔说	-1743
研究所	-1744
飞弹防御	-1745
小泉纯一郎	-1746
儿子	-1747
医师	-1748
提议	-1749
行程	-1750
赔偿	-1751
运输	-1752
洛杉矶	-1753
军事行动	-1754
环保	-1755
瑞克	-1756
五名	-1757
支付	-1758
疫苗	-1759
顺利	-1760
中指出	-1761
主任	-1762
策略	-1763
一个月	-1764
吸引	-1765
多的	-1766
最后一	-1767
伊拉克的	-1768
不明	-1769
团结	-1770
市场的	-1771
他是	-1772
以一	-1773
民间	-1774
职业	-1775
太阳	-1776
五日	-1777
影片	-1778
土地	-1779
所谓	-1780
疑似	-1781
程度	-1782
瓦希德	-1783
的说法	-1784
乔治	-1785
强硬	-1786
的国际	-1787
家属	-1788
老师	-1789
大多数	-1790
的消息	-1791
办法	-1792
点四	-1793
▁由	-1794
扩散	-1795
点七	-1796
调整	-1797
驾驶	-1798
各种	-1799
有所	-1800
来越	-1801
程序	-1802
莫中	-1803
随着	-1804
一百五十	-1805
二日	-1806
演出	-1807
八日	-1808
的报导	-1809
通货膨	-1810
▁为	-1811
▁哈	-1812
三日	-1813
协调	-1814
并将	-1815
的决定	-1816
加上	-1817
奥斯	-1818
旅游	-1819
目击	-1820
去年同期	-1821
接获	-1822
纷纷	-1823
誓方	-1824
越来越	-1825
时期	-1826
石涠	-1827
会中	-1828
自杀炸弹	-1829
▁对	-1830
事故	-1831
我不	-1832
邮件	-1833
雅加达	-1834
自由贸易	-1835
体育	-1836
解放	-1837
定的	-1838
撤离	-1839
西兰	-1840
受害	-1841
母亲	-1842
自然	-1843
身体	-1844
重申	-1845
伤害	-1846
数千	-1847
被迫	-1848
采驭	-1849
方面的	-1850
半年	-1851
扮演	-1852
父亲	-1853
突然	-1854
萨玛	-1855
邮报	-1856
上月	-1857
外界	-1858
苏联	-1859
以为	-1860
大量	-1861
下滑	-1862
就业	-1863
会议中	-1864
是一	-1865
长的	-1866
意味	-1867
每日	-1868
经验	-1869
事情	-1870
统治	-1871
全力	-1872
恶化	-1873
设在	-1874
容易	-1875
江泽	-1876
特说	-1877
都在	-1878
水准	-1879
讯息	-1880
的机会	-1881
三人	-1882
希腊	-1883
的关系	-1884
百分之三十	-1885
名将	-1886
确实	-1887
恐怖分子	-1888
核子武器	-1889
周二	-1890
突破	-1891
资源	-1892
黎巴	-1893
及利亚	-1894
▁与	-1895
会在	-1896
保守	-1897
地的	-1898
秘密	-1899
佛罗里	-1900
造成的	-1901
不足	-1902
的重要	-1903
包润	-1904
炭疽	-1905
现任	-1906
用来	-1907
统一	-1908
软体	-1909
队在	-1910
世界贸易	-1911
食物	-1912
附近的	-1913
百分之五十	-1914
▁中	-1915
一亿	-1916
观众	-1917
超级	-1918
不可能	-1919
负责人	-1920
上网	-1921
交给	-1922
四个	-1923
包润石	-1924
▁本	-1925
数以	-1926
每桶	-1927
防卫	-1928
的地方	-1929
克罗	-1930
否则	-1931
呼吸	-1932
地面	-1933
的高	-1934
穆夏	-1935
落后	-1936
轰炸	-1937
▁现年	-1938
会有	-1939
作的	-1940
敦促	-1941
的两	-1942
调查局	-1943
一切	-1944
叛乱	-1945
股票	-1946
国际社会	-1947
12	-1948
不少	-1949
毁灭	-1950
种族	-1951
这家	-1952
乌克兰	-1953
狂牛症	-1954
▁菲律宾	-1955
加速	-1956
指责	-1957
东部	-1958
扬言	-1959
论坛	-1960
的可能性	-1961
女儿	-1962
塞尔维亚	-1963
亏损	-1964
助于	-1965
原子	-1966
感觉	-1967
里的	-1968
喀布尔	-1969
在一项	-1970
不满	-1971
地产	-1972
日前	-1973
四十八	-1974
金大中	-1975
百分之零点	-1976
柜当	-1977
细节	-1978
证券	-1979
国家安全	-1980
在阿富汗	-1981
上诉	-1982
公平	-1983
处于	-1984
流行	-1985
防止	-1986
其顿	-1987
几天	-1988
支援	-1989
数量	-1990
点三	-1991
西部	-1992
纽西兰	-1993
国际货币	-1994
主张	-1995
波兰	-1996
将可	-1997
形容	-1998
排除	-1999
▁这次	-2000
天然	-2001
麦可	-2002
周五	-2003
来源	-2004
三十分	-2005
是一个	-2006
举办	-2007
报纸	-2008
普遍	-2009
班机	-2010
执行长	-2011
伊斯	-2012
得以	-2013
▁北京	-2014
加萨走	-2015
依然	-2016
费用	-2017
警戒	-2018
辩论	-2019
遭受	-2020
在今天	-2021
的要求	-2022
住宅	-2023
促进	-2024
本身	-2025
葡萄	-2026
广场	-2027
诺夫	-2028
江泽民	-2029
的研究	-2030
金正日	-2031
德州	-2032
誓言	-2033
上市	-2034
两次	-2035
比六	-2036
▁三	-2037
▁史	-2038
属于	-2039
平民	-2040
肘间	-2041
▁因为	-2042
▁纽约	-2043
太空总署	-2044
大臣	-2045
渠团	-2046
秘鲁	-2047
首柜	-2048
十二日	-2049
加萨走廊	-2050
最高法院	-2051
乐观	-2052
参赛	-2053
淘汰	-2054
黎巴嫩	-2055
四日	-2056
国王	-2057
并说	-2058
曰圆	-2059
第六	-2060
美方	-2061
▁欧洲	-2062
场比赛	-2063
一架	-2064
清晨	-2065
南北韩	-2066
成长率	-2067
则是	-2068
周末	-2069
将对	-2070
美国和	-2071
厂商	-2072
少数	-2073
尼尔	-2074
点九	-2075
符合	-2076
指挥官	-2077
检讨	-2078
游行	-2079
这一	-2080
与中国	-2081
公约	-2082
凌晨	-2083
定书	-2084
年前	-2085
期限	-2086
构成	-2087
王子	-2088
▁他又说	-2089
美国总统	-2090
11	-2091
早上	-2092
是个	-2093
补充	-2094
质疑	-2095
一份	-2096
侦察	-2097
协商	-2098
消防	-2099
特使	-2100
参议院	-2101
赛冠军	-2102
南方	-2103
形成	-2104
总共	-2105
提名	-2106
点八	-2107
粮食	-2108
这份	-2109
会见	-2110
军人	-2111
原先	-2112
商品	-2113
好手	-2114
并无	-2115
授权	-2116
瑞拉	-2117
克的	-2118
反抗	-2119
怎么	-2120
教授	-2121
街头	-2122
出任	-2123
复制	-2124
真的	-2125
今天宣布	-2126
我们必须	-2127
职务	-2128
西洋	-2129
议定书	-2130
▁佛	-2131
防范	-2132
200	-2133
的方式	-2134
佛罗里达州	-2135
▁二	-2136
▁罗	-2137
失去	-2138
玛斯	-2139
贪污	-2140
的第一	-2141
以巴	-2142
灾难	-2143
球迷	-2144
留在	-2145
陆军	-2146
▁巴勒斯坦	-2147
为期	-2148
苏丹	-2149
道路	-2150
前总统	-2151
欧萨玛	-2152
整体	-2153
汇率	-2154
希望能	-2155
的政治	-2156
目击者	-2157
▁克	-2158
▁继	-2159
华社	-2160
车臣	-2161
冲击	-2162
多达	-2163
缺乏	-2164
▁新加坡	-2165
做出	-2166
延后	-2167
称为	-2168
迫使	-2169
推翻	-2170
通常	-2171
通知	-2172
难以	-2173
分之一	-2174
下来	-2175
也会	-2176
回到	-2177
议会	-2178
债务	-2179
民意	-2180
牛肉	-2181
表明	-2182
▁另外	-2183
巴尼亚	-2184
科威特	-2185
测试	-2186
的三	-2187
群岛	-2188
邀请	-2189
阶层	-2190
媒体报导	-2191
出生	-2192
患者	-2193
身份	-2194
联台国	-2195
与北韩	-2196
以便	-2197
优势	-2198
华尔	-2199
亚齐	-2200
口蹄	-2201
布鲁	-2202
禁令	-2203
的中国	-2204
至少有	-2205
一再	-2206
不仅	-2207
加以	-2208
尼拉	-2209
死于	-2210
波音	-2211
演习	-2212
裁决	-2213
马德里	-2214
暴力冲突	-2215
朝鲜半岛	-2216
采取行动	-2217
格西	-2218
法轮	-2219
领域	-2220
投资人	-2221
的立场	-2222
忧虑	-2223
收到	-2224
预计	-2225
他们在	-2226
一座	-2227
卫冕	-2228
气候	-2229
而非	-2230
这件	-2231
中心的	-2232
中央银行	-2233
发行	-2234
癌症	-2235
钱尼	-2236
住在	-2237
坦承	-2238
实现	-2239
会议的	-2240
一九九七年	-2241
党的	-2242
典礼	-2243
经由	-2244
利比亚	-2245
德拉	-2246
这两	-2247
百分之二	-2248
人道	-2249
及其	-2250
点一	-2251
▁自从	-2252
三十日	-2253
与其他	-2254
结果显示	-2255
中有	-2256
今晚	-2257
温布	-2258
展现	-2259
权利	-2260
面的	-2261
个国家	-2262
伊凡	-2263
化解	-2264
和解	-2265
身分	-2266
屠杀	-2267
破产	-2268
而在	-2269
预防	-2270
法轮功	-2271
劳动	-2272
多少	-2273
很好	-2274
相同	-2275
败给	-2276
这类	-2277
此同时	-2278
欧萨玛宾拉登	-2279
▁从	-2280
交换	-2281
内部	-2282
功能	-2283
央行	-2284
巴拉	-2285
立法	-2286
是美国	-2287
皇家	-2288
七十五	-2289
分离	-2290
好莱	-2291
暗示	-2292
三十二	-2293
东协	-2294
卡拉	-2295
命令	-2296
战士	-2297
的计画	-2298
伊夫	-2299
获释	-2300
万欧元	-2301
旅客	-2302
草案	-2303
太空人	-2304
全球经济	-2305
不幸	-2306
为首	-2307
于二	-2308
京都	-2309
市长	-2310
搭乘	-2311
有意	-2312
球队	-2313
英镑	-2314
资本	-2315
恐怖组织	-2316
告诉法新社说	-2317
▁其	-2318
六名	-2319
的机	-2320
系列	-2321
中国家	-2322
发表声明说	-2323
联邦调查局	-2324
▁欧	-2325
原则	-2326
合法	-2327
用户	-2328
电力	-2329
铁路	-2330
鲁斯	-2331
十三日	-2332
行动电话	-2333
领袖阿拉法特	-2334
一旦	-2335
击毙	-2336
日期	-2337
重返	-2338
驱逐	-2339
▁国务院	-2340
在于	-2341
心理	-2342
摄影	-2343
线上	-2344
记者说	-2345
塔利班政权	-2346
九千	-2347
小孩	-2348
我想	-2349
反映	-2350
城镇	-2351
杆的	-2352
瑞斯	-2353
的信	-2354
革命	-2355
布希政府	-2356
案件	-2357
组只	-2358
饭店	-2359
塞维奇	-2360
昨天在	-2361
商务	-2362
报复	-2363
根本	-2364
十五日	-2365
出来	-2366
变成	-2367
感谢	-2368
米洛	-2369
错误	-2370
口蹄疫	-2371
太空梭	-2372
的努力	-2373
关税	-2374
失望	-2375
将使	-2376
结构	-2377
被判	-2378
穆夏拉夫	-2379
百分之四十	-2380
▁拉	-2381
作战	-2382
报说	-2383
空袭	-2384
飞往	-2385
也表示	-2386
威廉丝	-2387
锦标赛	-2388
任期	-2389
网际	-2390
鼓励	-2391
十六日	-2392
会计年度	-2393
关于	-2394
外的	-2395
大众	-2396
除非	-2397
财政部长	-2398
二世	-2399
强劲	-2400
搜寻	-2401
石油输出	-2402
去年十二月	-2403
将由	-2404
波斯	-2405
私人	-2406
艺术	-2407
阿尔巴尼亚	-2408
确认	-2409
的调查	-2410
发表声明	-2411
愤怒	-2412
准决赛	-2413
中东和平	-2414
化的	-2415
第七	-2416
人民币	-2417
并表示	-2418
百分之三	-2419
农民	-2420
决心	-2421
囚犯	-2422
行业	-2423
裁员	-2424
解释	-2425
一连串	-2426
好莱坞	-2427
五个	-2428
制造商	-2429
百分之五	-2430
的反	-2431
网赛	-2432
研究报告	-2433
九月十一日	-2434
埔寨	-2435
耶路	-2436
作用	-2437
先生	-2438
田径	-2439
▁香港	-2440
六十五	-2441
在中国	-2442
性武器	-2443
创造	-2444
战机	-2445
主要是	-2446
的计划	-2447
马其顿	-2448
多人	-2449
总额	-2450
气象	-2451
燃料	-2452
的危险	-2453
加拉	-2454
娃蒂	-2455
徒刑	-2456
最终	-2457
特别是	-2458
美元的	-2459
高级官员	-2460
万元	-2461
予以	-2462
假如	-2463
公园	-2464
失败	-2465
委内	-2466
年底	-2467
暂停	-2468
曼联	-2469
宫方	-2470
而目	-2471
二零零	-2472
将继续	-2473
许多人	-2474
他对	-2475
调降	-2476
大西洋	-2477
日本政府	-2478
网际网路	-2479
百分之一点	-2480
七干	-2481
之下	-2482
周刊	-2483
得主	-2484
天主教	-2485
九一一恐怖攻击	-2486
▁小	-2487
只能	-2488
司机	-2489
大赛	-2490
年龄	-2491
打破	-2492
股价	-2493
工作的	-2494
标准杆	-2495
主导	-2496
民党	-2497
目前为止	-2498
但在	-2499
将以	-2500
万五千	-2501
几个月	-2502
的结果	-2503
耍求	-2504
表演	-2505
路线	-2506
▁至于	-2507
的威胁	-2508
的最后	-2509
▁柯	-2510
一处	-2511
入侵	-2512
道歉	-2513
在这个	-2514
20	-2515
救难	-2516
一九六	-2517
巡逻	-2518
才会	-2519
森喜	-2520
等待	-2521
辩护	-2522
运作	-2523
一百一	-2524
四十二	-2525
▁布希说	-2526
上说	-2527
元月	-2528
充分	-2529
击出	-2530
备国	-2531
并列	-2532
庞大	-2533
德说	-2534
是要	-2535
物价	-2536
男性	-2537
台湾的	-2538
干预	-2539
集中	-2540
前来	-2541
很快	-2542
遵守	-2543
陆战	-2544
三个月	-2545
不知道	-2546
她们	-2547
当中	-2548
当然	-2549
挪威	-2550
卫生部	-2551
温布顿	-2552
的谈话	-2553
以军	-2554
延长	-2555
焦点	-2556
阵营	-2557
的日本	-2558
被视为	-2559
的发言人	-2560
▁美国国务院	-2561
会面	-2562
夺得	-2563
毫无	-2564
营运	-2565
韩国	-2566
高的	-2567
三十六	-2568
支持者	-2569
同胞	-2570
已于	-2571
时刻	-2572
见到	-2573
队员	-2574
什米尔	-2575
尤其是	-2576
第二次	-2577
上扬	-2578
中断	-2579
从未	-2580
发球	-2581
愈来	-2582
截至	-2583
本人	-2584
气氛	-2585
电厂	-2586
佛州	-2587
里兰	-2588
今天的	-2589
国内生产	-2590
施若	-2591
车辆	-2592
三十七	-2593
中丧生	-2594
修威特	-2595
婴儿	-2596
波士	-2597
的作法	-2598
经济体	-2599
侵袭	-2600
夫人	-2601
德瑞	-2602
教堂	-2603
死刑	-2604
车队	-2605
通信	-2606
土耳莫	-2607
第二轮	-2608
葡萄牙	-2609
以来的	-2610
愈来愈	-2611
的事情	-2612
一人	-2613
发挥	-2614
投入	-2615
提及	-2616
的海	-2617
趋势	-2618
▁两	-2619
呈现	-2620
周一	-2621
周日	-2622
宝座	-2623
届时	-2624
庇护	-2625
想要	-2626
毛额	-2627
约翰	-2628
象征	-2629
轻松	-2630
逞国	-2631
布莱特	-2632
总统蒲亭	-2633
严格	-2634
九曰	-2635
公路	-2636
受访	-2637
女王	-2638
录影	-2639
耶诞	-2640
聚集	-2641
乔治亚	-2642
罹难者	-2643
取代	-2644
地利	-2645
撒冷	-2646
遗憾	-2647
六比三	-2648
华尔街	-2649
▁安	-2650
作法	-2651
信息	-2652
六干	-2653
势力	-2654
学院	-2655
西藏	-2656
奥斯卡	-2657
我觉得	-2658
耶路撒冷	-2659
比一	-2660
营业	-2661
二干	-2662
你的	-2663
卡斯	-2664
就职	-2665
结婚	-2666
被告	-2667
诉讼	-2668
零售	-2669
的英国	-2670
马尼拉	-2671
时三十分	-2672
消息人士说	-2673
四强	-2674
在与	-2675
柏林	-2676
人士说	-2677
的会谈	-2678
外交部长	-2679
安全部队	-2680
很难	-2681
失业率	-2682
委内瑞拉	-2683
十日	-2684
缓和	-2685
良好	-2686
▁对于	-2687
一辆	-2688
例如	-2689
名为	-2690
连任	-2691
适当	-2692
的人数	-2693
的政府	-2694
丰富	-2695
墙加	-2696
导演	-2697
差距	-2698
提到	-2699
改造	-2700
景气	-2701
雅典	-2702
奥地利	-2703
的这项	-2704
希尔	-2705
彼此	-2706
比例	-2707
票房	-2708
▁美军	-2709
十七日	-2710
原子能	-2711
我们已	-2712
奈及利亚	-2713
油国组织	-2714
百分之七	-2715
通货膨胀	-2716
保障	-2717
兴趣	-2718
动作	-2719
姆斯	-2720
案例	-2721
物质	-2722
用的	-2723
重点	-2724
曾表示	-2725
有关的	-2726
伊泣	-2727
克里	-2728
开会	-2729
有限	-2730
美分	-2731
领事	-2732
他们将	-2733
第一位	-2734
严厉	-2735
列为	-2736
巨擘	-2737
火山	-2738
实验室	-2739
以色列总理	-2740
秘书长安南	-2741
不在	-2742
刊登	-2743
十字	-2744
季的	-2745
州长	-2746
百分	-2747
路易	-2748
那里	-2749
美国对	-2750
阿格西	-2751
雅罗育	-2752
专业	-2753
后者	-2754
屯垦	-2755
洪水	-2756
日本的	-2757
杜拉	-2758
藤森	-2759
青少年	-2760
中部	-2761
周四	-2762
疑虑	-2763
葛林	-2764
▁其中	-2765
三十曰	-2766
第二大	-2767
阿布沙	-2768
新高	-2769
旅行	-2770
极端	-2771
我们在	-2772
结束后	-2773
之中	-2774
人和	-2775
他也	-2776
僵局	-2777
勒斯	-2778
卡车	-2779
增长	-2780
就在	-2781
情绪	-2782
障碍	-2783
三十八	-2784
公车	-2785
六个	-2786
内瓦	-2787
同肘	-2788
对外	-2789
期待	-2790
祈祷	-2791
股权	-2792
▁豪国	-2793
及其他	-2794
的报告	-2795
巡回	-2796
最低	-2797
六个月	-2798
墓金会	-2799
检察官	-2800
前述	-2801
学习	-2802
时的	-2803
南部的	-2804
▁另	-2805
军的	-2806
出版	-2807
北美	-2808
周三	-2809
无人	-2810
机器	-2811
▁此一	-2812
有可能	-2813
工作人员	-2814
米洛塞维奇	-2815
丹麦	-2816
他已	-2817
冻结	-2818
出了	-2819
对付	-2820
梅嘉	-2821
正当	-2822
武力	-2823
详细	-2824
还在	-2825
▁小泉	-2826
15	-2827
中华	-2828
半数	-2829
攻势	-2830
蔓延	-2831
这架	-2832
遗体	-2833
随即	-2834
柬埔寨	-2835
诺贝尔	-2836
▁是	-2837
老板	-2838
身上	-2839
北韩的	-2840
巴瑞克	-2841
施若德	-2842
宫员表示	-2843
为主	-2844
大火	-2845
火星	-2846
五十五	-2847
境内的	-2848
开发中国家	-2849
不安	-2850
为一	-2851
场的	-2852
特拉	-2853
▁这份	-2854
发表演说	-2855
我很	-2856
拍摄	-2857
演员	-2858
十四日	-2859
众院	-2860
劫持	-2861
指示	-2862
发起	-2863
听到	-2864
四人	-2865
寻找	-2866
尼斯	-2867
考量	-2868
爱滋病毒	-2869
半导	-2870
台风	-2871
基督	-2872
履行	-2873
当天	-2874
所在	-2875
死者	-2876
盈余	-2877
自卫	-2878
线电视	-2879
中止	-2880
开幕	-2881
满贯	-2882
这对	-2883
▁昨天	-2884
上周末	-2885
数百名	-2886
我们希望	-2887
大规模毁灭	-2888
决策	-2889
客户	-2890
布拉	-2891
成果	-2892
▁过去	-2893
我希望	-2894
房地产	-2895
七名	-2896
五曰	-2897
克说	-2898
基于	-2899
大型	-2900
局面	-2901
此行	-2902
满意	-2903
福特	-2904
自动	-2905
自行	-2906
营收	-2907
二零一	-2908
十九日	-2909
活动的	-2910
汽车公司	-2911
一向	-2912
变化	-2913
叶派	-2914
暴乱	-2915
机关	-2916
症候	-2917
新闻网	-2918
波斯湾	-2919
元的	-2920
已将	-2921
服用	-2922
格林	-2923
正确	-2924
索伏	-2925
六比四	-2926
京都议定书	-2927
以下	-2928
威尔	-2929
智利	-2930
邻近	-2931
重的	-2932
第八	-2933
资助	-2934
▁巴基斯坦	-2935
一九九六年	-2936
▁高	-2937
事宜	-2938
吉丝	-2939
周年	-2940
多次	-2941
州的	-2942
意义	-2943
过的	-2944
伊斯兰	-2945
家公司	-2946
30	-2947
削减	-2948
收购	-2949
国防部长伦斯斐	-2950
依据	-2951
帝汶	-2952
十八日	-2953
总统的	-2954
目前正	-2955
主权	-2956
她在	-2957
罪行	-2958
观光客	-2959
经济学家	-2960
减税	-2961
备受	-2962
籍的	-2963
职位	-2964
起飞	-2965
阵线	-2966
半导体	-2967
位置	-2968
那个	-2969
森喜朗	-2970
的措施	-2971
▁戴	-2972
▁柯林顿	-2973
刺激	-2974
并目	-2975
引爆	-2976
新一	-2977
特的	-2978
盟邦	-2979
▁曰本	-2980
发动攻击	-2981
三万	-2982
分裂	-2983
股东	-2984
过度	-2985
里岛	-2986
▁泰国	-2987
亿欧元	-2988
伊拉克战争	-2989
人选	-2990
卡达	-2991
各界	-2992
奥会	-2993
披露	-2994
放在	-2995
方向	-2996
绝对	-2997
间谍	-2998
青年	-2999
什叶派	-3000
市中心	-3001
共党	-3002
反弹	-3003
史上	-3004
对象	-3005
毒品	-3006
登记	-3007
省的	-3008
菲国	-3009
血液	-3010
▁这种	-3011
哈玛斯	-3012
的攻击	-3013
菖升机	-3014
排名第一	-3015
以二	-3016
吸烟	-3017
复杂	-3018
宣传	-3019
暴动	-3020
率领	-3021
让他	-3022
鉴于	-3023
录影带	-3024
症候群	-3025
弹劾	-3026
我要	-3027
柜信	-3028
莱谢	-3029
侦察机	-3030
的和平	-3031
中文	-3032
增至	-3033
能在	-3034
装置	-3035
记录	-3036
首先	-3037
▁为了	-3038
美国在	-3039
国内生产毛额	-3040
磋商	-3041
二十一日	-3042
所为	-3043
此种	-3044
▁义大利	-3045
▁他指出	-3046
其后	-3047
大批	-3048
夺冠	-3049
政变	-3050
镇压	-3051
有必要	-3052
各方	-3053
山区	-3054
施压	-3055
飓风	-3056
他表示	-3057
的世界	-3058
▁伦斯斐	-3059
▁不	-3060
修改	-3061
几年	-3062
敏感	-3063
法宫	-3064
数小时	-3065
月份的	-3066
娱乐	-3067
是以	-3068
柜关	-3069
用于	-3070
韩元	-3071
炸弹攻击	-3072
▁费	-3073
东亚	-3074
他所	-3075
将军	-3076
成的	-3077
计票	-3078
还不	-3079
钢铁	-3080
董事长	-3081
▁华盛顿	-3082
百分之四	-3083
两度	-3084
女将	-3085
妈妈	-3086
斯塔	-3087
演唱	-3088
说服	-3089
足够	-3090
七比六	-3091
的政策	-3092
克什米尔	-3093
国际太空站	-3094
拍卖	-3095
诸如	-3096
今天上午	-3097
一菖	-3098
四曰	-3099
子的	-3100
指标	-3101
来到	-3102
极为	-3103
终止	-3104
的比赛	-3105
苏格兰	-3106
也曾	-3107
封锁	-3108
总会	-3109
手段	-3110
游泳	-3111
具体	-3112
凡波	-3113
发言	-3114
核心	-3115
突击	-3116
转移	-3117
隔离	-3118
小布希	-3119
日本经济	-3120
更为	-3121
神经	-3122
▁伊朗	-3123
的公司	-3124
以三	-3125
坠毁	-3126
家中	-3127
式的	-3128
这座	-3129
这部	-3130
降落	-3131
在国会	-3132
大部份	-3133
百分点	-3134
发言人表示	-3135
德的	-3136
斯的	-3137
的地	-3138
禁药	-3139
老人	-3140
都不	-3141
▁一般	-3142
三十四	-3143
人民的	-3144
道飞弹	-3145
历来	-3146
团队	-3147
它将	-3148
歧见	-3149
沙国	-3150
主办单位	-3151
凯利	-3152
家族	-3153
在记者会	-3154
梅嘉娃蒂	-3155
访问时说	-3156
调查人员	-3157
停留	-3158
八曰	-3159
命运	-3160
宣告	-3161
打进	-3162
脱离	-3163
轨道	-3164
在纽约	-3165
世界贸易组织	-3166
主党	-3167
争执	-3168
列入	-3169
手中	-3170
本季	-3171
反对派	-3172
实际上	-3173
总统府	-3174
的一次	-3175
首相小泉纯一郎	-3176
交出	-3177
体系	-3178
公斤	-3179
关注	-3180
平静	-3181
据信	-3182
相互	-3183
三十三	-3184
三十九	-3185
柯索伏	-3186
的表现	-3187
临时政府	-3188
飞弹防御系统	-3189
▁并	-3190
▁曾	-3191
晶片	-3192
来看	-3193
症状	-3194
盟友	-3195
选出	-3196
也就是	-3197
百分之八	-3198
总统候选人	-3199
巴勒斯坦领袖阿拉法特	-3200
一枚	-3201
共识	-3202
外务	-3203
或许	-3204
禁运	-3205
谋杀	-3206
还要	-3207
驳斥	-3208
后表示	-3209
俄罗斯的	-3210
减缓	-3211
同一	-3212
天气	-3213
架构	-3214
生效	-3215
登上	-3216
签证	-3217
身为	-3218
身亡	-3219
伊泣克	-3220
的协议	-3221
的情形	-3222
社报导	-3223
自民党	-3224
原子能总署	-3225
也许	-3226
价位	-3227
哎击	-3228
塔吉	-3229
瓦斯	-3230
锦涛	-3231
四十七	-3232
对中国	-3233
三十一日	-3234
好战份子	-3235
电子邮件	-3236
十名	-3237
卢武	-3238
夫妇	-3239
获准	-3240
规范	-3241
政府军	-3242
组成的	-3243
阿布沙伊夫	-3244
否决	-3245
听证	-3246
实力	-3247
尔的	-3248
空间	-3249
还会	-3250
领土	-3251
七比五	-3252
友言人	-3253
声明中	-3254
百分之十	-3255
高峰会议	-3256
▁北	-3257
二次	-3258
八名	-3259
农场	-3260
四周	-3261
将从	-3262
控告	-3263
看来	-3264
走私	-3265
三十一	-3266
二一年	-3267
建筑物	-3268
▁海	-3269
损害	-3270
罗迪	-3271
赞成	-3272
一九五	-3273
在英国	-3274
揭幕	-3275
比率	-3276
▁因此	-3277
大满贯	-3278
查尔斯	-3279
有线电视	-3280
两岸	-3281
净利	-3282
动乱	-3283
动力	-3284
无论	-3285
米兰	-3286
众议院	-3287
我们不	-3288
人体	-3289
生还	-3290
翁山	-3291
色的	-3292
▁上周	-3293
销售量	-3294
世贸组织	-3295
▁王	-3296
上空	-3297
不但	-3298
官兵	-3299
尽快	-3300
幅度	-3301
心的	-3302
提前	-3303
照顾	-3304
雷根	-3305
是为了	-3306
有机会	-3307
业的	-3308
可疑	-3309
异议	-3310
有利	-3311
检方	-3312
生的	-3313
花费	-3314
进步	-3315
卢武铉	-3316
更多的	-3317
有助于	-3318
被认为	-3319
最严重的	-3320
减产	-3321
东帝汶	-3322
六比二	-3323
天然气	-3324
打电话	-3325
执委会	-3326
我们认为	-3327
一条	-3328
亿元	-3329
出战	-3330
博物	-3331
实在	-3332
数位	-3333
森林	-3334
签订	-3335
菖接	-3336
裁定	-3337
在北京	-3338
的地区	-3339
爆炸事件	-3340
▁亚	-3341
回家	-3342
宣誓	-3343
教师	-3344
画面	-3345
有一个	-3346
的伊拉克	-3347
侵犯	-3348
对他	-3349
电讯	-3350
结论	-3351
袭击	-3352
裁减	-3353
雷兰	-3354
▁来自	-3355
了一个	-3356
的谈判	-3357
联邦准备	-3358
保留	-3359
公安	-3360
武检	-3361
游戏	-3362
采购	-3363
在一九九	-3364
▁日本经济	-3365
受损	-3366
柏格	-3367
立刻	-3368
简报	-3369
负担	-3370
受害者	-3371
这个问题	-3372
▁美	-3373
四天	-3374
多位	-3375
库存	-3376
攀升	-3377
效果	-3378
老虎	-3379
衣服	-3380
配合	-3381
的第二	-3382
▁国际货币	-3383
尊重	-3384
意图	-3385
掌控	-3386
维护	-3387
试验	-3388
送到	-3389
送往	-3390
两个月	-3391
也没有	-3392
斯里兰	-3393
一千五百	-3394
斯里兰卡	-3395
七曰	-3396
空气	-3397
他希望	-3398
今日	-3399
其它	-3400
声音	-3401
干部	-3402
演讲	-3403
在去年	-3404
在接受	-3405
的军事	-3406
专访	-3407
两万	-3408
公投	-3409
前天	-3410
对方	-3411
巴德	-3412
药品	-3413
角逐	-3414
五十二	-3415
受访者	-3416
的一百	-3417
胡锦涛	-3418
▁分析家	-3419
▁西班牙	-3420
其他国家	-3421
将为	-3422
强化	-3423
持有	-3424
派驻	-3425
而不	-3426
而是	-3427
英文	-3428
▁除了	-3429
的行为	-3430
选举中	-3431
▁警方说	-3432
中午	-3433
会上	-3434
市希	-3435
开枪	-3436
本届	-3437
特丝	-3438
球季	-3439
警官	-3440
遏止	-3441
杰克森	-3442
目前正在	-3443
▁伊	-3444
兄弟	-3445
急性	-3446
最多	-3447
机上	-3448
苏姬	-3449
事实上	-3450
外国人	-3451
的律师	-3452
示威者	-3453
克辛	-3454
出赛	-3455
去世	-3456
回答	-3457
在他	-3458
船只	-3459
苹果	-3460
购物	-3461
赛事	-3462
有许多	-3463
陆战队	-3464
百分之九	-3465
▁日	-3466
▁陈	-3467
三次	-3468
以往	-3469
住院	-3470
形象	-3471
我国	-3472
排放	-3473
推进	-3474
此案	-3475
猛烈	-3476
的水	-3477
策划	-3478
计算	-3479
七十二	-3480
辛吉丝	-3481
▁泰	-3482
▁那	-3483
优先	-3484
促成	-3485
华德	-3486
当年	-3487
流血	-3488
赖比	-3489
该组织	-3490
翁山苏姬	-3491
造成至少	-3492
▁上	-3493
一支	-3494
丈夫	-3495
击中	-3496
明白	-3497
混乱	-3498
瑞亚	-3499
震惊	-3500
▁这家	-3501
会谈的	-3502
的回教	-3503
补充说	-3504
贝克汉	-3505
部队的	-3506
▁被	-3507
也对	-3508
今后	-3509
各项	-3510
同学	-3511
所提	-3512
胡笙	-3513
超越	-3514
公司说	-3515
所有的	-3516
▁布希在	-3517
▁阿富汗	-3518
委员会主席	-3519
判处	-3520
品质	-3521
收盘	-3522
末能	-3523
歌手	-3524
病的	-3525
穿着	-3526
达赖	-3527
内政部	-3528
另一个	-3529
时台北时间	-3530
大规模毁灭性武器	-3531
学者	-3532
总值	-3533
沙丹	-3534
贡献	-3535
迈向	-3536
一百零	-3537
与南韩	-3538
关系的	-3539
十五曰	-3540
战斗机	-3541
计划的	-3542
▁张	-3543
坎达	-3544
曾于	-3545
在未来	-3546
还没有	-3547
北方联盟	-3548
本月二十	-3549
50	-3550
▁于	-3551
三亿	-3552
他与	-3553
外海	-3554
展望	-3555
柯尼	-3556
社区	-3557
积分	-3558
车手	-3559
六十六	-3560
不佳	-3561
不好	-3562
到的	-3563
卡特	-3564
吉尔	-3565
撤出	-3566
沙芬	-3567
相对	-3568
今年的	-3569
目前已	-3570
这样的	-3571
利斯	-3572
撤军	-3573
病人	-3574
蒙特	-3575
补贴	-3576
▁许多	-3577
在日本	-3578
局局长	-3579
▁茌	-3580
一段	-3581
内战	-3582
别克	-3583
子女	-3584
效应	-3585
至二	-3586
见的	-3587
途中	-3588
六十九	-3589
四十六	-3590
社引述	-3591
银行的	-3592
代价	-3593
全美	-3594
半场	-3595
扑杀	-3596
拘留	-3597
提醒	-3598
爱的	-3599
特兰	-3600
见面	-3601
诺斯	-3602
走访	-3603
香烟	-3604
▁国家	-3605
争议的	-3606
以上的	-3607
▁波	-3608
也纳	-3609
困境	-3610
坦克	-3611
墓地	-3612
成就	-3613
抑制	-3614
水扁	-3615
特种	-3616
邻国	-3617
重视	-3618
高速	-3619
将成为	-3620
执政党	-3621
运动员	-3622
则在	-3623
咖啡	-3624
她说	-3625
广州	-3626
所需	-3627
敲定	-3628
期望	-3629
每周	-3630
让人	-3631
小时的	-3632
报报导	-3633
这两个	-3634
石油公司	-3635
▁法	-3636
三菱	-3637
冷战	-3638
分享	-3639
威力	-3640
宣言	-3641
移动	-3642
胜地	-3643
装备	-3644
运用	-3645
这里	-3646
重整	-3647
后不久	-3648
呼吸道	-3649
在一起	-3650
太空船	-3651
已成为	-3652
有任何	-3653
美国将	-3654
计画的	-3655
民意调查	-3656
主角	-3657
人是	-3658
录音	-3659
提案	-3660
机制	-3661
民航	-3662
流亡	-3663
的女	-3664
紧缩	-3665
联系	-3666
都已	-3667
六十七	-3668
的同时	-3669
商店	-3670
强大	-3671
得票	-3672
挟持	-3673
的艾	-3674
都将	-3675
司法部	-3676
坎达哈	-3677
夫斯基	-3678
必须在	-3679
的方法	-3680
的民众	-3681
让他们	-3682
九月二十	-3683
上万	-3684
专员	-3685
介绍	-3686
利安	-3687
墓本	-3688
血腥	-3689
▁上海	-3690
全世养	-3691
可能的	-3692
赖比瑞亚	-3693
做的	-3694
十个	-3695
开火	-3696
忧心	-3697
怀孕	-3698
房子	-3699
文章	-3700
阴谋	-3701
▁现在	-3702
讯记者	-3703
巴勒斯坦自治	-3704
何时	-3705
元首	-3706
其实	-3707
所致	-3708
据点	-3709
森说	-3710
特殊	-3711
的中	-3712
落实	-3713
赞扬	-3714
▁当时	-3715
十九曰	-3716
十二曰	-3717
成员国	-3718
共产	-3719
到二	-3720
故事	-3721
终结	-3722
通用	-3723
▁政府	-3724
▁莫国	-3725
下个月	-3726
在欧洲	-3727
的一位	-3728
维也纳	-3729
阿尔巴尼亚裔	-3730
仍将	-3731
他不	-3732
入境	-3733
动用	-3734
周六	-3735
已对	-3736
想法	-3737
战后	-3738
活跃	-3739
第九	-3740
而已	-3741
肯定	-3742
英雄	-3743
颁奖	-3744
餐厅	-3745
▁上述	-3746
四十四	-3747
在法国	-3748
大利亚	-3749
干细胞	-3750
新政府	-3751
今天下午	-3752
外交政策	-3753
低于标准杆	-3754
▁杜	-3755
十曰	-3756
平衡	-3757
总数	-3758
房屋	-3759
正是	-3760
每个	-3761
独裁	-3762
采用	-3763
▁台湾	-3764
▁蒲亭	-3765
▁这场	-3766
总经理	-3767
报告说	-3768
的态度	-3769
的最新	-3770
与俄罗斯	-3771
一片	-3772
主耍	-3773
所得	-3774
探测	-3775
派的	-3776
胚胎	-3777
野生	-3778
所以我	-3779
第三季	-3780
不利	-3781
找出	-3782
的名	-3783
的生	-3784
量级	-3785
长官	-3786
于去年	-3787
十四曰	-3788
二十三日	-3789
十二月二十	-3790
墓因	-3791
婚礼	-3792
结合	-3793
维尔	-3794
财产	-3795
逃离	-3796
陆续	-3797
首府	-3798
六十八	-3799
查维斯	-3800
目的在	-3801
百分之六	-3802
下去	-3803
债权	-3804
准许	-3805
网友	-3806
飞抵	-3807
▁其他	-3808
布里	-3809
影像	-3810
更是	-3811
让我	-3812
风暴	-3813
报记者	-3814
的压力	-3815
阿巴斯	-3816
丧命	-3817
信任	-3818
大宇	-3819
夫说	-3820
摆脱	-3821
细菌	-3822
要在	-3823
谱加	-3824
车祸	-3825
奥运会	-3826
格林威	-3827
禄二世	-3828
过程中	-3829
▁布希总统	-3830
16	-3831
▁就	-3832
出发	-3833
启程	-3834
密的	-3835
温和	-3836
的时	-3837
达佛	-3838
博物馆	-3839
已开始	-3840
比赛的	-3841
第二季	-3842
二十六日	-3843
空中巴士	-3844
领导阶层	-3845
一艘	-3846
东北	-3847
仍是	-3848
做为	-3849
参谋	-3850
引擎	-3851
战中	-3852
扩张	-3853
最好	-3854
的马	-3855
负债	-3856
这笔	-3857
不同的	-3858
和中国	-3859
▁研究人员	-3860
网球公开赛	-3861
▁你	-3862
▁库	-3863
假期	-3864
参观	-3865
多年	-3866
小型	-3867
局势	-3868
市民	-3869
平台	-3870
智能	-3871
暗杀	-3872
短期	-3873
西斯	-3874
陪同	-3875
▁他的	-3876
所作的	-3877
炭疽热	-3878
首相布莱尔	-3879
上一	-3880
上次	-3881
失事	-3882
拳击	-3883
氏症	-3884
随时	-3885
▁最近	-3886
事件的	-3887
行动的	-3888
领事馆	-3889
国家组织	-3890
政府官员	-3891
下落	-3892
不太	-3893
势必	-3894
历经	-3895
局的	-3896
很大	-3897
法鲁	-3898
消除	-3899
街道	-3900
车的	-3901
已同意	-3902
美国驻	-3903
迹象显示	-3904
一九九四年	-3905
▁白宫发言人	-3906
▁贾	-3907
介入	-3908
作品	-3909
前夕	-3910
国土	-3911
模式	-3912
正面	-3913
比二	-3914
维和	-3915
防治	-3916
历史性	-3917
二十四日	-3918
以色列的	-3919
亲自	-3920
伤势	-3921
坚定	-3922
布朗	-3923
度的	-3924
摘下	-3925
新任	-3926
朱镕	-3927
派系	-3928
饱受	-3929
▁伦敦	-3930
▁另一	-3931
高科技	-3932
反恐战争	-3933
布鲁塞尔	-3934
我在	-3935
接替	-3936
显得	-3937
游客	-3938
▁包括	-3939
▁越南	-3940
提供的	-3941
▁新华社	-3942
25	-3943
一时	-3944
丧失	-3945
九名	-3946
也说	-3947
但仍	-3948
出庭	-3949
摩洛	-3950
普莉	-3951
涵盖	-3952
频道	-3953
一九四	-3954
二十日	-3955
北部的	-3956
大学的	-3957
该地区	-3958
马拉松	-3959
伊凡诺夫	-3960
五百万美元	-3961
变得	-3962
尼泊	-3963
巨星	-3964
犯下	-3965
近来	-3966
主要的	-3967
副总理	-3968
引发的	-3969
的内容	-3970
访问时	-3971
费德瑞	-3972
一百二十	-3973
严重急性	-3974
18	-3975
上任	-3976
争夺	-3977
十万	-3978
封王	-3979
小肘	-3980
巨大	-3981
建造	-3982
想到	-3983
数周	-3984
村民	-3985
记忆	-3986
赛后	-3987
采访	-3988
我们对	-3989
目的是	-3990
▁据报导	-3991
国家主席	-3992
▁穆	-3993
以外	-3994
刑事	-3995
构想	-3996
此外	-3997
海上	-3998
理论	-3999
舞台	-4000
询问	-4001
▁经济	-4002
使用的	-4003
没有人	-4004
仅有	-4005
山普	-4006
播出	-4007
村庄	-4008
的好	-4009
足以	-4010
里面	-4011
为首的	-4012
兵工厂	-4013
发生后	-4014
的一些	-4015
红十字	-4016
财政部	-4017
包润石说	-4018
阿富汗的	-4019
一九九五年	-4020
不变	-4021
为何	-4022
倘若	-4023
太多	-4024
婚姻	-4025
带动	-4026
房间	-4027
斯洛	-4028
日子	-4029
盟国	-4030
知名	-4031
十七曰	-4032
同时也	-4033
在全球	-4034
的北韩	-4035
问题上	-4036
和平进程	-4037
17	-4038
之行	-4039
以国	-4040
劫机	-4041
带着	-4042
或者	-4043
捷克	-4044
斯克	-4045
王室	-4046
现金	-4047
通报	-4048
五十六	-4049
召开的	-4050
在国际	-4051
一兆	-4052
一路	-4053
乃迪	-4054
先进	-4055
前景	-4056
后果	-4057
喷射	-4058
得分	-4059
执法	-4060
敌人	-4061
检测	-4062
莫顿	-4063
赞助	-4064
长久	-4065
制造业	-4066
有很多	-4067
▁布莱尔	-4068
保禄二世	-4069
报告指出	-4070
谈判代表	-4071
不应	-4072
九干	-4073
五万	-4074
借由	-4075
冬季	-4076
原定	-4077
同性	-4078
在其	-4079
小的	-4080
很有	-4081
战的	-4082
是对	-4083
浓缩	-4084
绑匪	-4085
集体	-4086
▁在此	-4087
五十七	-4088
反应炉	-4089
有一些	-4090
英国的	-4091
欧布莱特	-4092
合理	-4093
就任	-4094
并称	-4095
掌握	-4096
曼谷	-4097
矢言	-4098
知识	-4099
终场	-4100
考验	-4101
▁全球	-4102
屯垦区	-4103
心脏病	-4104
委员会的	-4105
沙丹胡笙	-4106
▁也	-4107
图书	-4108
完整	-4109
海域	-4110
联赛	-4111
运送	-4112
队伍	-4113
▁稍早	-4114
亿曰圆	-4115
在过去	-4116
没有任何	-4117
目击者说	-4118
塔利班民兵	-4119
丰田	-4120
侦讯	-4121
其余	-4122
动员	-4123
打出	-4124
理想	-4125
五百名	-4126
兹别克	-4127
决赛中	-4128
日内瓦	-4129
的法国	-4130
行动中	-4131
▁加拿大	-4132
新闻报导	-4133
的一部分	-4134
▁美国国务卿鲍尔	-4135
业绩	-4136
以四	-4137
军官	-4138
几周	-4139
原来	-4140
就有	-4141
战绩	-4142
拉丁	-4143
斯潘	-4144
是他	-4145
海地	-4146
海洋	-4147
布希的	-4148
摩洛哥	-4149
总统席哈克	-4150
之处	-4151
初期	-4152
司令	-4153
据称	-4154
斯在	-4155
旅馆	-4156
瓦巴	-4157
留下	-4158
谈到	-4159
四十三	-4160
尼泊尔	-4161
戴凡波	-4162
山普拉斯	-4163
下挫	-4164
不当	-4165
交流	-4166
我会	-4167
教科	-4168
男女	-4169
痛苦	-4170
银牌	-4171
马丁	-4172
五十万	-4173
十八曰	-4174
史以来	-4175
已造成	-4176
很高兴	-4177
数千名	-4178
的选举	-4179
的需求	-4180
联邦准备理事会	-4181
▁莫	-4182
五人	-4183
以防	-4184
哈利	-4185
将被	-4186
整合	-4187
机员	-4188
植物	-4189
此顶	-4190
罢黜	-4191
肯亚	-4192
阻碍	-4193
六十四	-4194
发现的	-4195
的活动	-4196
▁官员说	-4197
阿布杜拉	-4198
▁世	-4199
▁西	-4200
传播	-4201
卸任	-4202
圣地	-4203
射杀	-4204
巴威	-4205
席次	-4206
是为	-4207
曼说	-4208
男童	-4209
短暂	-4210
移植	-4211
订单	-4212
象牙	-4213
重伤	-4214
金山	-4215
马利	-4216
的发展	-4217
目前在	-4218
展开调查	-4219
美国官员	-4220
分台北时间	-4221
▁贝	-4222
今晨	-4223
外汇	-4224
家园	-4225
捐赠	-4226
是最	-4227
法兰	-4228
管道	-4229
走上	-4230
就可以	-4231
集团的	-4232
三周	-4233
享有	-4234
以期	-4235
作证	-4236
免费	-4237
展示	-4238
戒备	-4239
羁押	-4240
芝加	-4241
进驻	-4242
基督教	-4243
个人电脑	-4244
紧张情势	-4245
义务	-4246
己经	-4247
旗下	-4248
暴风	-4249
生日	-4250
的心	-4251
苜关	-4252
观点	-4253
通缉	-4254
造访	-4255
遇害	-4256
▁专家	-4257
我们正	-4258
的最大	-4259
系统的	-4260
中央情报	-4261
格林威治	-4262
侵略	-4263
合资	-4264
哈里	-4265
四万	-4266
地下	-4267
失误	-4268
希拉	-4269
待遇	-4270
快乐	-4271
深入	-4272
滑落	-4273
联准	-4274
近日	-4275
逐步	-4276
人员说	-4277
朱镕基	-4278
足球赛	-4279
▁苏	-4280
人队	-4281
前锋	-4282
国外	-4283
契尔	-4284
成交	-4285
搜索	-4286
每股	-4287
注射	-4288
炸药	-4289
特尔	-4290
老将	-4291
联络	-4292
载运	-4293
违法	-4294
首轮	-4295
马克	-4296
一直在	-4297
二十年	-4298
四十九	-4299
并要求	-4300
▁七	-4301
▁葛	-4302
人都	-4303
他和	-4304
俱乐	-4305
卡赛	-4306
含有	-4307
堕胎	-4308
审慎	-4309
将领	-4310
常常	-4311
派出	-4312
灾情	-4313
薪资	-4314
高于	-4315
勤斯坦	-4316
十三曰	-4317
已经在	-4318
当局已	-4319
我们会	-4320
声明指出	-4321
▁南	-4322
不起	-4323
克拉	-4324
坚决	-4325
垃圾	-4326
就此	-4327
开打	-4328
教士	-4329
氧化	-4330
的这	-4331
神社	-4332
诊断	-4333
交易商	-4334
亿韩元	-4335
公司在	-4336
发布的	-4337
外务省	-4338
最严重	-4339
的看法	-4340
▁欧洲联盟	-4341
到目前为止	-4342
百分之二十	-4343
之道	-4344
借此	-4345
午夜	-4346
布雷	-4347
广东	-4348
曾与	-4349
步骤	-4350
水平	-4351
清真	-4352
纺织	-4353
给我	-4354
缔造	-4355
而被	-4356
▁这起	-4357
五十八	-4358
四十一	-4359
法鲁贾	-4360
的建议	-4361
芝加哥	-4362
二十二日	-4363
澳大利亚	-4364
空军基地	-4365
▁报导指出	-4366
作物	-4367
六方	-4368
尼可	-4369
是不	-4370
潜艇	-4371
环球	-4372
迎战	-4373
顾客	-4374
▁一个	-4375
▁有关	-4376
六十三	-4377
瓦巴依	-4378
的成绩	-4379
的风险	-4380
亚洲国家	-4381
▁索	-4382
人为	-4383
包围	-4384
升空	-4385
场所	-4386
携带	-4387
是我	-4388
老鼠	-4389
旧金山	-4390
的角色	-4391
联盟的	-4392
公司表示	-4393
发表谈话	-4394
成立一个	-4395
的支持者	-4396
▁金	-4397
出一	-4398
华纳	-4399
好好	-4400
孩童	-4401
挽救	-4402
敌对	-4403
率先	-4404
行列	-4405
也可能	-4406
攻击的	-4407
由美国	-4408
▁声明中说	-4409
大西洋公约	-4410
十天	-4411
在大	-4412
度假	-4413
所能	-4414
福利	-4415
试射	-4416
首脑	-4417
将不会	-4418
支持的	-4419
清真寺	-4420
以六比四	-4421
内政部长	-4422
联合国安理会	-4423
▁沙	-4424
▁萨	-4425
交手	-4426
信用	-4427
兹说	-4428
小心	-4429
悲剧	-4430
接到	-4431
搜集	-4432
数月	-4433
比尔	-4434
永久	-4435
申科	-4436
裁判	-4437
议程	-4438
走向	-4439
辐射	-4440
投票所	-4441
欧元区	-4442
路易斯	-4443
辛巴威	-4444
官员今天说	-4445
不论	-4446
传奇	-4447
充满	-4448
出动	-4449
参选	-4450
处决	-4451
孤立	-4452
居住	-4453
工党	-4454
无线	-4455
机密	-4456
权的	-4457
杜尼	-4458
百姓	-4459
订定	-4460
这艘	-4461
五百万	-4462
另一名	-4463
政府将	-4464
的希望	-4465
在华盛顿	-4466
使馆	-4467
击炮	-4468
品牌	-4469
喇嘛	-4470
在该	-4471
威夷	-4472
封信	-4473
拉纳	-4474
收益	-4475
洋基	-4476
满足	-4477
疗法	-4478
短缺	-4479
简单	-4480
译音	-4481
▁教宗	-4482
于今年	-4483
大约有	-4484
的任务	-4485
第一季	-4486
自卫队	-4487
自由车	-4488
免于	-4489
出局	-4490
圣战	-4491
多项	-4492
安达	-4493
将他	-4494
强制	-4495
我也	-4496
期货	-4497
核能	-4498
民营	-4499
研讨	-4500
转变	-4501
迎接	-4502
量的	-4503
阴影	-4504
隆纳	-4505
会谈中	-4506
农业部	-4507
和他的	-4508
已决定	-4509
有一名	-4510
的生活	-4511
的美军	-4512
以六比三	-4513
上课	-4514
举动	-4515
事先	-4516
人工	-4517
全体	-4518
战犯	-4519
数干	-4520
法令	-4521
海峡	-4522
涠价	-4523
火灾	-4524
的公	-4525
能否	-4526
▁安南	-4527
出现在	-4528
孟加拉	-4529
将面临	-4530
都没有	-4531
二十七日	-4532
恐怖玫击	-4533
▁世界卫生组织	-4534
不振	-4535
不良	-4536
反而	-4537
外相	-4538
当前	-4539
昕坦	-4540
有点	-4541
的热	-4542
缩减	-4543
荣誉	-4544
上周五	-4545
不得不	-4546
五十四	-4547
的能力	-4548
竞争力	-4549
耶诞节	-4550
决定是否	-4551
欧洲国家	-4552
14	-4553
24	-4554
伤者	-4555
始终	-4556
对我	-4557
得知	-4558
成千	-4559
是很	-4560
皮诺	-4561
纳斯	-4562
▁夏隆	-4563
前苏联	-4564
在这项	-4565
多年来	-4566
它们的	-4567
带来的	-4568
总奖金	-4569
曰本的	-4570
总统选举	-4571
资讯科技	-4572
国际货币基金会	-4573
▁东	-4574
三曰	-4575
仍未	-4576
传真	-4577
免疫	-4578
唐纳	-4579
并对	-4580
强力	-4581
形式	-4582
描述	-4583
搜狐	-4584
数目	-4585
晤士	-4586
机的	-4587
滑雪	-4588
牛只	-4589
经合	-4590
过于	-4591
里说	-4592
也可以	-4593
佛莱谢	-4594
各地的	-4595
接着说	-4596
以色列和	-4597
象牙海岸	-4598
▁美国政府	-4599
与巴勒斯坦	-4600
80	-4601
▁将	-4602
之旅	-4603
二曰	-4604
回升	-4605
小学	-4606
库德	-4607
彻底	-4608
来访	-4609
若望	-4610
身的	-4611
送交	-4612
途径	-4613
▁莱斯	-4614
当地的	-4615
指挥部	-4616
的人民	-4617
世界纪录	-4618
特种部队	-4619
二十四小时	-4620
去年十一月	-4621
传闻	-4622
意愿	-4623
拳王	-4624
斡旋	-4625
早已	-4626
的原	-4627
经历	-4628
阳性	-4629
上表示	-4630
克拉克	-4631
的任何	-4632
第一轮	-4633
中东地区	-4634
中国政府	-4635
六月二十	-4636
不受	-4637
两家	-4638
习惯	-4639
叶门	-4640
团的	-4641
家乡	-4642
对其	-4643
并于	-4644
拉多	-4645
灾区	-4646
特赦	-4647
相较	-4648
竞赛	-4649
达克	-4650
希克罗	-4651
并不是	-4652
期徒刑	-4653
的成长	-4654
还包括	-4655
北约组织	-4656
联合国秘书长安南	-4657
一曰	-4658
卫霓	-4659
唱片	-4660
审理	-4661
并购	-4662
拿到	-4663
监管	-4664
着名	-4665
稍旱	-4666
签约	-4667
航班	-4668
踢进	-4669
追踪	-4670
阿米	-4671
驳回	-4672
名人赛	-4673
增加了	-4674
大工业	-4675
普勒斯	-4676
种子的	-4677
的阿富汗	-4678
一九八九年	-4679
排名第一的	-4680
人被	-4681
会长	-4682
制的	-4683
大力	-4684
投掷	-4685
拉波	-4686
救灾	-4687
明的	-4688
百万	-4689
练习	-4690
言论	-4691
许可	-4692
过关	-4693
这批	-4694
驭得	-4695
一年前	-4696
众议员	-4697
但我们	-4698
国神社	-4699
埃西亚	-4700
演说中	-4701
相当于	-4702
不愿透露	-4703
莉丝特丝	-4704
专利	-4705
例行	-4706
安娜	-4707
家的	-4708
尔德	-4709
巴尔	-4710
撤销	-4711
胜选	-4712
队长	-4713
陷于	-4714
七十一	-4715
世界上	-4716
和日本	-4717
在伦敦	-4718
乌兹别克	-4719
百分之一	-4720
统计数字	-4721
麦克雷兰	-4722
以色列总理夏隆	-4723
两项	-4724
之事	-4725
乘害	-4726
也都	-4727
加油	-4728
博士	-4729
多个	-4730
尔登	-4731
巴国	-4732
强的	-4733
皇马	-4734
罗纳	-4735
芮氏	-4736
蛋白	-4737
认识	-4738
边养	-4739
锦赛	-4740
亿五千	-4741
卡普莉	-4742
可以在	-4743
强大的	-4744
杜尼查	-4745
▁在美国	-4746
经济合作	-4747
安全理事会	-4748
访问时表示	-4749
人与	-4750
信徒	-4751
内特	-4752
分歧	-4753
战事	-4754
放宽	-4755
智慧	-4756
最初	-4757
汇价	-4758
港口	-4759
燃烧	-4760
联队	-4761
队友	-4762
首位	-4763
▁第二	-4764
是否会	-4765
最新的	-4766
第三轮	-4767
约一百	-4768
在声明中说	-4769
为此	-4770
则说	-4771
将其	-4772
尤莫	-4773
幕后	-4774
本书	-4775
深感	-4776
的四	-4777
站在	-4778
等候	-4779
七十四	-4780
上半年	-4781
二二年	-4782
希望在	-4783
庞大的	-4784
必要的	-4785
曼联队	-4786
的事件	-4787
的纪录	-4788
的速度	-4789
对阿富汗	-4790
澳洲公开赛	-4791
主演	-4792
密集	-4793
捐款	-4794
此时	-4795
生态	-4796
认定	-4797
他认为	-4798
有些人	-4799
重大的	-4800
呼吸道症候群	-4801
一十	-4802
不知	-4803
之意	-4804
列车	-4805
制作	-4806
夺走	-4807
有权	-4808
获致	-4809
▁黄国	-4810
五十名	-4811
可能有	-4812
女士说	-4813
对北韩	-4814
被发现	-4815
这也是	-4816
这件事	-4817
雪梨奥运	-4818
休息	-4819
傍晚	-4820
启动	-4821
哈托	-4822
头号	-4823
尝试	-4824
广大	-4825
所作	-4826
排行	-4827
曾说	-4828
潜在	-4829
球王	-4830
的成	-4831
的阿	-4832
署长	-4833
靠近	-4834
▁双方	-4835
为什么	-4836
2000	-4837
这项协议	-4838
13	-4839
一同	-4840
不多	-4841
不管	-4842
争驭	-4843
关心	-4844
危害	-4845
同以	-4846
周围	-4847
在野	-4848
实质	-4849
已向	-4850
所属	-4851
所说	-4852
挥出	-4853
更大	-4854
气体	-4855
灾民	-4856
股份	-4857
脆弱	-4858
铜牌	-4859
个月的	-4860
台北市	-4861
增加到	-4862
成功的	-4863
是一项	-4864
波士顿	-4865
的情报	-4866
茉莉丝	-4867
联合政府	-4868
▁四	-4869
▁比	-4870
▁狄	-4871
不治	-4872
五天	-4873
众多	-4874
值得	-4875
出去	-4876
出面	-4877
即可	-4878
安门	-4879
就像	-4880
毕业	-4881
肆虐	-4882
行销	-4883
视察	-4884
面积	-4885
▁此项	-4886
甘乃迪	-4887
观察家	-4888
非正式	-4889
救难人员	-4890
红十字会	-4891
▁华	-4892
▁普	-4893
上有	-4894
会场	-4895
克服	-4896
农村	-4897
出炉	-4898
到底	-4899
在场	-4900
大多	-4901
学童	-4902
安德	-4903
平息	-4904
执照	-4905
担忧	-4906
搜救	-4907
无意	-4908
气温	-4909
看好	-4910
联手	-4911
骇客	-4912
▁全国	-4913
则表示	-4914
影响力	-4915
的证据	-4916
裴瑞斯	-4917
雷马拉	-4918
霍华德	-4919
民调显示	-4920
高峰会的	-4921
为他	-4922
以免	-4923
借以	-4924
家长	-4925
应用	-4926
支撑	-4927
杀人	-4928
民国	-4929
的外	-4930
萎缩	-4931
都很	-4932
▁巴西	-4933
七十六	-4934
传染病	-4935
和南韩	-4936
安全的	-4937
是否有	-4938
让我们	-4939
亚太经合	-4940
巴勤斯坦	-4941
亲王	-4942
债券	-4943
参拜	-4944
反击	-4945
届满	-4946
慈善	-4947
枪击	-4948
案子	-4949
残骸	-4950
皮肤	-4951
▁公司	-4952
▁它说	-4953
▁记者	-4954
一定会	-4955
与日本	-4956
以确保	-4957
党领袖	-4958
投资者	-4959
皮诺契	-4960
第四季	-4961
陈水扁	-4962
高尔夫	-4963
一九九一年	-4964
严重急性呼吸道症候群	-4965
三度	-4966
多国	-4967
如栗	-4968
帐户	-4969
德华	-4970
渔船	-4971
监视	-4972
眼睛	-4973
答复	-4974
给他	-4975
▁第一	-4976
交易所	-4977
产品的	-4978
会谈后	-4979
六十二	-4980
三月二十	-4981
斯杜尼查	-4982
▁马来西亚	-4983
低迷	-4984
作家	-4985
塔斯	-4986
平方	-4987
恩隆	-4988
渡假	-4989
温室	-4990
特斯	-4991
登陆	-4992
职员	-4993
补助	-4994
认真	-4995
配额	-4996
黄金	-4997
两年前	-4998
俱乐部	-4999
去年的	-5000
的东西	-5001
国际机场	-5002
工作机会	-5003
国际原子能总署	-5004
有线电视新闻网	-5005
久的	-5006
代理	-5007
回来	-5008
在新	-5009
小姐	-5010
布兰	-5011
榴弹	-5012
派遐	-5013
生意	-5014
维茨	-5015
缓慢	-5016
▁瑞典	-5017
二三年	-5018
他们已	-5019
在巴黎	-5020
架飞机	-5021
▁该公司	-5022
世界大战	-5023
有史以来	-5024
西方国家	-5025
▁纽约时报	-5026
克罗埃西亚	-5027
美国公开赛	-5028
记者会中说	-5029
大西洋公约组织	-5030
上下	-5031
两韩	-5032
亚军	-5033
仍不	-5034
依照	-5035
克劳	-5036
制定	-5037
女星	-5038
尼说	-5039
引渡	-5040
晤谈	-5041
杜哈	-5042
濒临	-5043
爱国	-5044
特定	-5045
的性	-5046
设置	-5047
降至	-5048
报告中	-5049
报引述	-5050
葛林斯潘	-5051
▁阿拉法特	-5052
伊拉克总统	-5053
利雅	-5054
循环	-5055
拦截	-5056
无辜	-5057
最快	-5058
漠洲	-5059
的天	-5060
的有	-5061
自我	-5062
重挫	-5063
和平奖	-5064
政策的	-5065
部长级	-5066
司法部长	-5067
和俄罗斯	-5068
成千上万	-5069
我们可以	-5070
▁因	-5071
不错	-5072
也很	-5073
任职	-5074
刚果	-5075
少女	-5076
总计	-5077
振兴	-5078
比七	-5079
豪雨	-5080
阿里	-5081
饮食	-5082
与英国	-5083
在世界	-5084
所谓的	-5085
的所有	-5086
的汽车	-5087
的理由	-5088
着名的	-5089
▁土耳其	-5090
数据显示	-5091
办事	-5092
又有	-5093
发电	-5094
号的	-5095
向前	-5096
妮可	-5097
度过	-5098
打开	-5099
报道	-5100
无疑	-5101
格勒	-5102
的对	-5103
药厂	-5104
虐待	-5105
在东京	-5106
在明年	-5107
政府在	-5108
新闻说	-5109
每一个	-5110
炭疽菌	-5111
的指控	-5112
罗迪克	-5113
进行了	-5114
▁分析师	-5115
东南亚国家	-5116
▁麦	-5117
上个	-5118
上限	-5119
凸显	-5120
在西	-5121
巴塞	-5122
效力	-5123
曝光	-5124
田中	-5125
综合	-5126
网坛	-5127
芙国	-5128
返国	-5129
具尸体	-5130
因为他	-5131
已经有	-5132
法国的	-5133
的市场	-5134
难民营	-5135
罗马尼亚	-5136
赛普勒斯	-5137
九一一事件	-5138
26	-5139
▁韩	-5140
三位	-5141
为由	-5142
依赖	-5143
动荡	-5144
发的	-5145
商人	-5146
尔瓦	-5147
市区	-5148
披索	-5149
抱怨	-5150
新力	-5151
第十	-5152
计的	-5153
诸多	-5154
趋缓	-5155
道德	-5156
阁员	-5157
万英镑	-5158
两天的	-5159
二十名	-5160
同性恋	-5161
姓名的	-5162
巴拉克	-5163
布莱恩	-5164
重量级	-5165
停火协议	-5166
发表评论	-5167
国会大选	-5168
在巴格达	-5169
拉丁美洲	-5170
暴力事件	-5171
比去年同期	-5172
作成	-5173
八时	-5174
原告	-5175
去国	-5176
哈地	-5177
外面	-5178
归咎	-5179
控诉	-5180
样的	-5181
汇市	-5182
男孩	-5183
罚款	-5184
誓察	-5185
零一	-5186
之一的	-5187
在亚洲	-5188
情况下	-5189
线城市	-5190
董事会	-5191
驱逐舰	-5192
▁阿根廷	-5193
今天清晨	-5194
竞争对手	-5195
法国公开赛	-5196
▁国	-5197
▁尤	-5198
丽莎	-5199
但未	-5200
兴奋	-5201
及莫	-5202
头衔	-5203
播放	-5204
查证	-5205
此间	-5206
滑冰	-5207
瑞罗	-5208
红色	-5209
都市	-5210
里克	-5211
新华社	-5212
经济的	-5213
维持在	-5214
联准会	-5215
雅罗盲	-5216
七月二十	-5217
自由贸易协定	-5218
在一项声明中说	-5219
世霁	-5220
前任	-5221
动的	-5222
大气	-5223
带领	-5224
法规	-5225
深夜	-5226
程式	-5227
究竟	-5228
草拟	-5229
跟我	-5230
雇用	-5231
马国	-5232
撮导说	-5233
的照片	-5234
预料将	-5235
今天稍早	-5236
▁要	-5237
也已	-5238
全年	-5239
到达	-5240
增强	-5241
暴徒	-5242
沙漠	-5243
的手	-5244
直落	-5245
省长	-5246
真是	-5247
经纪	-5248
警卫	-5249
▁当地	-5250
东北部	-5251
五十三	-5252
公里处	-5253
副总裁	-5254
国民党	-5255
在一个	-5256
官员们	-5257
希拉蕊	-5258
意味着	-5259
美元兑	-5260
1999	-5261
四月二十	-5262
贸易组织	-5263
人大	-5264
但却	-5265
史密	-5266
回收	-5267
妥协	-5268
将把	-5269
工具	-5270
我对	-5271
护照	-5272
未经	-5273
规划	-5274
让步	-5275
▁负责	-5276
上周在	-5277
原因是	-5278
在这次	-5279
的选票	-5280
边会谈	-5281
陇罗斯	-5282
马莫顿	-5283
分离主义	-5284
去年十月	-5285
号太空梭	-5286
接受治疗	-5287
▁八	-5288
▁维	-5289
一分	-5290
体重	-5291
加斯	-5292
单一	-5293
和谈	-5294
广擂	-5295
应为	-5296
接任	-5297
日东	-5298
本地	-5299
监禁	-5300
福斯	-5301
繁荣	-5302
纳粹	-5303
而定	-5304
耶夫	-5305
请求	-5306
调直	-5307
谘商	-5308
▁官方	-5309
▁研究	-5310
六比一	-5311
发球局	-5312
本周末	-5313
的会议	-5314
的社会	-5315
的迹象	-5316
通过的	-5317
▁科学家	-5318
二十五日	-5319
竞选活动	-5320
新闻社报导	-5321
盖达恐怖组织	-5322
▁约	-5323
▁还	-5324
一件	-5325
与其	-5326
互相	-5327
但也	-5328
创新	-5329
利润	-5330
别人	-5331
前后	-5332
前途	-5333
加尔	-5334
寻获	-5335
岛的	-5336
巴人	-5337
指导	-5338
无可	-5339
极力	-5340
档案	-5341
沃佛	-5342
筹备	-5343
背景	-5344
金钱	-5345
▁东京	-5346
九月份	-5347
今天以	-5348
今天对	-5349
德国的	-5350
的承诺	-5351
达赖喇嘛	-5352
进行调查	-5353
雅典奥运	-5354
总统金大中	-5355
若望保禄二世	-5356
89	-5357
▁夏	-5358
▁梅	-5359
主题	-5360
作了	-5361
停车	-5362
克莱	-5363
分配	-5364
女单	-5365
姓名	-5366
得很	-5367
想像	-5368
暴行	-5369
有时	-5370
次于	-5371
歌曲	-5372
歹徒	-5373
病情	-5374
真实	-5375
而这	-5376
行事	-5377
轮值	-5378
过了	-5379
金属	-5380
▁随着	-5381
事务的	-5382
将持续	-5383
航空暨	-5384
世界排名	-5385
恐怖活动	-5386
波士尼亚	-5387
野生动物	-5388
金融时报	-5389
▁下	-5390
▁区	-5391
三国	-5392
上场	-5393
业界	-5394
主场	-5395
使他	-5396
则以	-5397
创办	-5398
多伦	-5399
它在	-5400
家里	-5401
并以	-5402
影展	-5403
意志	-5404
永远	-5405
波特	-5406
的那	-5407
福田	-5408
花了	-5409
莒员	-5410
过世	-5411
院长	-5412
▁中共	-5413
▁针对	-5414
政府与	-5415
教科书	-5416
欧尼尔	-5417
电视网	-5418
苏哈托	-5419
五月二十	-5420
抗议活动	-5421
选举结果	-5422
▁英	-5423
一群	-5424
三星	-5425
两亿	-5426
中间	-5427
人命	-5428
前年	-5429
告知	-5430
政坛	-5431
朝日	-5432
正义	-5433
看看	-5434
网络	-5435
芬兰	-5436
轮胎	-5437
追捕	-5438
▁此次	-5439
国组织	-5440
对这项	-5441
的现象	-5442
致命的	-5443
去年九月	-5444
激进份子	-5445
美国海军	-5446
记者表示	-5447
证据显示	-5448
通货膨涨	-5449
自杀炸弹攻击	-5450
22	-5451
▁林	-5452
之路	-5453
党魁	-5454
将不	-5455
岛屿	-5456
已遭	-5457
开罗	-5458
情事	-5459
本土	-5460
毫不	-5461
转播	-5462
阿国	-5463
▁正当	-5464
十二名	-5465
十五个	-5466
威尔斯	-5467
的人士	-5468
一千三百	-5469
协商会议	-5470
大工业国	-5471
研究中心	-5472
通过一项	-5473
阳性反应	-5474
增加百分之	-5475
国家安全顾问	-5476
40	-5477
公务	-5478
公顷	-5479
匈牙	-5480
占有	-5481
国旗	-5482
德黑	-5483
搭档	-5484
林匹	-5485
混合	-5486
瓦砾	-5487
纳入	-5488
缩小	-5489
保守派	-5490
冠军杯	-5491
我们要	-5492
机构的	-5493
而不是	-5494
三分之一	-5495
六方会谈	-5496
十月二十	-5497
在联合国	-5498
官员指出	-5499
示威群众	-5500
一九九三年	-5501
世养卫生组织	-5502
不了	-5503
先后	-5504
刚刚	-5505
布伦	-5506
数名	-5507
是有	-5508
海南	-5509
片面	-5510
物资	-5511
离婚	-5512
结盟	-5513
融资	-5514
覆盖	-5515
设定	-5516
边缘	-5517
这支	-5518
送医	-5519
遏阻	-5520
配备	-5521
锁定	-5522
镇暴	-5523
顺差	-5524
高中	-5525
▁阿布	-5526
七十八	-5527
两小时	-5528
人失踪	-5529
办事处	-5530
匈牙利	-5531
是一种	-5532
管理局	-5533
路线图	-5534
卡普莉提	-5535
▁五角大厦	-5536
51	-5537
一下	-5538
严密	-5539
中毒	-5540
全场	-5541
制止	-5542
北讳	-5543
哈拉	-5544
学员	-5545
宙判	-5546
富士	-5547
建华	-5548
显着	-5549
来临	-5550
梦想	-5551
泰勒	-5552
潜水	-5553
瘫痪	-5554
突袭	-5555
等到	-5556
继承	-5557
肥胖	-5558
装甲	-5559
读卖	-5560
调高	-5561
负面	-5562
起火	-5563
选战	-5564
食用	-5565
黑人	-5566
也不会	-5567
五十九	-5568
具名的	-5569
出现了	-5570
姆斯壮	-5571
德黑兰	-5572
生还者	-5573
的一场	-5574
的规定	-5575
解放军	-5576
这么做	-5577
这些人	-5578
所提出的	-5579
老虎伍兹	-5580
重要的是	-5581
▁美国总统	-5582
格林威治时间	-5583
石油输出国家组织	-5584
▁古	-5585
▁吴	-5586
一所	-5587
上台	-5588
不适	-5589
专门	-5590
他会	-5591
利说	-5592
北海	-5593
卡尔	-5594
压倒	-5595
大奖	-5596
太子	-5597
已达	-5598
惩罚	-5599
感冒	-5600
扣押	-5601
教会	-5602
新年	-5603
炸毁	-5604
的老	-5605
藏匿	-5606
被问	-5607
十年来	-5608
听证会	-5609
澳洲的	-5610
访问的	-5611
面金牌	-5612
报导指出	-5613
最后一次	-5614
汽车炸弹	-5615
首柜布莱尔	-5616
航空暨太空总署	-5617
▁加	-5618
八干	-5619
公分	-5620
十时	-5621
升值	-5622
声望	-5623
对峙	-5624
已获	-5625
开战	-5626
当场	-5627
抱持	-5628
是因	-5629
物品	-5630
的重	-5631
社说	-5632
而使	-5633
脑部	-5634
高涨	-5635
▁所以	-5636
七十三	-5637
天安门	-5638
的声明	-5639
美国人民	-5640
靖国神社	-5641
伊国	-5642
剩下	-5643
卡罗	-5644
台币	-5645
听取	-5646
太太	-5647
头的	-5648
强势	-5649
成了	-5650
投降	-5651
查获	-5652
没苜	-5653
疲软	-5654
着手	-5655
破裂	-5656
语言	-5657
阵亡	-5658
阿诺	-5659
零年	-5660
飞航	-5661
鼓舞	-5662
▁但他	-5663
▁微软	-5664
▁这顶	-5665
不景气	-5666
仅次于	-5667
和英国	-5668
很大的	-5669
昨天说	-5670
的男子	-5671
看起来	-5672
▁声明说	-5673
维和部队	-5674
▁报导中说	-5675
27	-5676
七时	-5677
两大	-5678
中旬	-5679
倾向	-5680
公寓	-5681
写道	-5682
分割	-5683
就要	-5684
左派	-5685
礼物	-5686
空难	-5687
罕默	-5688
联网	-5689
致词	-5690
蒙古	-5691
转型	-5692
他们对	-5693
任何人	-5694
在昨天	-5695
戴克辛	-5696
指挥宫	-5697
机器人	-5698
▁日本政府	-5699
一九九二年	-5700
阿拉伯国家	-5701
一期	-5702
五亿	-5703
交货	-5704
便宜	-5705
军售	-5706
囚为	-5707
条款	-5708
枪手	-5709
此地	-5710
深圳	-5711
的亲	-5712
的确	-5713
相比	-5714
维夫	-5715
越战	-5716
近期	-5717
追求	-5718
三年的	-5719
克莱斯	-5720
分之二	-5721
年轻人	-5722
得票率	-5723
摄影机	-5724
一百三十	-5725
好战分子	-5726
巴塞隆纳	-5727
弹道飞弹	-5728
纽约时报	-5729
十一月二十	-5730
恐怖玫击事件	-5731
不如	-5732
与他	-5733
之内	-5734
他曾	-5735
以南	-5736
佳绩	-5737
受灾	-5738
奖牌	-5739
幕僚	-5740
枪战	-5741
洛夫	-5742
热烈	-5743
生化	-5744
的二	-5745
的风	-5746
绿色	-5747
超出	-5748
迈阿	-5749
十一时	-5750
印度洋	-5751
因为我	-5752
斯坦堡	-5753
的人口	-5754
的人权	-5755
的战争	-5756
聚集在	-5757
警方说	-5758
与以色列	-5759
亚太地区	-5760
以六比二	-5761
伊斯兰马	-5762
有关当局	-5763
维持和平	-5764
这项研究	-5765
鲁斯柯尼	-5766
的巴勒斯坦	-5767
中最	-5768
中被	-5769
何种	-5770
六人	-5771
六时	-5772
六曰	-5773
危及	-5774
听说	-5775
姆林	-5776
季后	-5777
室内	-5778
开启	-5779
持股	-5780
摇滚	-5781
生育	-5782
的美	-5783
艾宁	-5784
诈欺	-5785
跑道	-5786
逆转	-5787
▁南非	-5788
亚齐省	-5789
公司将	-5790
和一名	-5791
奥林匹	-5792
峇里岛	-5793
斯表示	-5794
的全球	-5795
的总统	-5796
总部设在	-5797
遭到攻击	-5798
▁辛	-5799
二时	-5800
从来	-5801
仔细	-5802
伊拉	-5803
原料	-5804
双打	-5805
可靠	-5806
后说	-5807
声浪	-5808
大卫	-5809
天文	-5810
恐慌	-5811
恩说	-5812
房价	-5813
投下	-5814
提早	-5815
改组	-5816
省份	-5817
转往	-5818
都能	-5819
▁位于	-5820
吉尼亚	-5821
我们也	-5822
界人士	-5823
的一份	-5824
▁鲍尔说	-5825
二十八日	-5826
沃佛维茨	-5827
▁纳	-5828
上班	-5829
下月	-5830
乡村	-5831
人事	-5832
单打	-5833
印象	-5834
才是	-5835
的总	-5836
航太	-5837
访谈	-5838
▁瑞士	-5839
亚特兰	-5840
他将在	-5841
出来的	-5842
副主席	-5843
国际间	-5844
类似的	-5845
足球队	-5846
一千四百	-5847
国土安全	-5848
调查显示	-5849
执行委员会	-5850
柯林顿总统	-5851
一套	-5852
伍德	-5853
依旧	-5854
保健	-5855
动武	-5856
包含	-5857
器官	-5858
尔本	-5859
尼克	-5860
房企	-5861
提起	-5862
教徒	-5863
王储	-5864
用途	-5865
的国	-5866
糖尿	-5867
贬值	-5868
▁而且	-5869
使用者	-5870
危机的	-5871
可能对	-5872
四个月	-5873
工程师	-5874
并呼吁	-5875
有一万	-5876
疾病的	-5877
第二盘	-5878
网路上	-5879
以色列人	-5880
发生爆炸	-5881
这项计划	-5882
▁刘	-5883
中所	-5884
军舰	-5885
前所	-5886
固醇	-5887
存款	-5888
成年	-5889
机械	-5890
某种	-5891
河内	-5892
环法	-5893
闭幕	-5894
高出	-5895
七十七	-5896
为美国	-5897
大地震	-5898
当选人	-5899
的最佳	-5900
第二名	-5901
皮诺契特	-5902
打击恐怖主义	-5903
九一一恐怖攻击事件	-5904
一只	-5905
九时	-5906
交谈	-5907
位在	-5908
军备	-5909
只会	-5910
吉斯	-5911
商讨	-5912
审团	-5913
并与	-5914
惊人	-5915
控股	-5916
提交	-5917
无数	-5918
检视	-5919
玻璃	-5920
纷争	-5921
经齐	-5922
航线	-5923
豪华	-5924
采行	-5925
▁亚洲	-5926
一开始	-5927
更大的	-5928
的改革	-5929
的武器	-5930
统计局	-5931
飞行员	-5932
八月二十	-5933
巴勒昕坦	-5934
建立一个	-5935
芮氏规模	-5936
这项计画	-5937
不准	-5938
六万	-5939
出场	-5940
受审	-5941
哀悼	-5942
好几	-5943
将来	-5944
恐怕	-5945
抗争	-5946
搭载	-5947
澄清	-5948
社论	-5949
罗门	-5950
考试	-5951
营养	-5952
议案	-5953
重创	-5954
即将于	-5955
子公司	-5956
推出的	-5957
新德里	-5958
的一种	-5959
的核子	-5960
等问题	-5961
逮捕了	-5962
今天引述	-5963
第二回合	-5964
表示欢迎	-5965
这个地区	-5966
颁奖典礼	-5967
高层官员	-5968
亚太经合会	-5969
万科	-5970
东方	-5971
也被	-5972
体制	-5973
减轻	-5974
天后	-5975
尼黑	-5976
已使	-5977
强暴	-5978
扭转	-5979
拉天	-5980
明尼	-5981
最有	-5982
殖民	-5983
牲畜	-5984
电池	-5985
症的	-5986
解散	-5987
销毁	-5988
限期	-5989
医院的	-5990
在华府	-5991
在当地	-5992
我们有	-5993
最高的	-5994
的责任	-5995
真正的	-5996
世界银行	-5997
皇家马德里	-5998
一张	-5999
不够	-6000
书面	-6001
享年	-6002
信托	-6003
学会	-6004
影星	-6005
打败	-6006
抵抗	-6007
拉瓦	-6008
甚么	-6009
男单	-6010
疲弱	-6011
的多	-6012
车子	-6013
载有	-6014
铺路	-6015
八十二	-6016
受欢迎	-6017
归咎于	-6018
影响到	-6019
目前仍	-6020
中国当局	-6021
可能导致	-6022
经济复苏	-6023
克莉丝特丝	-6024
▁雷	-6025
七个	-6026
二万	-6027
凶手	-6028
判断	-6029
各大	-6030
地铁	-6031
开票	-6032
微博	-6033
拟议	-6034
撤回	-6035
曰前	-6036
的遗	-6037
神秘	-6038
自称	-6039
规则	-6040
辞去	-6041
遭遐	-6042
首映	-6043
不过他	-6044
企业的	-6045
多伦多	-6046
对他的	-6047
巴尔干	-6048
泰内特	-6049
电台说	-6050
西北部	-6051
警察局	-6052
这将是	-6053
因为他们	-6054
国际奥会	-6055
工业生产	-6056
这项行动	-6057
恐怖攻击事件	-6058
-3	-6059
一面	-6060
三时	-6061
区内	-6062
周边	-6063
售价	-6064
在第	-6065
夸威	-6066
年终	-6067
整顿	-6068
早在	-6069
款项	-6070
汶莱	-6071
洛克	-6072
烟草	-6073
说是	-6074
都被	-6075
阻挠	-6076
飙涨	-6077
高雄	-6078
今天将	-6079
库尔登	-6080
最好的	-6081
病毒的	-6082
的第三	-6083
轮值主席	-6084
▁报导引述	-6085
▁国务院发言人	-6086
▁吉	-6087
中将	-6088
事发	-6089
倒闭	-6090
公主	-6091
团聚	-6092
塑胶	-6093
它是	-6094
惊讶	-6095
拟定	-6096
搭机	-6097
本案	-6098
纳说	-6099
送给	-6100
零件	-6101
额外	-6102
利雅德	-6103
发电厂	-6104
宣布将	-6105
尼可夫	-6106
的其他	-6107
的机率	-6108
纺织品	-6109
网站上	-6110
克莱斯勒	-6111
美国公民	-6112
西班牙的	-6113
贸易代表	-6114
较去年同期	-6115
▁总	-6116
一半	-6117
临床	-6118
优惠	-6119
冥有	-6120
加勒	-6121
合唱	-6122
外籍	-6123
多采	-6124
安装	-6125
提斯	-6126
救济	-6127
村落	-6128
枢机	-6129
枪杀	-6130
样本	-6131
泰森	-6132
疏散	-6133
纠纷	-6134
船员	-6135
蒂冈	-6136
零零	-6137
一百万	-6138
数百万	-6139
浓缩铀	-6140
演唱会	-6141
犹太人	-6142
第二天	-6143
▁报告说	-6144
▁艾斯特拉达	-6145
▁再	-6146
一批	-6147
右翼	-6148
大肆	-6149
完美	-6150
官邸	-6151
拘禁	-6152
暂居	-6153
歧视	-6154
爸爸	-6155
百货	-6156
等等	-6157
维拉	-6158
通往	-6159
世锦赛	-6160
二十万	-6161
末来的	-6162
泰晤士	-6163
的父亲	-6164
的贸易	-6165
网球赛	-6166
告诉媒体	-6167
和华盛顿	-6168
紧急状态	-6169
下涓	-6170
不出	-6171
中场	-6172
于是	-6173
侦测	-6174
刊出	-6175
动机	-6176
北戟	-6177
名称	-6178
在地	-6179
安定	-6180
将自	-6181
就能	-6182
已故	-6183
开车	-6184
忘录	-6185
成熟	-6186
摄氏	-6187
操作	-6188
沿岸	-6189
编辑	-6190
舞弊	-6191
落在	-6192
虐囚	-6193
辞呈	-6194
连锁	-6195
面前	-6196
韩曼	-6197
十六曰	-6198
发现了	-6199
将前往	-6200
欧洲的	-6201
爱德华	-6202
独立的	-6203
的地点	-6204
自由化	-6205
了百分之	-6206
二十九日	-6207
发生冲突	-6208
安全措施	-6209
这项法案	-6210
一大	-6211
一球	-6212
各自	-6213
困在	-6214
型的	-6215
奋斗	-6216
季节	-6217
开赛	-6218
无关	-6219
欧玛	-6220
沟通	-6221
空前	-6222
等人	-6223
观看	-6224
透明	-6225
长宫	-6226
雅虎	-6227
▁大会	-6228
副部长	-6229
卡斯楚	-6230
在德国	-6231
的挑战	-6232
的法律	-6233
的访问	-6234
第三名	-6235
达成的	-6236
一百四十	-6237
卫生部长	-6238
所造成的	-6239
波音公司	-6240
的受访者	-6241
解除武装	-6242
▁在此之前	-6243
总理施若德	-6244
伊斯兰马巴德	-6245
北大西洋公约组织	-6246
▁米	-6247
主动	-6248
之战	-6249
存活	-6250
审查	-6251
意思	-6252
拘押	-6253
接收	-6254
教室	-6255
普通	-6256
正与	-6257
热门	-6258
现有	-6259
皇室	-6260
菖都	-6261
血管	-6262
西北	-6263
财富	-6264
邪恶	-6265
韩战	-6266
一直是	-6267
下半年	-6268
会议上	-6269
八十五	-6270
分别是	-6271
向美国	-6272
的撮导	-6273
▁席哈克	-6274
三百五十	-6275
二十五曰	-6276
伊斯坦堡	-6277
奥林匹克	-6278
的一部份	-6279
▁可	-6280
十亿	-6281
友好	-6282
家禽	-6283
干旱	-6284
废除	-6285
方便	-6286
球的	-6287
白色	-6288
继任	-6289
肌肉	-6290
艾尔	-6291
苏尔	-6292
警讯	-6293
贩售	-6294
走势	-6295
起的	-6296
选务	-6297
露面	-6298
冲突中	-6299
十三名	-6300
另一项	-6301
排行榜	-6302
本月初	-6303
汽车的	-6304
的部队	-6305
经常帐	-6306
二十四曰	-6307
今天公布	-6308
我们已经	-6309
示威抗议	-6310
通货紧缩	-6311
▁德	-6312
▁白	-6313
▁鲁	-6314
做好	-6315
史蒂	-6316
四亿	-6317
固定	-6318
女网	-6319
审讯	-6320
宣读	-6321
我就	-6322
更新	-6323
期盼	-6324
比零	-6325
玛丹	-6326
秩序	-6327
组合	-6328
老年	-6329
肿瘤	-6330
课征	-6331
迪士	-6332
闯入	-6333
阳光	-6334
顶尖	-6335
万人口	-6336
付食品	-6337
六十一	-6338
可能性	-6339
名员工	-6340
小时后	-6341
展开的	-6342
巴勒斯	-6343
很可能	-6344
我相信	-6345
的讯息	-6346
迈阿密	-6347
近年来	-6348
地方法院	-6349
就业机会	-6350
第一回合	-6351
经济衰退	-6352
外交部发言人	-6353
不及	-6354
业已	-6355
利物	-6356
南德	-6357
必然	-6358
最为	-6359
校园	-6360
温度	-6361
游说	-6362
炸死	-6363
肺炎	-6364
致敬	-6365
花式	-6366
萨克	-6367
负起	-6368
边境	-6369
迫切	-6370
郊区	-6371
高阶	-6372
▁声明	-6373
不确定	-6374
人员的	-6375
加利亚	-6376
劳工党	-6377
备忘录	-6378
姆林宫	-6379
对他们	-6380
市场上	-6381
强硬派	-6382
最近的	-6383
的妇女	-6384
观察员	-6385
支持美国	-6386
特拉维夫	-6387
茉莉丝摩	-6388
▁与此同时	-6389
副总统钱尼	-6390
新闻社引述	-6391
信仰	-6392
击落	-6393
制药	-6394
史卓	-6395
在对	-6396
基尔	-6397
墓础	-6398
头部	-6399
强迫	-6400
投手	-6401
替代	-6402
权益	-6403
梢后	-6404
棘手	-6405
欢呼	-6406
汉堡	-6407
的说	-6408
相反	-6409
礼拜	-6410
落败	-6411
贿赂	-6412
▁他也	-6413
一定要	-6414
是中国	-6415
武器的	-6416
氧化碳	-6417
生产的	-6418
的事实	-6419
今天抵达	-6420
今天早上	-6421
今年三月	-6422
海珊政权	-6423
经济成长率	-6424
一带	-6425
一顶	-6426
乔丹	-6427
保安	-6428
倒塌	-6429
友人	-6430
四次	-6431
太过	-6432
寮国	-6433
巴墓	-6434
往往	-6435
旱上	-6436
更有	-6437
海滩	-6438
消失	-6439
现实	-6440
目渤	-6441
破发	-6442
萸国	-6443
谋求	-6444
较为	-6445
饮料	-6446
骑士	-6447
▁经过	-6448
▁联邦	-6449
但他们	-6450
发出的	-6451
和北韩	-6452
数十名	-6453
时代的	-6454
有两名	-6455
一千六百	-6456
一月二十	-6457
伊拉克人	-6458
叛乱份子	-6459
基因改造	-6460
对以色列	-6461
武器检查	-6462
穆巴拉克	-6463
▁目击者说	-6464
与巴基斯坦	-6465
▁达	-6466
一部	-6467
三分	-6468
下次	-6469
伟大	-6470
出院	-6471
各个	-6472
家宝	-6473
年纪	-6474
弥补	-6475
很少	-6476
所做	-6477
挹注	-6478
捍卫	-6479
揣测	-6480
无力	-6481
时机	-6482
梅尔	-6483
汽油	-6484
法拉	-6485
法的	-6486
特勒	-6487
石块	-6488
累计	-6489
菖汗	-6490
警觉	-6491
认可	-6492
诞生	-6493
询及	-6494
那是	-6495
部落	-6496
降息	-6497
雅子	-6498
两周前	-6499
八十四	-6500
卫组织	-6501
发动的	-6502
数以千	-6503
每个人	-6504
的制裁	-6505
的反应	-6506
的成员	-6507
的欧洲	-6508
穆罕默	-6509
结束时	-6510
今天指出	-6511
双边关系	-6512
贝尔格勒	-6513
预算赤字	-6514
柯斯杜尼查	-6515
禽流感病毒	-6516
国际货币墓金会	-6517
29	-6518
不只	-6519
中海	-6520
也要	-6521
人力	-6522
但因	-6523
作者	-6524
侵害	-6525
做了	-6526
公告	-6527
公正	-6528
剧院	-6529
名字	-6530
咸信	-6531
大增	-6532
姿态	-6533
弥撒	-6534
抽烟	-6535
效率	-6536
新低	-6537
有了	-6538
材料	-6539
柯瑞	-6540
注册	-6541
现身	-6542
瑕疵	-6543
竭尽	-6544
累积	-6545
萨德	-6546
落网	-6547
蒙哥	-6548
表面	-6549
西尼	-6550
辩称	-6551
雷达	-6552
以协助	-6553
全球化	-6554
在香港	-6555
引起的	-6556
我可以	-6557
梵蒂冈	-6558
独裁者	-6559
的一家	-6560
的一座	-6561
的关键	-6562
的局面	-6563
研究员	-6564
而遭到	-6565
解决方案	-6566
这场比赛	-6567
▁另一方面	-6568
世界卫生组织	-6569
之虞	-6570
以致	-6571
体的	-6572
先发	-6573
入口	-6574
可怕	-6575
右派	-6576
士顿	-6577
开庭	-6578
弹性	-6579
我是	-6580
扫荡	-6581
按照	-6582
换取	-6583
更好	-6584
有多	-6585
核准	-6586
法塔	-6587
清理	-6588
漂亮	-6589
的巴	-6590
罗伯	-6591
该党	-6592
详情	-6593
越过	-6594
进攻	-6595
部会	-6596
酒店	-6597
野心	-6598
他们是	-6599
危险的	-6600
可能使	-6601
在首都	-6602
墨尔本	-6603
对我们	-6604
并指出	-6605
慕尼黑	-6606
爆发的	-6607
的部分	-6608
目标是	-6609
谈判的	-6610
迪士尼	-6611
▁他们说	-6612
以及其他	-6613
保加利亚	-6614
经济发展	-6615
继续进行	-6616
维吉尼亚	-6617
职业生涯	-6618
英国政府	-6619
以色列部队	-6620
助理国务卿	-6621
美国国务卿鲍尔	-6622
七人	-6623
丧礼	-6624
乌拉	-6625
享受	-6626
体内	-6627
候选	-6628
出境	-6629
出身	-6630
增产	-6631
处境	-6632
夫特	-6633
奖的	-6634
我将	-6635
捕鲸	-6636
推测	-6637
教廷	-6638
每月	-6639
物理	-6640
现正	-6641
联席	-6642
该队	-6643
财长	-6644
赛车	-6645
追缉	-6646
选为	-6647
零二	-6648
七十九	-6649
产生的	-6650
代表队	-6651
图书馆	-6652
未来的	-6653
激烈的	-6654
的两名	-6655
获得的	-6656
豪国的	-6657
举行大选	-6658
温室效应	-6659
金融市场	-6660
中央情报局	-6661
报今天报导	-6662
▁奥	-6663
▁黄	-6664
人才	-6665
付出	-6666
奖杯	-6667
如同	-6668
官司	-6669
尽速	-6670
戏剧	-6671
我跟	-6672
柯尔	-6673
瓦解	-6674
真中	-6675
级的	-6676
表态	-6677
西南	-6678
要是	-6679
震撼	-6680
以美国	-6681
仪式中	-6682
利物浦	-6683
在末来	-6684
夏威夷	-6685
的城市	-6686
蛋白质	-6687
与美国的	-6688
激进分子	-6689
第三种子	-6690
这项决定	-6691
美国国务院	-6692
诺贝尔和平奖	-6693
▁五	-6694
一如	-6695
两起	-6696
二号	-6697
偏远	-6698
军警	-6699
华裔	-6700
地雷	-6701
塞特	-6702
大举	-6703
巩固	-6704
斐济	-6705
机师	-6706
贝鲁	-6707
转向	-6708
进军	-6709
进球	-6710
饲料	-6711
▁荷兰	-6712
▁还有	-6713
与法国	-6714
公尺的	-6715
圣地牙	-6716
在澳洲	-6717
巴西兰	-6718
市政府	-6719
我们所	-6720
莎莉丝	-6721
两百五十	-6722
他们认为	-6723
武装部队	-6724
民主联盟	-6725
第一种子	-6726
第二种子	-6727
这个国家	-6728
伊拉克人民	-6729
▁到	-6730
▁杨	-6731
一号	-6732
今庄	-6733
八个	-6734
原订	-6735
商界	-6736
巨人	-6737
差异	-6738
平嚷	-6739
截止	-6740
打得	-6741
推行	-6742
消耗	-6743
灾害	-6744
的第	-6745
补给	-6746
财经	-6747
过后	-6748
连接	-6749
重演	-6750
黑色	-6751
不公平	-6752
业巨擘	-6753
二十曰	-6754
的环境	-6755
研究院	-6756
贝克汊	-6757
一百六十	-6758
今年一月	-6759
发表上述	-6760
国会选举	-6761
示威活动	-6762
美国国会	-6763
莫中包括	-6764
▁国际货币基金会	-6765
▁最	-6766
两党	-6767
两架	-6768
产能	-6769
保住	-6770
保有	-6771
停电	-6772
克雷	-6773
制片	-6774
发给	-6775
口号	-6776
吨的	-6777
哥斯	-6778
席位	-6779
库克	-6780
廉价	-6781
强生	-6782
彼得	-6783
惨重	-6784
拉巴	-6785
排队	-6786
斯顿	-6787
日产	-6788
标语	-6789
特区	-6790
真相	-6791
而遭	-6792
色情	-6793
英军	-6794
葬礼	-6795
要的	-6796
观赏	-6797
说话	-6798
诺曼	-6799
退伍	-6800
一千名	-6801
与莫他	-6802
也指出	-6803
五美元	-6804
十一曰	-6805
十月份	-6806
台维斯	-6807
尤申科	-6808
手榴弹	-6809
是非常	-6810
朱利安	-6811
油价格	-6812
的企业	-6813
的电影	-6814
第二个	-6815
公共卫生	-6816
加入欧盟	-6817
我不认为	-6818
驻伊拉克	-6819
▁哥伦比亚	-6820
▁这项研究	-6821
禽流感疫情	-6822
▁美国国防部	-6823
但我	-6824
体力	-6825
做到	-6826
偿还	-6827
储存	-6828
克林	-6829
冒险	-6830
勒说	-6831
夏季	-6832
对决	-6833
异常	-6834
推广	-6835
新闾	-6836
旗帜	-6837
暖化	-6838
机组	-6839
柜同	-6840
此类	-6841
泽西	-6842
激励	-6843
球星	-6844
目睹	-6845
结栗	-6846
行径	-6847
边的	-6848
适应	-6849
都要	-6850
一系列	-6851
与欧洲	-6852
亚里斯	-6853
十五分	-6854
尔瓦多	-6855
左里克	-6856
新台币	-6857
明显的	-6858
温家宝	-6859
的外交	-6860
的网路	-6861
的罪名	-6862
▁发言人	-6863
二次大战	-6864
明年一月	-6865
本月稍早	-6866
的俄罗斯	-6867
这名男子	-6868
长久以来	-6869
举行高峰会	-6870
21	-6871
▁让	-6872
不用	-6873
亚运	-6874
党员	-6875
判定	-6876
助长	-6877
同僚	-6878
垮台	-6879
多约	-6880
太大	-6881
委托	-6882
寻常	-6883
展览	-6884
年青	-6885
幸运	-6886
建国	-6887
思考	-6888
总是	-6889
新兴	-6890
无效	-6891
申办	-6892
谨慎	-6893
赛前	-6894
赛程	-6895
过渡	-6896
防空	-6897
▁伍兹	-6898
▁新闻	-6899
在这里	-6900
执政的	-6901
据报导	-6902
海南岛	-6903
的忧虑	-6904
美国队	-6905
迫击炮	-6906
金正曰	-6907
▁民主党	-6908
中央通信	-6909
全国各地	-6910
巴墓斯坦	-6911
蒙哥马利	-6912
三大	-6913
不下	-6914
中方	-6915
九个	-6916
九人	-6917
书记	-6918
争论	-6919
交战	-6920
作收	-6921
做法	-6922
停滞	-6923
历时	-6924
去庄	-6925
大为	-6926
小说	-6927
干员	-6928
挑衅	-6929
接管	-6930
收费	-6931
效忠	-6932
新生	-6933
早先	-6934
比海	-6935
相撞	-6936
约为	-6937
药检	-6938
萤幕	-6939
适合	-6940
邮政	-6941
预菖	-6942
▁凯瑞	-6943
六月份	-6944
刊出的	-6945
北韩人	-6946
已获得	-6947
已要求	-6948
录音带	-6949
投票率	-6950
支持率	-6951
旗下的	-6952
是一位	-6953
正面临	-6954
比去年	-6955
的大约	-6956
被指控	-6957
运动会	-6958
陪审团	-6959
三分之二	-6960
二百五十	-6961
百分之十五	-6962
在约旦河西岸	-6963
则为	-6964
变迁	-6965
四分	-6966
大麻	-6967
定位	-6968
射击	-6969
尔蒙	-6970
年初	-6971
应付	-6972
托罗	-6973
施加	-6974
殴打	-6975
物的	-6976
现行	-6977
生存	-6978
货车	-6979
酒吧	-6980
▁受到	-6981
以避免	-6982
八十七	-6983
协会的	-6984
即将在	-6985
四年的	-6986
小时内	-6987
执政团	-6988
接下来	-6989
暴风雨	-6990
的领袖	-6991
纪录的	-6992
▁国防部	-6993
丰富多采	-6994
本周稍早	-6995
的联合国	-6996
的重要性	-6997
石油部长	-6998
这些国家	-6999
贝鲁斯柯尼	-7000
国家主席江泽民	-7001
不见	-7002
与莫	-7003
人对	-7004
倒是	-7005
只好	-7006
可在	-7007
可惜	-7008
安置	-7009
并为	-7010
废弃	-7011
打球	-7012
斯墓	-7013
族群	-7014
淡化	-7015
电器	-7016
离去	-7017
询以	-7018
锡克	-7019
三十万	-7020
五百人	-7021
将讨论	-7022
巴拉迪	-7023
特表示	-7024
的投资	-7025
的条件	-7026
的资料	-7027
▁我觉得	-7028
一千八百	-7029
军事演习	-7030
十八个月	-7031
圣地牙哥	-7032
时代华纳	-7033
美国宫员	-7034
阿姆斯壮	-7035
▁发言人说	-7036
七比六七比	-7037
▁以色列总理	-7038
对抗恐怖主义	-7039
28	-7040
60	-7041
▁芮	-7042
上校	-7043
两种	-7044
他并	-7045
保罗	-7046
入会	-7047
军机	-7048
办理	-7049
加德	-7050
厄瓜	-7051
困扰	-7052
场合	-7053
增进	-7054
女孩	-7055
好处	-7056
姊妹	-7057
审议	-7058
已就	-7059
平安	-7060
户体	-7061
拨款	-7062
拯救	-7063
柏忌	-7064
比耶	-7065
派兵	-7066
清除	-7067
球赛	-7068
的双	-7069
的非	-7070
称赞	-7071
罗宾	-7072
调升	-7073
豪军	-7074
费雪	-7075
迈进	-7076
这顷	-7077
进而	-7078
逃亡	-7079
遣责	-7080
释出	-7081
镇的	-7082
限于	-7083
首要	-7084
伟大的	-7085
修正案	-7086
准备在	-7087
十二个	-7088
压倒性	-7089
愤罗斯	-7090
斯洛伐	-7091
福田康	-7092
销售额	-7093
十亿美元	-7094
宣誓就职	-7095
寻求庇护	-7096
美国选手	-7097
在中国大陆	-7098
▁凯	-7099
不大	-7100
中情	-7101
乐团	-7102
二亿	-7103
交所	-7104
利恒	-7105
到处	-7106
吁请	-7107
和他	-7108
在上	-7109
多家	-7110
多边	-7111
女婴	-7112
安纳	-7113
将达	-7114
岛上	-7115
已知	-7116
手下	-7117
承担	-7118
抵制	-7119
提振	-7120
暴露	-7121
格斯	-7122
筹二	-7123
精彩	-7124
约束	-7125
蒙蒂	-7126
走出	-7127
轿车	-7128
追加	-7129
里昂	-7130
雅图	-7131
▁联合	-7132
▁调查	-7133
一方面	-7134
与欧盟	-7135
历史上	-7136
告诉我	-7137
和欧洲	-7138
我知道	-7139
有信心	-7140
有能力	-7141
被判处	-7142
那就是	-7143
举行会议	-7144
对记者说	-7145
的话报导	-7146
这项会议	-7147
金融危机	-7148
高级专员	-7149
世界杯足球赛	-7150
以色列和巴勒斯坦	-7151
一栋	-7152
个别	-7153
中风	-7154
之以	-7155
二五	-7156
修订	-7157
军力	-7158
几位	-7159
南省	-7160
博蒂	-7161
受创	-7162
在前	-7163
地主	-7164
大致	-7165
大门	-7166
官房	-7167
富豪	-7168
延误	-7169
意的	-7170
意识	-7171
拜会	-7172
捷运	-7173
收取	-7174
查出	-7175
桥梁	-7176
歌迷	-7177
的卡	-7178
的莫	-7179
职棒	-7180
补偿	-7181
跌幅	-7182
车厢	-7183
队和	-7184
▁可是	-7185
▁国会	-7186
了一项	-7187
人员在	-7188
八十六	-7189
南韩的	-7190
合并案	-7191
在曰本	-7192
在此地	-7193
时间表	-7194
玛丹娜	-7195
的一年	-7196
的严重	-7197
的历史	-7198
的抗议	-7199
索拉纳	-7200
今年四月	-7201
公民投票	-7202
异议人士	-7203
有期徒刑	-7204
枢机主教	-7205
的大规模	-7206
解放阵线	-7207
走上街头	-7208
遭到逮捕	-7209
先行	-7210
入狱	-7211
关达	-7212
力图	-7213
回复	-7214
塔米	-7215
复兴	-7216
外泄	-7217
外资	-7218
拉的	-7219
挖掘	-7220
是从	-7221
杀手	-7222
死伤	-7223
理念	-7224
的头	-7225
耒来	-7226
胡托	-7227
谈论	-7228
部说	-7229
八强赛	-7230
关达那	-7231
反抗军	-7232
反映出	-7233
在台湾	-7234
库德族	-7235
是世界	-7236
卫生当局	-7237
台维斯杯	-7238
消息来源	-7239
查尔斯王子	-7240
自杀炸弹客	-7241
选举委员会	-7242
▁日本经济新闻	-7243
▁如	-7244
一八	-7245
七亿	-7246
之差	-7247
加紧	-7248
医药	-7249
十足	-7250
吉隆	-7251
回国	-7252
容忍	-7253
并有	-7254
强风	-7255
恐惧	-7256
惨遭	-7257
探视	-7258
携手	-7259
收受	-7260
数天	-7261
油管	-7262
流通	-7263
浪费	-7264
潜力	-7265
版本	-7266
瑞兹	-7267
笼罩	-7268
纵火	-7269
艾佛	-7270
英语	-7271
萨雷	-7272
行星	-7273
设于	-7274
一年的	-7275
与国际	-7276
专家说	-7277
之所以	-7278
二年的	-7279
八十一	-7280
在最后	-7281
布莱克	-7282
政府已	-7283
是全球	-7284
的德国	-7285
的重大	-7286
真主党	-7287
祈祷团	-7288
这两名	-7289
预算案	-7290
外交关系	-7291
艾希克罗	-7292
半岛电视台	-7293
反恐怖主义	-7294
的经济成长	-7295
盖达组织的	-7296
▁已	-7297
▁除	-7298
业余	-7299
件事	-7300
任内	-7301
会商	-7302
先在	-7303
出兵	-7304
十人	-7305
后在	-7306
坏帐	-7307
夜间	-7308
战时	-7309
战火	-7310
沉没	-7311
注入	-7312
泰莉	-7313
琉球	-7314
的安	-7315
确信	-7316
终点	-7317
课程	-7318
连胜	-7319
逼近	-7320
那种	-7321
陶宛	-7322
顾虑	-7323
风格	-7324
高等	-7325
▁前述	-7326
他们也	-7327
可能已	-7328
吉隆坡	-7329
多约诺	-7330
成立的	-7331
收盘价	-7332
的代表	-7333
的飞机	-7334
第三次	-7335
董建华	-7336
财务省	-7337
与伊拉克	-7338
人丧生和	-7339
会员国的	-7340
强烈反对	-7341
研究显示	-7342
镇暴警察	-7343
驻联合国	-7344
华尔街日报	-7345
阿尔及利亚	-7346
▁全	-7347
三项	-7348
交付	-7349
交往	-7350
亦即	-7351
住家	-7352
午餐	-7353
可归	-7354
塞德	-7355
奖项	-7356
层楼	-7357
工资	-7358
干达	-7359
废气	-7360
延至	-7361
急救	-7362
性命	-7363
指派	-7364
新增	-7365
未曾	-7366
治安	-7367
玛拉	-7368
电动	-7369
登场	-7370
盟军	-7371
类的	-7372
者在	-7373
自已	-7374
被人	-7375
警报	-7376
议长	-7377
证人	-7378
诉求	-7379
软禁	-7380
还将	-7381
进场	-7382
▁两人	-7383
▁如今	-7384
▁每日	-7385
两人的	-7386
兆日圆	-7387
分钟后	-7388
坦米尔	-7389
威廉斯	-7390
彻斯特	-7391
生产力	-7392
的价格	-7393
的出口	-7394
的权利	-7395
的程度	-7396
贾西亚	-7397
采取的	-7398
内阁官房	-7399
农业部长	-7400
发射升空	-7401
受到影响	-7402
强烈地震	-7403
打电话给	-7404
最大规模	-7405
阿米塔吉	-7406
▁希	-7407
一倍	-7408
交锋	-7409
会对	-7410
单独	-7411
占据	-7412
哈斯	-7413
天花	-7414
巴克	-7415
常任	-7416
幸存	-7417
延续	-7418
撤退	-7419
教学	-7420
无罪	-7421
有罪	-7422
服装	-7423
楼市	-7424
概念	-7425
汤姆	-7426
洗钱	-7427
海底	-7428
炮火	-7429
热带	-7430
王妃	-7431
的长	-7432
确切	-7433
票对	-7434
私下	-7435
篮球	-7436
线索	-7437
选中	-7438
雷诺	-7439
霍乱	-7440
▁军方	-7441
▁华府	-7442
▁正在	-7443
丽莎白	-7444
产油国	-7445
保守党	-7446
其中有	-7447
和平与	-7448
已证实	-7449
布希在	-7450
总共有	-7451
总成绩	-7452
政府和	-7453
是一名	-7454
范围内	-7455
今天稍后	-7456
今年六月	-7457
加勒比海	-7458
北韩核子	-7459
第四种子	-7460
联席会议	-7461
被认为是	-7462
贸易伙伴	-7463
一九七二年	-7464
和巴基斯坦	-7465
35	-7466
一波	-7467
上了	-7468
中亚	-7469
五分	-7470
仅仅	-7471
侵入	-7472
六周	-7473
军火	-7474
出人	-7475
出线	-7476
变动	-7477
害怕	-7478
小将	-7479
已从	-7480
已由	-7481
康复	-7482
开支	-7483
得多	-7484
拆除	-7485
文学	-7486
斯德	-7487
涉案	-7488
片中	-7489
玛丽	-7490
的五	-7491
的后	-7492
脚步	-7493
设有	-7494
迄未	-7495
金森	-7496
▁一项	-7497
互联网	-7498
作准备	-7499
兑美元	-7500
印度的	-7501
双方的	-7502
巡回赛	-7503
巨大的	-7504
指的是	-7505
斯达克	-7506
的国会	-7507
的民主	-7508
的焦点	-7509
立陶宛	-7510
迈尔斯	-7511
阿菖汗	-7512
马哈地	-7513
▁不过他	-7514
其他地区	-7515
经济改革	-7516
辩护律师	-7517
高级宫员	-7518
麦可杰克森	-7519
美国总统柯林顿	-7520
▁和	-7521
下个	-7522
不必	-7523
为人	-7524
为其	-7525
伏击	-7526
关卡	-7527
喧布	-7528
围墙	-7529
撞击	-7530
救出	-7531
日增	-7532
欧州	-7533
此刻	-7534
理解	-7535
疟疾	-7536
观测	-7537
誓戒	-7538
▁当局	-7539
▁随后	-7540
三年前	-7541
事件中	-7542
伯利恒	-7543
全球的	-7544
八月份	-7545
前总理	-7546
可能被	-7547
大家都	-7548
死亡的	-7549
民众对	-7550
的妻子	-7551
的疑虑	-7552
第十一	-7553
行政院	-7554
庆祝活动	-7555
我们正在	-7556
这项报导	-7557
▁分析家说	-7558
▁包润石说	-7559
百分之二十五	-7560
▁菲	-7561
东南	-7562
今夭	-7563
允诺	-7564
入围	-7565
写下	-7566
南极	-7567
合格	-7568
后才	-7569
女人	-7570
密西	-7571
尔在	-7572
巡赛	-7573
开展	-7574
摩根	-7575
梢早	-7576
滥用	-7577
牺牲	-7578
的古	-7579
税收	-7580
臭味	-7581
跌至	-7582
车上	-7583
▁高尔	-7584
三十年	-7585
八十三	-7586
农产品	-7587
在六月	-7588
广泛的	-7589
火车站	-7590
的尸体	-7591
部署在	-7592
集中在	-7593
▁佛莱谢	-7594
世界第一	-7595
中华民国	-7596
和伊拉克	-7597
百分之八十	-7598
俄罗斯总统蒲亭	-7599
党内	-7600
则有	-7601
回报	-7602
土石	-7603
墓督	-7604
多万	-7605
大有	-7606
天候	-7607
奋战	-7608
层面	-7609
性质	-7610
战俘	-7611
攻打	-7612
斗争	-7613
期刊	-7614
棕榈	-7615
比数	-7616
猜测	-7617
界的	-7618
病逝	-7619
而以	-7620
胜出	-7621
违规	-7622
追查	-7623
门票	-7624
震央	-7625
饮水	-7626
▁市场	-7627
▁结果	-7628
九十五	-7629
休士顿	-7630
公司和	-7631
发生了	-7632
和法国	-7633
大选中	-7634
是他们	-7635
条人命	-7636
的一千	-7637
的因素	-7638
的技术	-7639
的澳洲	-7640
研讨会	-7641
谈判桌	-7642
足够的	-7643
车队的	-7644
进行中	-7645
高比耶	-7646
2001	-7647
二十九曰	-7648
二十四名	-7649
二月二十	-7650
今天凌晨	-7651
伙伴关系	-7652
同时也是	-7653
启程前往	-7654
我们相信	-7655
排名第二	-7656
政治人物	-7657
暂时并列	-7658
消防人员	-7659
调查报告	-7660
▁美国国家	-7661
以色列军队	-7662
反对党领袖	-7663
首都喀布尔	-7664
一边	-7665
两座	-7666
人因	-7667
但它	-7668
克福	-7669
卢森	-7670
参考	-7671
取缔	-7672
处分	-7673
好了	-7674
实行	-7675
容许	-7676
并向	-7677
得奖	-7678
打捞	-7679
指定	-7680
毛派	-7681
票数	-7682
维修	-7683
莫的	-7684
调停	-7685
较高	-7686
重回	-7687
阵地	-7688
阿兹	-7689
验票	-7690
▁有些	-7691
。89	-7692
今天也	-7693
发生于	-7694
和德国	-7695
的学生	-7696
的情势	-7697
的选手	-7698
社会党	-7699
罗纳度	-7700
▁他告诉	-7701
▁美国官员	-7702
五干万美元	-7703
自由贸易区	-7704
民主党总统候选人	-7705
万一	-7706
两盘	-7707
之用	-7708
作栋	-7709
六国	-7710
双双	-7711
口气	-7712
同情	-7713
四时	-7714
宇宙	-7715
宠物	-7716
平等	-7717
张贴	-7718
所幸	-7719
拉底	-7720
拉德	-7721
接掌	-7722
无家	-7723
未获	-7724
而出	-7725
西非	-7726
警力	-7727
认同	-7728
还说	-7729
▁巴黎	-7730
三天的	-7731
会议后	-7732
另一位	-7733
名单中	-7734
尤克斯	-7735
是我们	-7736
札夸威	-7737
马利亚	-7738
黛安娜	-7739
世界各地	-7740
今天警告	-7741
北爱尔兰	-7742
历史性的	-7743
多人受伤	-7744
报讯记者	-7745
武检人员	-7746
流血冲突	-7747
特别会议	-7748
穆罕默德	-7749
联邦政府	-7750
访问行程	-7751
货币政策	-7752
达成一项	-7753
感染爱滋病毒	-7754
▁日本首相小泉纯一郎	-7755
▁京	-7756
▁说	-7757
▁霍	-7758
一举	-7759
下载	-7760
不已	-7761
亥俄	-7762
会后	-7763
传递	-7764
六亿	-7765
出国	-7766
出血	-7767
刷新	-7768
加快	-7769
厂的	-7770
去看	-7771
向来	-7772
喀拉	-7773
夜市	-7774
女童	-7775
嫌疑	-7776
小鸟	-7777
已因	-7778
当劳	-7779
感受	-7780
打到	-7781
招致	-7782
揭露	-7783
教义	-7784
施政	-7785
本来	-7786
球后	-7787
的可	-7788
竟然	-7789
而有	-7790
获救	-7791
萨斯	-7792
蓄意	-7793
遇到	-7794
邮撮	-7795
与德国	-7796
会谈时	-7797
八十八	-7798
十四名	-7799
厄瓜多	-7800
及美国	-7801
对日本	-7802
已开发	-7803
有多少	-7804
死亡率	-7805
海珊的	-7806
的南韩	-7807
的最高	-7808
的玫击	-7809
第一盘	-7810
第三大	-7811
一百八十	-7812
举行选举	-7813
二十二曰	-7814
各国领袖	-7815
在十一月	-7816
小威廉丝	-7817
电视台说	-7818
的办公室	-7819
美军部队	-7820
中央银行总裁	-7821
▁联合国秘书长安南	-7822
▁公	-7823
▁反	-7824
▁每	-7825
七万	-7826
不敢	-7827
专注	-7828
世人	-7829
亳无	-7830
倡议	-7831
兵力	-7832
具备	-7833
利夫	-7834
刻意	-7835
卖出	-7836
及时	-7837
反美	-7838
吓阻	-7839
处以	-7840
对策	-7841
收藏	-7842
期的	-7843
男人	-7844
病房	-7845
萝拉	-7846
还未	-7847
迫害	-7848
▁截至	-7849
▁最后	-7850
▁贡国	-7851
▁钱尼	-7852
三十名	-7853
九十三	-7854
住宅区	-7855
共产党	-7856
减少了	-7857
升高的	-7858
在一份	-7859
战争的	-7860
的命运	-7861
的数字	-7862
第二度	-7863
安全人员	-7864
报告中说	-7865
巴勒斯坦自治政府	-7866
也能	-7867
二度	-7868
住房	-7869
削弱	-7870
包店	-7871
哈特	-7872
因该	-7873
在那	-7874
失利	-7875
奖额	-7876
宣判	-7877
帝国	-7878
开心	-7879
总监	-7880
总长	-7881
所获	-7882
掩饰	-7883
时事	-7884
昂贵	-7885
杀伤	-7886
渡轮	-7887
火势	-7888
生气	-7889
用品	-7890
皇后	-7891
研拟	-7892
维多	-7893
英美	-7894
药剂	-7895
西欧	-7896
较大	-7897
道的	-7898
队以	-7899
驱散	-7900
高喊	-7901
高手	-7902
▁先前	-7903
▁气象	-7904
不愿意	-7905
两百名	-7906
乌干达	-7907
今天向	-7908
今年初	-7909
他已经	-7910
供应商	-7911
发展的	-7912
史密斯	-7913
国家党	-7914
地中海	-7915
如果你	-7916
姆锡克	-7917
感染的	-7918
的判决	-7919
经纪人	-7920
致力于	-7921
通讯社	-7922
都可以	-7923
一般认为	-7924
四百五十	-7925
撮告指出	-7926
无家可归	-7927
正式宣布	-7928
表决通过	-7929
▁报告中说	-7930
西班牙选手	-7931
发表声明指出	-7932
下达	-7933
不动	-7934
东欧	-7935
两院	-7936
交火	-7937
优秀	-7938
克逊	-7939
入主	-7940
兽医	-7941
冷静	-7942
前线	-7943
卡纳	-7944
回忆	-7945
场地	-7946
坠机	-7947
塔拉	-7948
多久	-7949
好像	-7950
好友	-7951
它对	-7952
它已	-7953
小威	-7954
工商	-7955
席尔	-7956
帮忙	-7957
归昝	-7958
我有	-7959
手持	-7960
揭开	-7961
校长	-7962
玉米	-7963
瓦伦	-7964
离职	-7965
程车	-7966
结核	-7967
而来	-7968
跟你	-7969
轻伤	-7970
达尔	-7971
这条	-7972
选区	-7973
里约	-7974
长程	-7975
麦卡	-7976
100	-7977
▁回教	-7978
▁广州	-7979
▁此间	-7980
▁而在	-7981
一百名	-7982
也希望	-7983
传统的	-7984
创办人	-7985
十一个	-7986
国内的	-7987
对这些	-7988
的产品	-7989
的网站	-7990
签署的	-7991
▁英格兰	-7992
基础设施	-7993
外交官说	-7994
签署一项	-7995
经济论坛	-7996
反弹道飞弹	-7997
声明中指出	-7998
之地	-7999
之多	-8000
全民	-8001
八人	-8002
可见	-8003
往来	-8004
拥抱	-8005
振撼	-8006
挺进	-8007
新型	-8008
有机	-8009
水域	-8010
消灭	-8011
涌入	-8012
滢到	-8013
爵士	-8014
疑问	-8015
立的	-8016
策画	-8017
简短	-8018
致死	-8019
要到	-8020
贪渎	-8021
路上	-8022
较低	-8023
集结	-8024
饰演	-8025
马上	-8026
驻军	-8027
▁预料	-8028
下午五	-8029
与他的	-8030
乌拉圭	-8031
二四年	-8032
他可能	-8033
北京的	-8034
在白宫	-8035
季后赛	-8036
将他们	-8037
将提供	-8038
居住在	-8039
强烈的	-8040
很好的	-8041
数以干	-8042
民众的	-8043
的一切	-8044
的一处	-8045
的一大	-8046
费瑞罗	-8047
还可以	-8048
零点五	-8049
面临的	-8050
下落不明	-8051
亚里斯提	-8052
今天呼吁	-8053
以六比一	-8054
伊丽莎白	-8055
密切注意	-8056
所领导的	-8057
金融机构	-8058
高尔夫球	-8059
一九八八年	-8060
法新社记者	-8061
▁华盛顿邮报	-8062
世养贸易组织	-8063
▁同	-8064
▁皮	-8065
伊利	-8066
前进	-8067
史瓦	-8068
哥尔	-8069
在莫	-8070
妹妹	-8071
姆勒	-8072
忘记	-8073
恐饰	-8074
情撮	-8075
据说	-8076
时速	-8077
杜拜	-8078
此役	-8079
深刻	-8080
渴望	-8081
燃油	-8082
生病	-8083
用在	-8084
看见	-8085
红土	-8086
网上	-8087
罪犯	-8088
耗费	-8089
行使	-8090
遭人	-8091
驻扎	-8092
麻烦	-8093
▁媒体	-8094
一美元	-8095
七月份	-8096
不清楚	-8097
伯利亚	-8098
但是在	-8099
卢森堡	-8100
受影响	-8101
可望在	-8102
塔吉克	-8103
大气层	-8104
是根据	-8105
有效的	-8106
现代化	-8107
罗维亚	-8108
贝鲁特	-8109
辆汽车	-8110
▁包润石	-8111
与华盛顿	-8112
伤势严重	-8113
圣战组织	-8114
极端份子	-8115
联合国的	-8116
▁他接着说	-8117
维吉尼亚州	-8118
美国大使馆	-8119
不愿透露姓名的	-8120
23	-8121
严肃	-8122
之为	-8123
从而	-8124
会使	-8125
位的	-8126
军宫	-8127
创作	-8128
发明	-8129
和其	-8130
场上	-8131
坠落	-8132
多半	-8133
夫妻	-8134
子弹	-8135
弃权	-8136
思想	-8137
悲观	-8138
接下	-8139
有其	-8140
极大	-8141
正值	-8142
比三	-8143
疯狂	-8144
的爱	-8145
省会	-8146
穿越	-8147
答案	-8148
策动	-8149
货物	-8150
身穿	-8151
这套	-8152
遗传	-8153
隐私	-8154
▁部分	-8155
不信任	-8156
不断的	-8157
以来最	-8158
因为在	-8159
大屠杀	-8160
明天将	-8161
服务业	-8162
正确的	-8163
的唯一	-8164
航空母	-8165
预定在	-8166
领先的	-8167
二十七曰	-8168
已经开始	-8169
微软公司	-8170
斯德哥尔	-8171
研究小组	-8172
非洲国家	-8173
中东和平进程	-8174
英国广播公司	-8175
联合国安全理事会	-8176
▁美国国防部长伦斯斐	-8177
▁塞	-8178
两场	-8179
也因	-8180
了他	-8181
仍末	-8182
仰赖	-8183
力促	-8184
卷入	-8185
哲宁	-8186
四度	-8187
并使	-8188
态势	-8189
惨剧	-8190
挥舞	-8191
接种	-8192
推杆	-8193
文字	-8194
昨日	-8195
极度	-8196
此前	-8197
洛斯	-8198
深信	-8199
澳元	-8200
登辉	-8201
耗资	-8202
艰困	-8203
获悉	-8204
该项	-8205
豪元	-8206
蹂躏	-8207
龙头	-8208
▁这部	-8209
一个人	-8210
伊拉竟	-8211
反恐怖	-8212
合唱团	-8213
尼西亚	-8214
特原油	-8215
现有的	-8216
的一篇	-8217
的人道	-8218
的股权	-8219
糖尿病	-8220
非政府	-8221
▁塔利班	-8222
一千二百	-8223
世贸中心	-8224
两国关系	-8225
亚洲地区	-8226
共和国的	-8227
地面部队	-8228
武器禁运	-8229
民族主义	-8230
▁中国大陆	-8231
▁报告指出	-8232
国务卿欧布莱特	-8233
..	-8234
▁六	-8235
一间	-8236
不一	-8237
与前	-8238
乳癌	-8239
事后	-8240
兀九	-8241
决选	-8242
召集	-8243
哥罗	-8244
备地	-8245
复原	-8246
干扰	-8247
引进	-8248
弹头	-8249
所知	-8250
拟订	-8251
散布	-8252
有四	-8253
森严	-8254
海关	-8255
爪哇	-8256
税务	-8257
苏门	-8258
警蔡	-8259
贩卖	-8260
贫困	-8261
邻邦	-8262
里布	-8263
金斯	-8264
闯进	-8265
难过	-8266
▁共同	-8267
不稳定	-8268
了许多	-8269
了这项	-8270
五十一	-8271
他们会	-8272
他是否	-8273
在南韩	-8274
曼德拉	-8275
洋基队	-8276
誓告说	-8277
过去的	-8278
部门的	-8279
问题是	-8280
一段时间	-8281
今天证实	-8282
北京当局	-8283
回教国家	-8284
将于明天	-8285
执政联盟	-8286
航空母舰	-8287
进一步的	-8288
▁在此同时	-8289
本会计年度	-8290
总统穆夏拉夫	-8291
▁康	-8292
▁经	-8293
上映	-8294
不住	-8295
不相	-8296
严峻	-8297
为例	-8298
也未	-8299
买下	-8300
以使	-8301
以对	-8302
仰光	-8303
会外	-8304
传达	-8305
出台	-8306
分的	-8307
利浦	-8308
剩余	-8309
副手	-8310
占了	-8311
后卫	-8312
回归	-8313
场面	-8314
多月	-8315
大厂	-8316
大城	-8317
导向	-8318
希唱	-8319
当作	-8320
情的	-8321
承受	-8322
拉米	-8323
撰写	-8324
日渐	-8325
是被	-8326
曾任	-8327
来袭	-8328
次长	-8329
沿海	-8330
波顿	-8331
缔结	-8332
聊天	-8333
肖息	-8334
胜负	-8335
被指	-8336
谘询	-8337
赶上	-8338
还没	-8339
连霸	-8340
迪亚	-8341
里亚	-8342
金的	-8343
长途	-8344
颠覆	-8345
骚扰	-8346
▁欧元	-8347
三月底	-8348
三百名	-8349
两国的	-8350
两百万	-8351
中国和	-8352
中央社	-8353
十一名	-8354
十七名	-8355
占有率	-8356
和政府	-8357
商务部	-8358
因为它	-8359
国集团	-8360
城市的	-8361
大学生	-8362
开发商	-8363
德表示	-8364
的最低	-8365
美国遭	-8366
自去年	-8367
调查中	-8368
一百七十	-8369
世界冠军	-8370
亚特兰大	-8371
人士表示	-8372
保险公司	-8373
在以色列	-8374
在此之前	-8375
多人丧生	-8376
宾拉登的	-8377
的支持率	-8378
经济部长	-8379
这是一个	-8380
以色列士兵	-8381
对巴勒斯坦	-8382
不时	-8383
不让	-8384
世足	-8385
中期	-8386
伯尔	-8387
住进	-8388
保存	-8389
停顿	-8390
健全	-8391
全垒	-8392
全都	-8393
到访	-8394
反驳	-8395
国籍	-8396
圣伯	-8397
外科	-8398
布罗	-8399
挑选	-8400
捐助	-8401
收容	-8402
更高	-8403
服刑	-8404
来了	-8405
森在	-8406
海牙	-8407
祝福	-8408
移交	-8409
等于	-8410
签名	-8411
臼宫	-8412
船上	-8413
蓝侬	-8414
轻微	-8415
辛格	-8416
那样	-8417
里兹	-8418
重重	-8419
鲸鱼	-8420
▁两名	-8421
▁即使	-8422
与印度	-8423
九十九	-8424
事务所	-8425
内加尔	-8426
前所未	-8427
十五名	-8428
及莫他	-8429
四十名	-8430
提供了	-8431
时指出	-8432
显然是	-8433
段时间	-8434
的石油	-8435
胃少年	-8436
长时间	-8437
上市公司	-8438
南韩政府	-8439
卫生官员	-8440
在莫斯科	-8441
恢复正常	-8442
昨天表示	-8443
最重要的	-8444
电台报导	-8445
百分之十二	-8446
调查委员会	-8447
-1	-8448
▁人	-8449
▁诺	-8450
七四	-8451
亲人	-8452
他为	-8453
优胜	-8454
传送	-8455
信贷	-8456
区些	-8457
南京	-8458
吃饭	-8459
因于	-8460
国人	-8461
多了	-8462
大雨	-8463
天堂	-8464
女友	-8465
姚明	-8466
定期	-8467
小儿	-8468
市内	-8469
抢救	-8470
撞上	-8471
放松	-8472
故意	-8473
方的	-8474
曾对	-8475
杰出	-8476
步调	-8477
汤普	-8478
油轮	-8479
盛会	-8480
种植	-8481
自身	-8482
致函	-8483
艾拉	-8484
菖延	-8485
诈骗	-8486
足总	-8487
转换	-8488
阵容	-8489
马尔	-8490
▁找们	-8491
▁搜狐	-8492
一九三	-8493
为止的	-8494
主导的	-8495
九十二	-8496
事件后	-8497
克表示	-8498
分钟的	-8499
十五年	-8500
哈萨克	-8501
在印度	-8502
在电视	-8503
或其他	-8504
所做的	-8505
最后的	-8506
有一天	-8507
没办法	-8508
的健康	-8509
的冠军	-8510
的对手	-8511
的曰本	-8512
的病例	-8513
老百姓	-8514
▁纽西兰	-8515
个百分点	-8516
二氧化碳	-8517
关达那摩	-8518
吉尔吉斯	-8519
在俄罗斯	-8520
大规模的	-8521
将有助于	-8522
消防队员	-8523
的一连串	-8524
三百万美元	-8525
华盛顿邮报	-8526
法轮功学员	-8527
达成的协议	-8528
传输	-8529
促销	-8530
具名	-8531
出色	-8532
劲旅	-8533
包裹	-8534
北极	-8535
半球	-8536
原涠	-8537
友生	-8538
周曰	-8539
圣诞	-8540
多元	-8541
天王	-8542
姐妹	-8543
富有	-8544
已与	-8545
布亚	-8546
归还	-8547
手法	-8548
打了	-8549
教训	-8550
是的	-8551
显现	-8552
晚餐	-8553
正好	-8554
民进	-8555
湟出	-8556
等地	-8557
答腊	-8558
线的	-8559
荣获	-8560
规画	-8561
证词	-8562
较前	-8563
逐出	-8564
遏制	-8565
那不	-8566
防守	-8567
不理会	-8568
与伊朗	-8569
九十一	-8570
九十八	-8571
全垒打	-8572
内哥罗	-8573
出现的	-8574
匿名的	-8575
和平的	-8576
因为这	-8577
妮可娃	-8578
将进行	-8579
播出的	-8580
曰内瓦	-8581
目标的	-8582
第一名	-8583
选举的	-8584
▁美国驻	-8585
一千七百	-8586
史高比耶	-8587
抗议行动	-8588
新闻社说	-8589
航空公司的	-8590
▁以色列军方	-8591
教宗若望保禄二世	-8592
▁尼	-8593
不法	-8594
何处	-8595
前面	-8596
台中	-8597
同事	-8598
后再	-8599
后勤	-8600
后天	-8601
呼声	-8602
哪里	-8603
复出	-8604
大胜	-8605
将茌	-8606
尽力	-8607
展出	-8608
年仅	-8609
志愿	-8610
扩展	-8611
拿马	-8612
掀起	-8613
收回	-8614
早期	-8615
条例	-8616
每曰	-8617
气球	-8618
水的	-8619
波及	-8620
清洁	-8621
琼斯	-8622
看过	-8623
简直	-8624
组的	-8625
自二	-8626
莫正	-8627
菖度	-8628
请辞	-8629
跑步	-8630
连结	-8631
追随	-8632
逊尼	-8633
雪方	-8634
零七	-8635
需耍	-8636
首日	-8637
▁关于	-8638
▁加州	-8639
不希望	-8640
与曰本	-8641
五个月	-8642
任命为	-8643
但是他	-8644
和平号	-8645
因涉嫌	-8646
在他的	-8647
外交通	-8648
我们都	-8649
戴维斯	-8650
有一点	-8651
的生产	-8652
的趋势	-8653
贡国的	-8654
陪同下	-8655
▁金大中	-8656
▁雅罗育	-8657
与会代表	-8658
今天举行	-8659
今年二月	-8660
六边会谈	-8661
参加这项	-8662
可能造成	-8663
在新加坡	-8664
大满贯赛	-8665
欧洲央行	-8666
激进团体	-8667
▁他补充说	-8668
一九八六年	-8669
克里姆林宫	-8670
军事执政团	-8671
介于	-8672
佛教	-8673
利信	-8674
力道	-8675
动议	-8676
劲敌	-8677
大道	-8678
大马	-8679
尚无	-8680
崩溃	-8681
市郊	-8682
得要	-8683
意料	-8684
成人	-8685
扑灭	-8686
揭晓	-8687
早就	-8688
曾向	-8689
杰辛	-8690
松下	-8691
榜首	-8692
步兵	-8693
法郎	-8694
浸示	-8695
琪克	-8696
申诉	-8697
相继	-8698
祖国	-8699
站的	-8700
缺席	-8701
罗夫	-8702
考古	-8703
自愿	-8704
花园	-8705
观念	-8706
购房	-8707
这枚	-8708
重振	-8709
频频	-8710
黎明	-8711
下一个	-8712
为基础	-8713
二十分	-8714
人员和	-8715
仍无法	-8716
官员在	-8717
将会晤	-8718
将在二	-8719
布希与	-8720
布雷默	-8721
并警告	-8722
归昝于	-8723
很多人	-8724
必须要	-8725
总奖额	-8726
成员的	-8727
战争中	-8728
正准备	-8729
计划在	-8730
轰炸机	-8731
阿拉威	-8732
▁共和党	-8733
▁她表示	-8734
一万五千	-8735
以来一直	-8736
巴西兰岛	-8737
我们不会	-8738
日报报导	-8739
明白表示	-8740
电子商务	-8741
的美国人	-8742
这份报告	-8743
麦克雷兰说	-8744
国家广播公司	-8745
消息人士表示	-8746
▁沙乌地阿拉伯	-8747
消息人士的话说	-8748
37	-8749
47	-8750
▁依	-8751
万个	-8752
下了	-8753
不停	-8754
书中	-8755
买卖	-8756
伯拉	-8757
体盲	-8758
作此	-8759
像机	-8760
内亚	-8761
出租	-8762
升至	-8763
喜剧	-8764
大公	-8765
封闭	-8766
将向	-8767
巨额	-8768
建交	-8769
当肘	-8770
德在	-8771
总毓	-8772
战乱	-8773
披头	-8774
接力	-8775
接见	-8776
改进	-8777
无异	-8778
格达	-8779
毗邻	-8780
点的	-8781
盖兹	-8782
睡觉	-8783
窗户	-8784
等的	-8785
莫亚	-8786
菁英	-8787
血压	-8788
该区	-8789
谢谢	-8790
货轮	-8791
辛赫	-8792
锐减	-8793
马可	-8794
魅力	-8795
▁但在	-8796
▁要求	-8797
一起去	-8798
东部的	-8799
争议性	-8800
会造成	-8801
女主角	-8802
已表示	-8803
控制权	-8804
政府对	-8805
最多的	-8806
理事国	-8807
的球员	-8808
第四轮	-8809
英特尔	-8810
计程车	-8811
队教练	-8812
阿布贾	-8813
▁另一位	-8814
▁瓦希德	-8815
原油价格	-8816
四十五分	-8817
在菲律宾	-8818
当地时间	-8819
情报机构	-8820
感到非常	-8821
最新一期	-8822
萨尔瓦多	-8823
贸易顺差	-8824
非常重要	-8825
非法移民	-8826
▁主办单位	-8827
不愿具名的	-8828
电视台报导	-8829
45	-8830
▁成	-8831
一二	-8832
东芝	-8833
互动	-8834
亘隆	-8835
他命	-8836
他就	-8837
会说	-8838
低调	-8839
便是	-8840
充电	-8841
克鲁	-8842
加比	-8843
友谊	-8844
后将	-8845
告别	-8846
士气	-8847
外销	-8848
天空	-8849
太郎	-8850
奇异	-8851
她是	-8852
定罪	-8853
审核	-8854
层级	-8855
已径	-8856
延期	-8857
开盘	-8858
引人	-8859
患有	-8860
战役	-8861
打入	-8862
护士	-8863
每一	-8864
漫步	-8865
稻米	-8866
舰队	-8867
莉亚	-8868
诉诸	-8869
赌博	-8870
路口	-8871
飞越	-8872
▁北约	-8873
▁未来	-8874
七月间	-8875
三年内	-8876
主持人	-8877
以及在	-8878
俄亥俄	-8879
其他的	-8880
制造的	-8881
动物园	-8882
喀拉蚩	-8883
小组的	-8884
成长的	-8885
排放量	-8886
的新闻	-8887
的权力	-8888
科维奇	-8889
蒙蒂西	-8890
▁雅加达	-8891
一百公尺	-8892
他们两人	-8893
所进行的	-8894
拒绝接受	-8895
排名第三	-8896
正在调查	-8897
死亡病例	-8898
贫穷国家	-8899
资料显示	-8900
通用汽车	-8901
百分之七十	-8902
以色列与巴勒斯坦	-8903
全国飞弹防御系统	-8904
不休	-8905
不致	-8906
不远	-8907
专辑	-8908
乃是	-8909
何以	-8910
克瑞	-8911
击退	-8912
切尔	-8913
利的	-8914
别墅	-8915
包商	-8916
匿名	-8917
含量	-8918
哥哥	-8919
声势	-8920
如愿	-8921
子宫	-8922
山的	-8923
接待	-8924
放置	-8925
教派	-8926
教盲	-8927
早日	-8928
有三	-8929
望远	-8930
没收	-8931
涨幅	-8932
激增	-8933
瑟琳	-8934
电玩	-8935
神父	-8936
禁赛	-8937
经贸	-8938
置评	-8939
美丽	-8940
美的	-8941
致胜	-8942
获颁	-8943
袁示	-8944
赵明	-8945
过境	-8946
预警	-8947
麻痹	-8948
▁一些	-8949
▁作为	-8950
三月份	-8951
于本月	-8952
五年的	-8953
他相信	-8954
以因应	-8955
所造成	-8956
抗议者	-8957
新总统	-8958
有一人	-8959
湖人队	-8960
的信心	-8961
的母亲	-8962
的目的	-8963
都认为	-8964
反对美国	-8965
在义大利	-8966
太空中心	-8967
白俄罗斯	-8968
研究机构	-8969
联合声明	-8970
至少造成	-8971
蒙罗维亚	-8972
调查结果	-8973
这架飞机	-8974
进行表决	-8975
发表的一项	-8976
百分之六十	-8977
两顶	-8978
之久	-8979
也可	-8980
亚努	-8981
交由	-8982
代的	-8983
传莫	-8984
传言	-8985
余震	-8986
保育	-8987
信函	-8988
公报	-8989
刊载	-8990
夏天	-8991
大大	-8992
安理	-8993
完善	-8994
实习	-8995
寄望	-8996
寿命	-8997
小幅	-8998
尔文	-8999
普斯	-9000
植入	-9001
水手	-9002
波动	-9003
流动	-9004
淹没	-9005
特色	-9006
环绕	-9007
生素	-9008
真他	-9009
着一	-9010
科罗	-9011
筹组	-9012
职责	-9013
衣索	-9014
视窗	-9015
让她	-9016
话说	-9017
跟进	-9018
迟迟	-9019
送回	-9020
逃过	-9021
▁人权	-9022
▁表示	-9023
一小时	-9024
万五干	-9025
三百万	-9026
下半场	-9027
与经济	-9028
但没有	-9029
四年前	-9030
对这个	-9031
差不多	-9032
已进入	-9033
攻击者	-9034
显示器	-9035
更好的	-9036
有问题	-9037
法拉利	-9038
的感觉	-9039
的议题	-9040
的银行	-9041
的销售	-9042
西尼罗	-9043
都必须	-9044
防卫厅	-9045
项目的	-9046
2002	-9047
▁二零一	-9048
▁巴瑞克	-9049
一九八年	-9050
一千一百	-9051
两家公司	-9052
可能会在	-9053
各国政府	-9054
哈利波特	-9055
救援人员	-9056
最后决定	-9057
西伯利亚	-9058
这个世界	-9059
官员今天表示	-9060
国家安全顾问莱斯	-9061
▁威	-9062
▁席	-9063
七五	-9064
上加	-9065
世捍	-9066
两枚	-9067
中也	-9068
举世	-9069
从业	-9070
以经	-9071
伊天	-9072
但这	-9073
促请	-9074
六点	-9075
关连	-9076
写着	-9077
冲刺	-9078
切断	-9079
华人	-9080
却在	-9081
可乐	-9082
四处	-9083
国隽	-9084
在我	-9085
增幅	-9086
尼的	-9087
平常	-9088
接班	-9089
查拉	-9090
炼油	-9091
用以	-9092
盗版	-9093
米勒	-9094
而知	-9095
胃年	-9096
花莲	-9097
蜜拉	-9098
财团	-9099
隧道	-9100
隶属	-9101
▁国营	-9102
三千名	-9103
个人的	-9104
九年的	-9105
十六名	-9106
国会的	-9107
将会在	-9108
将包括	-9109
广东省	-9110
拉波娃	-9111
无限期	-9112
法院的	-9113
狂牛病	-9114
的外国	-9115
西雅图	-9116
设计师	-9117
该集团	-9118
▁乌克兰	-9119
▁他们的	-9120
▁他并说	-9121
▁比利时	-9122
两百公尺	-9123
他们希望	-9124
以及美国	-9125
内阁会议	-9126
决议草案	-9127
发言人艾	-9128
开发银行	-9129
报告显示	-9130
提出一项	-9131
时代杂志	-9132
苏门答腊	-9133
造成一名	-9134
二十一世纪	-9135
六百万美元	-9136
四百万美元	-9137
▁个	-9138
▁正	-9139
不想	-9140
为之	-9141
作风	-9142
公债	-9143
勃恩	-9144
危睑	-9145
受困	-9146
基亚	-9147
处在	-9148
处的	-9149
大涨	-9150
大都	-9151
失控	-9152
存货	-9153
完工	-9154
平手	-9155
恐布	-9156
恶劣	-9157
扣留	-9158
接连	-9159
握手	-9160
曼提	-9161
检疫	-9162
歧异	-9163
浓烟	-9164
海默	-9165
漏洞	-9166
玩笑	-9167
缩短	-9168
网罗	-9169
胞胎	-9170
舒服	-9171
获奖	-9172
譬如	-9173
赞同	-9174
跨越	-9175
逃避	-9176
那加	-9177
高龄	-9178
▁二十	-9179
▁面对	-9180
以两个	-9181
昨晚在	-9182
没想到	-9183
的选民	-9184
荷尔蒙	-9185
被问到	-9186
要求他	-9187
▁卫生部	-9188
将在未来	-9189
构成威胁	-9190
第五种子	-9191
美国线上	-9192
读卖新闻	-9193
调查发现	-9194
退伍军人	-9195
▁穆夏拉夫	-9196
国务卿莱斯	-9197
首长联席会议	-9198
英国首相布莱尔	-9199
告诉法新社记者说	-9200
▁即	-9201
▁柏	-9202
▁桑	-9203
▁近	-9204
七点	-9205
中小	-9206
中美	-9207
伺服	-9208
储备	-9209
党派	-9210
公吨	-9211
别的	-9212
压制	-9213
史诺	-9214
合力	-9215
周遭	-9216
味道	-9217
好转	-9218
害的	-9219
密码	-9220
封后	-9221
库贾	-9222
底前	-9223
忽视	-9224
急速	-9225
惊慌	-9226
拥挤	-9227
指向	-9228
据报	-9229
探讨	-9230
星球	-9231
曾因	-9232
机车	-9233
比起	-9234
汤米	-9235
沮丧	-9236
活力	-9237
烧毁	-9238
煤矿	-9239
终身	-9240
葛兰	-9241
评价	-9242
费特	-9243
赢家	-9244
预备	-9245
饥荒	-9246
▁朝日	-9247
下周一	-9248
不一样	-9249
他们说	-9250
出生的	-9251
受伤的	-9252
向国会	-9253
告诉他	-9254
安卡拉	-9255
将采取	-9256
年来的	-9257
控制的	-9258
提出了	-9259
易利信	-9260
每小时	-9261
男主角	-9262
的精神	-9263
纪念日	-9264
而这些	-9265
西南部	-9266
邻近的	-9267
郝尔德	-9268
预期的	-9269
▁洛杉矶	-9270
二十三曰	-9271
他们已经	-9272
可能成为	-9273
和以色列	-9274
大幅增加	-9275
意外事件	-9276
最后期限	-9277
科罗拉多	-9278
花式滑冰	-9279
记者会中	-9280
▁警方表示	-9281
人权委员会	-9282
总统雅罗育	-9283
蒙特内哥罗	-9284
记者会上说	-9285
世界贸易中心	-9286
巴勒斯坦人的	-9287
:「	-9288
一职	-9289
一至	-9290
上面	-9291
不对	-9292
不稳	-9293
事项	-9294
亲友	-9295
伦丝	-9296
但对	-9297
养殖	-9298
利马	-9299
制服	-9300
化石	-9301
却是	-9302
在阿	-9303
坎城	-9304
坎培	-9305
她将	-9306
实况	-9307
宫兵	-9308
峰会	-9309
左翼	-9310
庆典	-9311
开出	-9312
洛娃	-9313
流入	-9314
火力	-9315
犯人	-9316
考特	-9317
聆听	-9318
萨姆	-9319
讯号	-9320
革热	-9321
领空	-9322
▁布朗	-9323
▁甚至	-9324
与安全	-9325
东南部	-9326
中发现	-9327
中国在	-9328
也将在	-9329
加强对	-9330
去年在	-9331
双方在	-9332
可能与	-9333
和经济	-9334
团体的	-9335
在十月	-9336
感受到	-9337
我们能	-9338
所需的	-9339
的一天	-9340
的时刻	-9341
的细节	-9342
的进展	-9343
索罗门	-9344
让美国	-9345
适当的	-9346
1998	-9347
▁江泽民	-9348
一九九年	-9349
与联合国	-9350
人丧生的	-9351
兵工厂队	-9352
友言人说	-9353
和平协议	-9354
并末说明	-9355
我不知道	-9356
此一问题	-9357
经济专家	-9358
绝大多数	-9359
解决之道	-9360
贸易赤字	-9361
这种疾病	-9362
高峰会中	-9363
▁根据美国	-9364
发布声明说	-9365
欧盟执委会	-9366
遭到恐怖攻击	-9367
石油输出国组织	-9368
33	-9369
▁胡	-9370
▁驻	-9371
七三	-9372
不容	-9373
以五	-9374
但她	-9375
公众	-9376
则将	-9377
印地	-9378
召回	-9379
复活	-9380
大亨	-9381
宾州	-9382
屈服	-9383
应当	-9384
心情	-9385
情人	-9386
惠普	-9387
感动	-9388
执导	-9389
拍照	-9390
挫败	-9391
改选	-9392
政冶	-9393
有力	-9394
步枪	-9395
然的	-9396
猖獗	-9397
畅销	-9398
留任	-9399
白人	-9400
码头	-9401
笃定	-9402
纳尔	-9403
绝种	-9404
落入	-9405
薪水	-9406
跨国	-9407
远离	-9408
连系	-9409
送至	-9410
重耍	-9411
隐瞒	-9412
一千零	-9413
上周六	-9414
下一轮	-9415
主义的	-9416
卢安达	-9417
四月份	-9418
奖得主	-9419
排名第	-9420
日本人	-9421
核电厂	-9422
民进党	-9423
的危机	-9424
的合作	-9425
直落二	-9426
组织说	-9427
肺结核	-9428
运动的	-9429
零年代	-9430
▁该报说	-9431
因为我们	-9432
地方政府	-9433
广擂公司	-9434
拒绝透露	-9435
提出上诉	-9436
气候变迁	-9437
法兰克福	-9438
法新社说	-9439
活跃人士	-9440
获得证实	-9441
进行谈判	-9442
华盛顿当局	-9443
巴尔干半岛	-9444
百分之十一	-9445
联合国大会	-9446
高级官员说	-9447
东南亚国家协会	-9448
加入世界贸易组织	-9449
70	-9450
▁基	-9451
▁更	-9452
▁的	-9453
两者	-9454
亮相	-9455
代浸	-9456
以西	-9457
体验	-9458
例子	-9459
健保	-9460
助益	-9461
印巴	-9462
印第	-9463
厚生	-9464
向下	-9465
售出	-9466
国庆	-9467
垄断	-9468
大国	-9469
失所	-9470
屋顶	-9471
开销	-9472
我已	-9473
才在	-9474
找寻	-9475
放射	-9476
旱已	-9477
杀死	-9478
标题	-9479
格森	-9480
案中	-9481
桥本	-9482
正茌	-9483
消售	-9484
狮子	-9485
监测	-9486
看守	-9487
矿工	-9488
税前	-9489
等国	-9490
系于	-9491
肉品	-9492
菖次	-9493
评等	-9494
这罡	-9495
避难	-9496
郜长	-9497
▁其实	-9498
▁医院	-9499
▁就在	-9500
不需要	-9501
中情局	-9502
五年来	-9503
人口的	-9504
企业界	-9505
但美国	-9506
决定将	-9507
十九名	-9508
历史的	-9509
在五月	-9510
大联盟	-9511
密契尔	-9512
支持度	-9513
日报说	-9514
望远镜	-9515
的自由	-9516
调查的	-9517
这本书	-9518
那时候	-9519
准备工作	-9520
名列第二	-9521
商业银行	-9522
我们不能	-9523
我们需要	-9524
接受美国	-9525
爆发冲突	-9526
许多国家	-9527
贸易部长	-9528
达成共识	-9529
▁官员表示	-9530
举行的一项	-9531
呈阳性反应	-9532
在伊拉克的	-9533
斯德哥尔摩	-9534
阿拉法特的	-9535
事务高级专员	-9536
研究报告指出	-9537
▁白宫发言人佛莱谢	-9538
▁拜	-9539
▁赫	-9540
一五	-9541
专心	-9542
两倍	-9543
五位	-9544
们说	-9545
伪造	-9546
使其	-9547
依法	-9548
信件	-9549
克曼	-9550
共进	-9551
其次	-9552
减弱	-9553
力克	-9554
发烧	-9555
哥拉	-9556
圣城	-9557
尔顿	-9558
已是	-9559
带走	-9560
悲惨	-9561
战术	-9562
手表	-9563
把握	-9564
数度	-9565
斯卡	-9566
施行	-9567
无比	-9568
日常	-9569
早晨	-9570
时所	-9571
时曾	-9572
普曼	-9573
暂列	-9574
有过	-9575
朝圣	-9576
板球	-9577
比如	-9578
沉默	-9579
油田	-9580
测验	-9581
炮弹	-9582
热情	-9583
珍妮	-9584
由其	-9585
的史	-9586
睛神	-9587
考察	-9588
舒马	-9589
节节	-9590
落幕	-9591
费城	-9592
跌破	-9593
路障	-9594
辛尼	-9595
迈入	-9596
这将	-9597
釜山	-9598
阅读	-9599
颜色	-9600
驶往	-9601
▁这架	-9602
严格的	-9603
五年内	-9604
伦丝坦	-9605
伺服器	-9606
切尔西	-9607
并不会	-9608
我非常	-9609
欧盟的	-9610
的冲突	-9611
立法院	-9612
第三度	-9613
诺维奇	-9614
超级杯	-9615
运输机	-9616
这是他	-9617
遭绑架	-9618
龚萨雷	-9619
▁联台国	-9620
今天发生	-9621
今年五月	-9622
其中一人	-9623
另一方面	-9624
在二零零	-9625
基金会的	-9626
尤多约诺	-9627
晋级八强	-9628
最后一个	-9629
第六种子	-9630
该公司的	-9631
前往伊拉克	-9632
罹难者家属	-9633
证券交易所	-9634
皇家马德里队	-9635
采取军事行动	-9636
反弹道飞弹条约	-9637
法国总统席哈克	-9638
▁国际货币墓金会	-9639
▁美国国务院发言人	-9640
联邦准备理事会主席	-9641
▁周	-9642
▁身	-9643
▁魏	-9644
」。	-9645
主嫌	-9646
九点	-9647
余名	-9648
佛利	-9649
军用	-9650
创立	-9651
医护	-9652
反战	-9653
发袁	-9654
同步	-9655
启用	-9656
图片	-9657
在中	-9658
在巴	-9659
士革	-9660
夸大	-9661
女生	-9662
居留	-9663
帽子	-9664
幅射	-9665
年会	-9666
德培	-9667
拉特	-9668
收集	-9669
攻进	-9670
救护	-9671
教区	-9672
新航	-9673
早盘	-9674
时闾	-9675
明仁	-9676
柏皋	-9677
查明	-9678
水果	-9679
炎判	-9680
登山	-9681
立委	-9682
签下	-9683
紧密	-9684
老是	-9685
而后	-9686
膝盖	-9687
节省	-9688
营救	-9689
诺娃	-9690
谈及	-9691
贵宾	-9692
迫降	-9693
防护	-9694
▁俄国	-9695
▁希腊	-9696
▁设在	-9697
作以上	-9698
信用卡	-9699
十年内	-9700
在此间	-9701
坎培拉	-9702
工业化	-9703
披头四	-9704
攻击后	-9705
曾发生	-9706
的亚洲	-9707
的全国	-9708
的正式	-9709
的状况	-9710
的疾病	-9711
美国已	-9712
英国协	-9713
规定的	-9714
负责任	-9715
资格赛	-9716
选举人	-9717
三千五百	-9718
与阿富汗	-9719
二十八曰	-9720
包括一名	-9721
即将卸任	-9722
团结一致	-9723
政府宫员	-9724
昨天晚间	-9725
曼彻斯特	-9726
法国选手	-9727
的危险性	-9728
重新计票	-9729
高层宫员	-9730
举行记者会	-9731
在巴基斯坦	-9732
核子反应炉	-9733
波斯湾战争	-9734
美国国防部	-9735
▁欧盟执委会	-9736
▁美国官员说	-9737
统计数字显示	-9738
伊拉克总统海珊	-9739
一记	-9740
三家	-9741
三角	-9742
之争	-9743
亘要	-9744
亦将	-9745
从此	-9746
他被	-9747
像是	-9748
兹在	-9749
加工	-9750
募款	-9751
原始	-9752
向他	-9753
唐家	-9754
备方	-9755
多禄	-9756
大阪	-9757
奋力	-9758
宽频	-9759
并发	-9760
废料	-9761
延迟	-9762
开设	-9763
德森	-9764
恐吓	-9765
打造	-9766
挂钩	-9767
推崇	-9768
擦撞	-9769
政局	-9770
新秀	-9771
春节	-9772
最早	-9773
沦为	-9774
洛尚	-9775
渡过	-9776
激战	-9777
爱媛	-9778
瓜地	-9779
称的	-9780
索普	-9781
绝不	-9782
老兵	-9783
萨里	-9784
萼重	-9785
街上	-9786
请你	-9787
越界	-9788
连体	-9789
迪斯	-9790
追悼	-9791
重组	-9792
门口	-9793
陪伴	-9794
风景	-9795
▁三星	-9796
▁我国	-9797
▁现代	-9798
一点三	-9799
不排除	-9800
也要求	-9801
了一些	-9802
他们都	-9803
俄国的	-9804
八个月	-9805
其他人	-9806
几内亚	-9807
十分钟	-9808
十年的	-9809
号人物	-9810
名单上	-9811
基本上	-9812
好消息	-9813
手术后	-9814
拥有的	-9815
明年初	-9816
明确的	-9817
的文件	-9818
的日子	-9819
的经验	-9820
第三盘	-9821
纽约市	-9822
组只的	-9823
锡尔文	-9824
▁施若德	-9825
▁马其顿	-9826
一名男子	-9827
以二比一	-9828
动荡不安	-9829
历史新高	-9830
和平解决	-9831
四分之一	-9832
埃及总统	-9833
大宇汽车	-9834
天主教徒	-9835
奥运金牌	-9836
对中国的	-9837
巴勒斯但	-9838
百货公司	-9839
▁于此同时	-9840
中国大陆的	-9841
中央指挥部	-9842
部长级会议	-9843
▁九	-9844
▁旧	-9845
▁杰	-9846
▁第	-9847
世上	-9848
之赐	-9849
们的	-9850
会被	-9851
供给	-9852
公署	-9853
关节	-9854
判刑	-9855
号召	-9856
各位	-9857
因伤	-9858
国泰	-9859
国莒	-9860
在后	-9861
备种	-9862
大声	-9863
如期	-9864
射程	-9865
就可	-9866
巨璧	-9867
巴马	-9868
强权	-9869
摩尔	-9870
救助	-9871
数个	-9872
数日	-9873
智库	-9874
暴增	-9875
曾被	-9876
服役	-9877
末点	-9878
杰士	-9879
比斯	-9880
汗多	-9881
活着	-9882
澈底	-9883
爆裂	-9884
琼丝	-9885
疼痛	-9886
的家	-9887
罕见	-9888
耐心	-9889
背后	-9890
节约	-9891
警局	-9892
返家	-9893
通牒	-9894
通话	-9895
道琼	-9896
金像	-9897
门将	-9898
难者	-9899
难题	-9900
面上	-9901
驻守	-9902
▁一家	-9903
▁官员	-9904
▁所有	-9905
与布希	-9906
他不会	-9907
任务的	-9908
卡罗来	-9909
号种子	-9910
和国际	-9911
唐家璇	-9912
在海外	-9913
太阳能	-9914
小朋友	-9915
总冠军	-9916
注意力	-9917
结束了	-9918
需要的	-9919
香港的	-9920
麦当劳	-9921
以七比五	-9922
国会通过	-9923
圣伯多禄	-9924
市中心的	-9925
成为全球	-9926
我们没有	-9927
提出这项	-9928
攻击目标	-9929
有限公司	-9930
第一夫人	-9931
调降利率	-9932
部分地区	-9933
▁总部设在	-9934
一九七九年	-9935
华尔街股市	-9936
国土安全部	-9937
天安门广场	-9938
通货膨胀率	-9939
▁这名官员说	-9940
发表上述谈话	-9941
九一一恐怖玫击事件	-9942
日本首相小泉纯一郎	-9943
▁尽	-9944
▁现	-9945
一阵	-9946
三倍	-9947
上风	-9948
乘坐	-9949
仅是	-9950
低估	-9951
入选	-9952
八万	-9953
公元	-9954
关头	-9955
典型	-9956
包装	-9957
启明	-9958
吸收	-9959
国协	-9960
声中	-9961
害机	-9962
少民	-9963
居高	-9964
带头	-9965
延缓	-9966
引用	-9967
当初	-9968
技巧	-9969
拘捕	-9970
探险	-9971
搜查	-9972
散播	-9973
更换	-9974
曾是	-9975
末期	-9976
每人	-9977
比克	-9978
民选	-9979
牙买	-9980
特在	-9981
男友	-9982
票的	-9983
竹中	-9984
笑容	-9985
约占	-9986
美籍	-9987
葛拉	-9988
跟他	-9989
镜头	-9990
马里	-9991
高瞻	-9992
▁两位	-9993
▁希望	-9994
▁我想	-9995
▁然后	-9996
▁询以	-9997
▁阿尔	-9998
业者的	-9999
九十七	-10000
任总统	-10001
但由于	-10002
供罗斯	-10003
其中一	-10004
医生说	-10005
向记者	-10006
在我们	-10007
在那里	-10008
天然汽	-10009
实施的	-10010
已宣布	-10011
数以百	-10012
新病例	-10013
明年的	-10014
有关连	-10015
格拉斯	-10016
电话中	-10017
的三名	-10018
的作品	-10019
的时机	-10020
的电视	-10021
第三个	-10022
经济和	-10023
网站的	-10024
艾利斯	-10025
西部的	-10026
还有一	-10027
▁他强调	-10028
▁我们的	-10029
交换意见	-10030
令人担心	-10031
双边贸易	-10032
和平谈判	-10033
委员会说	-10034
安理会的	-10035
库妮可娃	-10036
拟议中的	-10037
核子计划	-10038
石油市场	-10039
科学杂志	-10040
高等法院	-10041
▁美国军方	-10042
一百万美元	-10043
二十四岁的	-10044
六比四击败	-10045
回教祈祷团	-10046
声明中表示	-10047
亚太经济合作	-10048
以色列总理巴瑞克	-10049
-2	-10050
▁圣	-10051
▁温	-10052
▁特	-10053
不上	-10054
之虎	-10055
亲密	-10056
他还	-10057
任为	-10058
俘虏	-10059
充斥	-10060
养老	-10061
出于	-10062
刑期	-10063
则由	-10064
到来	-10065
加剧	-10066
包恬	-10067
区种	-10068
去了	-10069
只说	-10070
囊括	-10071
外来	-10072
天人	-10073
女排	-10074
姆贝	-10075
岛国	-10076
川口	-10077
市砀	-10078
带到	-10079
得的	-10080
成一	-10081
战场	-10082
托雷	-10083
投机	-10084
接纳	-10085
搁置	-10086
旺行	-10087
波拉	-10088
浙江	-10089
潜舰	-10090
焚烧	-10091
片的	-10092
瑞德	-10093
申报	-10094
病变	-10095
的拉	-10096
竞标	-10097
艾斯	-10098
艾格	-10099
节奏	-10100
西屁	-10101
言之	-10102
订购	-10103
诺瓦	-10104
败在	-10105
起了	-10106
趋于	-10107
趸国	-10108
跟着	-10109
逝世	-10110
那州	-10111
铃木	-10112
阶级	-10113
阿卡	-10114
▁之前	-10115
▁外交	-10116
▁环保	-10117
上星期	-10118
与台湾	-10119
世界的	-10120
于六月	-10121
但目前	-10122
创下的	-10123
副主任	-10124
只剩下	-10125
四十分	-10126
尔表示	-10127
尽可能	-10128
摩苏尔	-10129
有超过	-10130
牙买加	-10131
的损失	-10132
米兰队	-10133
绝不会	-10134
良好的	-10135
艾尔斯	-10136
金额为	-10137
领袖的	-10138
1997	-10139
丰田汽车	-10140
今天告诉	-10141
情报单位	-10142
智慧财产	-10143
朱利安尼	-10144
正在进行	-10145
特赦组织	-10146
福田康夫	-10147
详细说明	-10148
调查小组	-10149
▁美国国会	-10150
三十亿美元	-10151
副总统高尔	-10152
百分之九十	-10153
社会民主党	-10154
二次世界大战	-10155
首柜小泉纯一郎	-10156
▁多	-10157
▁无	-10158
▁朱	-10159
上帝	-10160
不分	-10161
中校	-10162
之列	-10163
乐园	-10164
事长	-10165
侨民	-10166
健身	-10167
光碟	-10168
公关	-10169
冷却	-10170
勇气	-10171
可行	-10172
叶尔	-10173
在家	-10174
型态	-10175
境外	-10176
头痛	-10177
奉命	-10178
契马	-10179
安打	-10180
定案	-10181
少了	-10182
山崩	-10183
山庄	-10184
希米	-10185
带有	-10186
弩方	-10187
愿望	-10188
提炼	-10189
摩托	-10190
料将	-10191
是茌	-10192
普尔	-10193
来得	-10194
欠佳	-10195
民防	-10196
激怒	-10197
物种	-10198
玩具	-10199
的罗	-10200
盐川	-10201
眼前	-10202
瞩目	-10203
维克	-10204
莉莎	-10205
衡量	-10206
见过	-10207
谣言	-10208
财报	-10209
输掉	-10210
运转	-10211
违宪	-10212
长老	-10213
驭消	-10214
高诉	-10215
▁他是	-10216
▁代表	-10217
▁市希	-10218
▁这艘	-10219
一点五	-10220
七年的	-10221
下一场	-10222
不应该	-10223
之前的	-10224
也必须	-10225
了美国	-10226
五月份	-10227
亿七千	-10228
以保护	-10229
半小时	-10230
唯一的	-10231
四年来	-10232
四比六	-10233
在本月	-10234
委员长	-10235
对全球	-10236
尤莫是	-10237
总统卡	-10238
服务的	-10239
正常化	-10240
正试图	-10241
而受到	-10242
胡托莫	-10243
访问说	-10244
选委会	-10245
▁阿拉伯	-10246
人员表示	-10247
卡罗来纳	-10248
反对阵营	-10249
台北肘间	-10250
官员今天	-10251
战犯法庭	-10252
数以千计	-10253
玫击行动	-10254
瓜地马拉	-10255
电信公司	-10256
绿色和平	-10257
越来越多	-10258
这项比赛	-10259
高速公路	-10260
▁油国组织	-10261
一九七三年	-10262
一九八五年	-10263
二十亿美元	-10264
时报讯记者	-10265
爱尔兰共和	-10266
维持和平部队	-10267
参谋首长联席会议	-10268
▁存	-10269
三军	-10270
两艘	-10271
付诸	-10272
伴侣	-10273
充当	-10274
关西	-10275
刺杀	-10276
千万	-10277
升息	-10278
卡菲	-10279
卢比	-10280
吹洲	-10281
四大	-10282
土木	-10283
在南	-10284
坚难	-10285
实的	-10286
已为	-10287
巴契	-10288
序幕	-10289
成效	-10290
护送	-10291
持枪	-10292
晚宴	-10293
普及	-10294
最受	-10295
本国	-10296
格罗	-10297
率的	-10298
移转	-10299
编列	-10300
舆论	-10301
节制	-10302
行劝	-10303
误导	-10304
谅解	-10305
贫民	-10306
费尔	-10307
过多	-10308
追平	-10309
遗产	-10310
销量	-10311
零五	-10312
马逊	-10313
▁卫生	-10314
▁后来	-10315
▁大约	-10316
▁她在	-10317
▁这对	-10318
一点二	-10319
三比六	-10320
不寻常	-10321
与一名	-10322
中国队	-10323
也呼吁	-10324
二五年	-10325
交易中	-10326
人死于	-10327
发生时	-10328
合作的	-10329
同样的	-10330
在全国	-10331
富士通	-10332
将无法	-10333
年底前	-10334
当局的	-10335
改革的	-10336
昨天的	-10337
机场的	-10338
杜琪克	-10339
杳里岛	-10340
登革热	-10341
的主题	-10342
的人物	-10343
的印度	-10344
的电脑	-10345
第一步	-10346
蒙特娄	-10347
设计的	-10348
边界的	-10349
阿拉旧	-10350
▁这也是	-10351
兼执行长	-10352
副国务卿	-10353
北美票房	-10354
国会大厦	-10355
国家元首	-10356
外交通商	-10357
恩隆公司	-10358
感到失望	-10359
物价指数	-10360
美国军方	-10361
表示关切	-10362
表示支持	-10363
警告指出	-10364
这项协定	-10365
二十一岁的	-10366
伊拉克境内	-10367
儿童基金会	-10368
数十亿美元	-10369
汽车制造商	-10370
▁这位官员说	-10371
▁美国总统布希今天	-10372
▁原	-10373
▁若	-10374
▁谢	-10375
万面	-10376
产油	-10377
以北	-10378
休闲	-10379
修复	-10380
公款	-10381
内幕	-10382
冲撞	-10383
出不	-10384
制品	-10385
史托	-10386
地质	-10387
多起	-10388
大笔	-10389
巴瑞	-10390
帮我	-10391
应对	-10392
延烧	-10393
延申	-10394
报名	-10395
文明	-10396
斩首	-10397
无缘	-10398
是于	-10399
有如	-10400
有毒	-10401
正规	-10402
流氓	-10403
深受	-10404
清单	-10405
渗透	-10406
满载	-10407
爱司	-10408
球技	-10409
短跑	-10410
祝贺	-10411
罢免	-10412
而富	-10413
而未	-10414
艰苦	-10415
苏里	-10416
菲德	-10417
蒙受	-10418
认是	-10419
货柜	-10420
赢球	-10421
钻石	-10422
铲除	-10423
随之	-10424
饥饿	-10425
▁古巴	-10426
▁本月	-10427
与华府	-10428
九十四	-10429
也显示	-10430
公务员	-10431
到美国	-10432
名美军	-10433
在印尼	-10434
大都会	-10435
学教授	-10436
学校的	-10437
官方的	-10438
巴斯克	-10439
布拉格	-10440
德意志	-10441
教育部	-10442
斯柯尼	-10443
是否能	-10444
欧元的	-10445
瑟琳娜	-10446
的人选	-10447
的声音	-10448
的意见	-10449
给我们	-10450
老布希	-10451
自由的	-10452
莫国的	-10453
通电话	-10454
部长官	-10455
▁交易商	-10456
一千两百	-10457
人员伤亡	-10458
加拿大的	-10459
和平协定	-10460
密切合作	-10461
当地居民	-10462
我很高兴	-10463
抗议人士	-10464
斯洛伐克	-10465
暴力行动	-10466
最后决赛	-10467
消费者的	-10468
百分之百	-10469
突尼西亚	-10470
购物中心	-10471
▁今天稍早	-10472
▁奈及利亚	-10473
▁美国联邦	-10474
百分之十四	-10475
领袖金正日	-10476
▁盖	-10477
▁至	-10478
▁长	-10479
中在	-10480
也为	-10481
他以	-10482
他有	-10483
住民	-10484
准将	-10485
初选	-10486
半个	-10487
卫队	-10488
可谓	-10489
回去	-10490
天内	-10491
好想	-10492
宋来	-10493
富比	-10494
少的	-10495
年中	-10496
废墟	-10497
弹药	-10498
抑或	-10499
故乡	-10500
月的	-10501
本田	-10502
柴油	-10503
次卿	-10504
泛滥	-10505
渐渐	-10506
犯案	-10507
现已	-10508
珍珠	-10509
町村	-10510
经典	-10511
缉捕	-10512
老牌	-10513
耗乏	-10514
萧条	-10515
行驶	-10516
讯问	-10517
辨识	-10518
达卡	-10519
这桩	-10520
这篇	-10521
迪克	-10522
逃逸	-10523
通行	-10524
遣返	-10525
避孕	-10526
都未	-10527
间接	-10528
阳平	-10529
▁这座	-10530
一周前	-10531
万四千	-10532
不会再	-10533
九十六	-10534
九日在	-10535
人类的	-10536
他又说	-10537
以防止	-10538
会发生	-10539
冲突的	-10540
决定不	-10541
四百万	-10542
奥委会	-10543
威胁的	-10544
密西根	-10545
戴姆勒	-10546
批评者	-10547
提名的	-10548
数个月	-10549
新泽西	-10550
李登辉	-10551
来台湾	-10552
格达费	-10553
民主的	-10554
民营化	-10555
泰国的	-10556
的两个	-10557
的印尼	-10558
的大选	-10559
的女性	-10560
的比例	-10561
继承人	-10562
自治区	-10563
赵明禄	-10564
这不是	-10565
▁上个月	-10566
▁今天的	-10567
今天开始	-10568
使用武力	-10569
分析家说	-10570
发展核武	-10571
夏姆锡克	-10572
对美国的	-10573
特别是在	-10574
精神领袖	-10575
紧张关系	-10576
艾巴拉迪	-10577
赢得冠军	-10578
进行会谈	-10579
采取措施	-10580
非洲联盟	-10581
七百万美元	-10582
与盖达组织	-10583
狂牛症病例	-10584
进入紧急状态	-10585
▁俄罗斯总统蒲亭	-10586
67	-10587
上办	-10588
不然	-10589
两队	-10590
五次	-10591
人心	-10592
从中	-10593
保卫	-10594
信中	-10595
借口	-10596
克尔	-10597
八亿	-10598
军营	-10599
出自	-10600
加国	-10601
勋章	-10602
受阻	-10603
古老	-10604
只在	-10605
台上	-10606
吸入	-10607
唯有	-10608
喝采	-10609
在马	-10610
大跌	-10611
大黎	-10612
奠定	-10613
宣示	-10614
屈居	-10615
弩局	-10616
成分	-10617
手的	-10618
手臂	-10619
扩增	-10620
搜捕	-10621
撤换	-10622
晚会	-10623
最惨	-10624
有两	-10625
有助	-10626
杯葛	-10627
此人	-10628
热闹	-10629
百米	-10630
的金	-10631
皮尔	-10632
短短	-10633
碰到	-10634
精英	-10635
维勒	-10636
美英	-10637
西元	-10638
觉定	-10639
诊所	-10640
说过	-10641
诺天	-10642
读者	-10643
购并	-10644
轻取	-10645
迄末	-10646
远东	-10647
邻居	-10648
金会	-10649
附加	-10650
零六	-10651
驾车	-10652
鱼类	-10653
▁人民	-10654
一九兀	-10655
一日起	-10656
三年来	-10657
了很多	-10658
二月份	-10659
众两院	-10660
但表示	-10661
八十九	-10662
八年的	-10663
副作用	-10664
加萨市	-10665
增加至	-10666
大黎加	-10667
将导致	-10668
已经被	-10669
据估计	-10670
改革派	-10671
救护车	-10672
方程式	-10673
流行性	-10674
瓦砾堆	-10675
的关切	-10676
的冲击	-10677
的员工	-10678
的音乐	-10679
目前是	-10680
第十二	-10681
约二十	-10682
观光业	-10683
▁好莱坞	-10684
▁阿格西	-10685
三十岁的	-10686
专家表示	-10687
二十六曰	-10688
代表大会	-10689
全球贸易	-10690
大幅减少	-10691
太空漫步	-10692
安全问题	-10693
已经成为	-10694
心脏病发	-10695
投票结果	-10696
无法接受	-10697
核子扩散	-10698
生化武器	-10699
石油出口	-10700
紧急会议	-10701
绝大部分	-10702
网球名将	-10703
能源部长	-10704
警方表示	-10705
讨论如何	-10706
六比三击败	-10707
亿五千万美元	-10708
时三十分台北时间	-10709
32	-10710
▁直	-10711
一级	-10712
亮丽	-10713
亲信	-10714
便利	-10715
倒数	-10716
八点	-10717
冲绳	-10718
创业	-10719
别无	-10720
北欧	-10721
十点	-10722
却不	-10723
号码	-10724
囚禁	-10725
培兹	-10726
大小	-10727
头版	-10728
妥善	-10729
宪政	-10730
家具	-10731
就医	-10732
屠宰	-10733
恐龙	-10734
抢七	-10735
收拾	-10736
攸关	-10737
改为	-10738
放缓	-10739
政见	-10740
权威	-10741
棒球	-10742
永续	-10743
点燃	-10744
煽动	-10745
瓦纳	-10746
的东	-10747
的强	-10748
算是	-10749
纪子	-10750
给了	-10751
胜一	-10752
能让	-10753
菲立	-10754
蓬勃	-10755
西省	-10756
要将	-10757
辅导	-10758
辞世	-10759
迟缓	-10760
阻挡	-10761
险胜	-10762
颁发	-10763
颇为	-10764
风波	-10765
骄傲	-10766
齐聚	-10767
▁参院	-10768
▁另有	-10769
▁身为	-10770
一年来	-10771
九个月	-10772
了他的	-10773
以下的	-10774
以两百	-10775
会出现	-10776
六百万	-10777
势必会	-10778
参加了	-10779
发行的	-10780
在上周	-10781
在经过	-10782
对经济	-10783
尽全力	-10784
已下令	-10785
帕金森	-10786
库斯克	-10787
有兴趣	-10788
有更多	-10789
极大的	-10790
的作用	-10791
的居民	-10792
的数量	-10793
相同的	-10794
穆加比	-10795
第四名	-10796
这项新	-10797
▁另一名	-10798
▁莫斯科	-10799
一个国家	-10800
一干五百	-10801
一致认为	-10802
不得而知	-10803
卷录影带	-10804
可能发生	-10805
四百公尺	-10806
已经同意	-10807
我们知道	-10808
更进一步	-10809
示威游行	-10810
陆战队员	-10811
陷入僵局	-10812
为首的联军	-10813
有关伊拉克	-10814
环法自由车	-10815
前总统柯林顿	-10816
▁世养卫生组织	-10817
世界排名第一的	-10818
埃及总统穆巴拉克	-10819
▁福	-10820
三盘	-10821
丝齐	-10822
为时	-10823
亲戚	-10824
他要	-10825
优异	-10826
俄罗	-10827
元素	-10828
兰德	-10829
共享	-10830
关押	-10831
关联	-10832
出刊	-10833
出访	-10834
化为	-10835
受惠	-10836
可说	-10837
后续	-10838
吸毒	-10839
四川	-10840
对台	-10841
将就	-10842
尊严	-10843
少子	-10844
布瑞	-10845
并由	-10846
应讯	-10847
彻夜	-10848
待命	-10849
托沃	-10850
振奋	-10851
提拨	-10852
攻下	-10853
斥资	-10854
方针	-10855
曾有	-10856
服饰	-10857
样子	-10858
渔业	-10859
生长	-10860
男生	-10861
的黑	-10862
精锐	-10863
组件	-10864
给你	-10865
虫剂	-10866
赛季	-10867
转而	-10868
还击	-10869
这栋	-10870
里程	-10871
金汉	-10872
门槛	-10873
降到	-10874
雕像	-10875
首盘	-10876
驻在	-10877
500	-10878
与政府	-10879
中国人	-10880
但并未	-10881
体育馆	-10882
保险套	-10883
分钟内	-10884
十三个	-10885
只有一	-10886
四百名	-10887
在经济	-10888
我们就	-10889
我已经	-10890
抗生素	-10891
撮告中	-10892
正考虑	-10893
温尼亚	-10894
的想法	-10895
的资讯	-10896
绳之以	-10897
胆固醇	-10898
航空业	-10899
英国人	-10900
表示将	-10901
被送往	-10902
证交所	-10903
部队在	-10904
▁欧尼尔	-10905
今年稍早	-10906
以巴双方	-10907
俄亥俄州	-10908
全球各地	-10909
新闻记者	-10910
此一事件	-10911
民主党的	-10912
瓦伦西亚	-10913
疑似病例	-10914
行政长官	-10915
足球总会	-10916
阿拉伯人	-10917
预定明天	-10918
▁一般预料	-10919
▁伦斯斐说	-10920
之间的关系	-10921
官员的话说	-10922
于一九九九年	-10923
百分之零点一	-10924
领导人金正日	-10925
3,	-10926
▁万	-10927
▁值	-10928
▁台	-10929
▁孙	-10930
一列	-10931
三兆	-10932
下院	-10933
不顾	-10934
举措	-10935
也以	-10936
五成	-10937
亚当	-10938
会期	-10939
侵占	-10940
假日	-10941
剥夺	-10942
加盟	-10943
区个	-10944
协和	-10945
又在	-10946
同声	-10947
向上	-10948
噪音	-10949
国有	-10950
墓于	-10951
外出	-10952
多出	-10953
好事	-10954
市值	-10955
急剧	-10956
扳回	-10957
折衷	-10958
抢劫	-10959
握有	-10960
新人	-10961
昕究	-10962
最具	-10963
朝向	-10964
格说	-10965
死因	-10966
治理	-10967
洞穴	-10968
液晶	-10969
演艺	-10970
犯规	-10971
瓦里	-10972
留意	-10973
的年	-10974
目由	-10975
真得	-10976
祖文	-10977
稳健	-10978
纳德	-10979
警员	-10980
访美	-10981
该省	-10982
走软	-10983
这只	-10984
连连	-10985
选情	-10986
重庆	-10987
随行	-10988
零星	-10989
雷射	-10990
预言	-10991
马汀	-10992
▁他并	-10993
下台的	-10994
与北京	-10995
两人在	-10996
于十月	-10997
人质的	-10998
他今天	-10999
利维亚	-11000
十八岁	-11001
十六强	-11002
十年前	-11003
国隽卿	-11004
多年的	-11005
已准备	-11006
巴席尔	-11007
必须先	-11008
成长了	-11009
注意到	-11010
理由是	-11011
的一步	-11012
的共同	-11013
继续在	-11014
耗乏铀	-11015
远超过	-11016
里斯本	-11017
飞弹的	-11018
▁宾拉登	-11019
▁我希望	-11020
▁目击者	-11021
上诉法院	-11022
今天再度	-11023
入主白宫	-11024
化学武器	-11025
去年六月	-11026
发动玫击	-11027
召开会议	-11028
可能面临	-11029
国家公园	-11030
库贾氏症	-11031
控股公司	-11032
明年元月	-11033
晋级决赛	-11034
核子设施	-11035
研究结果	-11036
空袭行动	-11037
管理阶层	-11038
要求美国	-11039
里布监狱	-11040
▁世卫组织	-11041
▁布希政府	-11042
六比二击败	-11043
的安全措施	-11044
药物管理局	-11045
首相森喜朗	-11046
截至目前为止	-11047
▁昆	-11048
一值	-11049
一前	-11050
上演	-11051
不易	-11052
乃至	-11053
九万	-11054
争端	-11055
伯斯	-11056
催泪	-11057
况下	-11058
分组	-11059
刑求	-11060
危急	-11061
友表	-11062
史坦	-11063
周期	-11064
商标	-11065
喂食	-11066
喝酒	-11067
在三	-11068
多种	-11069
大胆	-11070
局说	-11071
币值	-11072
布宜	-11073
布的	-11074
帕拉	-11075
应变	-11076
座车	-11077
忍受	-11078
志明	-11079
急于	-11080
想当	-11081
拖累	-11082
操纵	-11083
断然	-11084
族裔	-11085
曰期	-11086
查理	-11087
洛普	-11088
特律	-11089
特纳	-11090
界线	-11091
疫区	-11092
的低	-11093
的比	-11094
皮特	-11095
眼镜	-11096
神圣	-11097
祸首	-11098
称霸	-11099
稍晚	-11100
美俄	-11101
腐败	-11102
致意	-11103
舰艇	-11104
色彩	-11105
记画	-11106
过早	-11107
迪说	-11108
逃生	-11109
逞军	-11110
造势	-11111
遭逢	-11112
间题	-11113
隐藏	-11114
雷德	-11115
▁秘鲁	-11116
▁藤森	-11117
▁韩国	-11118
一千万	-11119
上一次	-11120
不只是	-11121
不同意	-11122
为主的	-11123
主办权	-11124
人罹难	-11125
亿而富	-11126
他们所	-11127
他指出	-11128
以二比	-11129
加德满	-11130
四月间	-11131
安全与	-11132
将达到	-11133
已出现	-11134
已展开	-11135
已超过	-11136
很容易	-11137
投票中	-11138
提供给	-11139
有一干	-11140
有时候	-11141
的个人	-11142
的利益	-11143
的比率	-11144
都是在	-11145
一百一十	-11146
令人感到	-11147
军事基地	-11148
十八岁的	-11149
国务次卿	-11150
多人死亡	-11151
大马士革	-11152
意外事故	-11153
我们现在	-11154
提出警告	-11155
无法证实	-11156
电力公司	-11157
绳之以法	-11158
警察首长	-11159
设立一个	-11160
这次选举	-11161
重要角色	-11162
二十九岁的	-11163
入侵伊拉克	-11164
总理朱镕基	-11165
消费者支出	-11166
与美国总统布希	-11167
1,	-11168
▁令	-11169
▁瓦	-11170
▁联	-11171
七六	-11172
下雨	-11173
二手	-11174
亚历	-11175
付费	-11176
付近	-11177
仲裁	-11178
休养	-11179
保密	-11180
决胜	-11181
出轨	-11182
加深	-11183
可达	-11184
司长	-11185
合同	-11186
大威	-11187
大脑	-11188
太后	-11189
宣导	-11190
宣扬	-11191
对立	-11192
导至	-11193
就被	-11194
就读	-11195
已来	-11196
引响	-11197
弟弟	-11198
强行	-11199
必免	-11200
拉卡	-11201
挤满	-11202
挫折	-11203
攻占	-11204
数年	-11205
普林	-11206
月球	-11207
梦幻	-11208
波罗	-11209
灭绝	-11210
热的	-11211
爱好	-11212
的情	-11213
盘旋	-11214
睡眠	-11215
碎片	-11216
票亮	-11217
筹办	-11218
者与	-11219
肇事	-11220
观的	-11221
调动	-11222
豁免	-11223
贝多	-11224
贝特	-11225
货运	-11226
辉煌	-11227
送上	-11228
逆差	-11229
道底	-11230
那天	-11231
那峨	-11232
除名	-11233
音速	-11234
▁检方	-11235
一千人	-11236
中受伤	-11237
于今天	-11238
人民党	-11239
今年将	-11240
你可以	-11241
克里斯	-11242
克雷兰	-11243
全国性	-11244
到现在	-11245
南美洲	-11246
双胞胎	-11247
发展出	-11248
合理的	-11249
和印度	-11250
在医院	-11251
如果不	-11252
对曰本	-11253
将举行	-11254
巴拿马	-11255
巴斯拉	-11256
底特律	-11257
是否将	-11258
有力的	-11259
札希尔	-11260
电讯报	-11261
的事业	-11262
的传统	-11263
的名字	-11264
的工厂	-11265
罗德里	-11266
自由党	-11267
造成了	-11268
高球赛	-11269
▁声明中	-11270
作业系统	-11271
南斯拉天	-11272
发动战争	-11273
合作关系	-11274
告诉美国	-11275
国际法庭	-11276
恐怖行动	-11277
核子计画	-11278
种子球员	-11279
美国可能	-11280
这家公司	-11281
▁国际传真	-11282
一九四五年	-11283
中央通信社	-11284
八百万美元	-11285
哥斯大黎加	-11286
四十亿美元	-11287
百分之十三	-11288
非政府组织	-11289
在一九九九年	-11290
▁法国总统席哈克	-11291
▁菖	-11292
一对	-11293
不去	-11294
两分	-11295
之苦	-11296
事会	-11297
人说	-11298
公词	-11299
减肥	-11300
创始	-11301
到场	-11302
勒索	-11303
卷土	-11304
员的	-11305
国与	-11306
基准	-11307
增援	-11308
多处	-11309
奋进	-11310
她与	-11311
威斯	-11312
开采	-11313
很高	-11314
抓下	-11315
敢死	-11316
有个	-11317
架设	-11318
次数	-11319
民权	-11320
沈阳	-11321
波昂	-11322
消毒	-11323
温暖	-11324
犬的	-11325
甫于	-11326
看出	-11327
磋谈	-11328
管辖	-11329
纳西	-11330
结荣	-11331
老旧	-11332
考卢	-11333
聪明	-11334
航运	-11335
诺说	-11336
起在	-11337
踊跃	-11338
身材	-11339
车站	-11340
辨认	-11341
这波	-11342
进度	-11343
适成	-11344
零九	-11345
鞋子	-11346
领军	-11347
马斯	-11348
198	-11349
▁京华	-11350
▁参与	-11351
▁曾经	-11352
▁这篇	-11353
三小时	-11354
不可以	-11355
中国与	-11356
交易的	-11357
今天与	-11358
今年底	-11359
以一比	-11360
六百名	-11361
军医院	-11362
分公司	-11363
包括在	-11364
北京市	-11365
十二岁	-11366
十八名	-11367
协助下	-11368
印尼的	-11369
在八月	-11370
夜总会	-11371
大公国	-11372
惊人的	-11373
据信是	-11374
撮告说	-11375
曾要求	-11376
泰托沃	-11377
然后再	-11378
爱国者	-11379
的举动	-11380
的儿童	-11381
的气氛	-11382
的运动	-11383
目前还	-11384
第一批	-11385
联合党	-11386
记忆体	-11387
非常好	-11388
一个星期	-11389
上月二十	-11390
不幸丧生	-11391
以来首次	-11392
工会领袖	-11393
布里克斯	-11394
投掷石块	-11395
报复行动	-11396
爱滋病的	-11397
现任总统	-11398
第三回合	-11399
美国当局	-11400
足球协会	-11401
这部电影	-11402
飞弹攻击	-11403
▁一般认为	-11404
今天公布的	-11405
对法新社说	-11406
▁消息人士说	-11407
南韩总统金大中	-11408
▁农	-11409
▁文	-11410
一具	-11411
不慎	-11412
也让	-11413
亚利	-11414
人人	-11415
人群	-11416
伊克	-11417
删除	-11418
动脉	-11419
劳务	-11420
单心	-11421
南讳	-11422
反托	-11423
受挫	-11424
口头	-11425
史东	-11426
后面	-11427
商会	-11428
四点	-11429
圃查	-11430
地说	-11431
坐在	-11432
寓所	-11433
帮组	-11434
幼儿	-11435
底达	-11436
座谈	-11437
径济	-11438
德勒	-11439
战舰	-11440
战车	-11441
撞机	-11442
新片	-11443
日后	-11444
时被	-11445
是谁	-11446
暂肘	-11447
有约	-11448
气的	-11449
沿着	-11450
海的	-11451
狄托	-11452
猫熊	-11453
病菌	-11454
盈利	-11455
监会	-11456
禁烟	-11457
离散	-11458
答应	-11459
罡否	-11460
脂肪	-11461
艾伦	-11462
艾塔	-11463
花旗	-11464
蒙上	-11465
西门	-11466
视频	-11467
计时	-11468
记的	-11469
讲话	-11470
评审	-11471
话题	-11472
辛苦	-11473
迁移	-11474
这段	-11475
遐害	-11476
里要	-11477
闻名	-11478
饮用	-11479
饮酒	-11480
黄色	-11481
▁总统	-11482
▁此举	-11483
五十人	-11484
以一分	-11485
以确定	-11486
以解决	-11487
伦敦的	-11488
停车场	-11489
克里特	-11490
医学院	-11491
十二时	-11492
半年的	-11493
协议的	-11494
去年底	-11495
国家队	-11496
在二次	-11497
在泰国	-11498
就开始	-11499
布希说	-11500
开玩笑	-11501
引爆炸	-11502
怎么样	-11503
报指出	-11504
改变了	-11505
显示出	-11506
的人类	-11507
的位置	-11508
的作者	-11509
的这些	-11510
的遗体	-11511
科学院	-11512
类固醇	-11513
联赛的	-11514
自由与	-11515
要求不	-11516
访问中	-11517
证实了	-11518
进口的	-11519
▁柬埔寨	-11520
共同努力	-11521
和西班牙	-11522
喷射客机	-11523
广播电台	-11524
当选总统	-11525
新闻媒体	-11526
淘汰出局	-11527
达佛地区	-11528
这项会谈	-11529
那斯达克	-11530
▁艾希克罗	-11531
两百万美元	-11532
二十二岁的	-11533
消费者信心	-11534
的主要原因	-11535
在一九九八年	-11536
爱尔兰共和军	-11537
石油输出国家	-11538
美国总统大选	-11539
▁左	-11540
▁市	-11541
▁爱	-11542
一三	-11543
万辆	-11544
中学	-11545
亚欧	-11546
人昆	-11547
任金	-11548
仿冒	-11549
佛兰	-11550
全胜	-11551
内地	-11552
减至	-11553
出价	-11554
华早	-11555
呆帐	-11556
员会	-11557
堪称	-11558
夜晚	-11559
失火	-11560
头发	-11561
奖励	-11562
对她	-11563
将再	-11564
巴里	-11565
并被	-11566
感恩	-11567
房舍	-11568
拓展	-11569
据传	-11570
掌权	-11571
掩护	-11572
斯托	-11573
显龙	-11574
更具	-11575
李察	-11576
极具	-11577
模特	-11578
橄榄	-11579
死的	-11580
民答	-11581
港府	-11582
生前	-11583
电恼	-11584
的自	-11585
破灭	-11586
科夫	-11587
积欠	-11588
罡在	-11589
而他	-11590
肉类	-11591
能有	-11592
莒汗	-11593
要务	-11594
认知	-11595
试爆	-11596
越野	-11597
车内	-11598
过剩	-11599
那一	-11600
重复	-11601
非州	-11602
高居	-11603
鲁亚	-11604
鳕束	-11605
黛妃	-11606
▁与会	-11607
▁苹果	-11608
一二年	-11609
上加霜	-11610
不会有	-11611
人士的	-11612
企业家	-11613
会中说	-11614
俄罗昕	-11615
保护区	-11616
几天内	-11617
十五岁	-11618
取消了	-11619
回答说	-11620
在七月	-11621
在上海	-11622
在九月	-11623
在国内	-11624
在本周	-11625
如果他	-11626
对伊朗	-11627
将参加	-11628
已引起	-11629
建设性	-11630
当局说	-11631
当时的	-11632
拉底省	-11633
支出的	-11634
数干名	-11635
杀虫剂	-11636
枚炸弹	-11637
正逐渐	-11638
此之外	-11639
的一条	-11640
的另一	-11641
的地位	-11642
的必要	-11643
的裁决	-11644
第二位	-11645
维杰辛	-11646
而死亡	-11647
被捕的	-11648
讨论了	-11649
逊尼派	-11650
里兰州	-11651
降落在	-11652
▁奥地利	-11653
一千九百	-11654
上个星期	-11655
制裁措施	-11656
十一月份	-11657
十九岁的	-11658
在洛杉矶	-11659
官员们说	-11660
将在明天	-11661
愈来愈多	-11662
控制中心	-11663
撮导指出	-11664
政治领袖	-11665
数十年来	-11666
明年三月	-11667
没有什么	-11668
生物武器	-11669
生物科技	-11670
目前已经	-11671
网路公司	-11672
衣索比亚	-11673
这些问题	-11674
雪上加霜	-11675
▁伊凡诺夫	-11676
▁斯里兰卡	-11677
二十五岁的	-11678
历史教科书	-11679
白宫发言人	-11680
美国与北韩	-11681
武器检查人员	-11682
亚太经济合作会议	-11683
90	-11684
▁主	-11685
▁出	-11686
▁各	-11687
、6	-11688
专案	-11689
东尼	-11690
主谋	-11691
作好	-11692
公会	-11693
六天	-11694
兰多	-11695
养的	-11696
冷淡	-11697
几次	-11698
凤凰	-11699
到期	-11700
吃的	-11701
四位	-11702
奇迹	-11703
对空	-11704
对美	-11705
就已	-11706
延宕	-11707
待表	-11708
拉曼	-11709
持久	-11710
掩埋	-11711
敌意	-11712
斯和	-11713
斯班	-11714
是自	-11715
曾为	-11716
杉山	-11717
极其	-11718
林顿	-11719
民运	-11720
水灾	-11721
煤碳	-11722
看得	-11723
纳税	-11724
耶稣	-11725
肇星	-11726
营造	-11727
觉对	-11728
解雇	-11729
认罪	-11730
身心	-11731
过来	-11732
退赛	-11733
雅特	-11734
露出	-11735
额度	-11736
骚动	-11737
▁伊塔	-11738
▁假如	-11739
▁比赛	-11740
▁汉城	-11741
▁这一	-11742
三千人	-11743
上半场	-11744
两天前	-11745
举办的	-11746
也无法	-11747
也认为	-11748
共造成	-11749
分别为	-11750
双方都	-11751
受害人	-11752
在二月	-11753
在现场	-11754
复制人	-11755
好好的	-11756
如今已	-11757
孩子的	-11758
少子化	-11759
开始的	-11760
时期的	-11761
是日本	-11762
最后以	-11763
森表示	-11764
比较好	-11765
沙尼亚	-11766
爆炸声	-11767
的助理	-11768
研发出	-11769
研究的	-11770
第十三	-11771
维他命	-11772
维加斯	-11773
美军在	-11774
美军的	-11775
自由式	-11776
萨里沙	-11777
银行和	-11778
▁修威特	-11779
▁陈水扁	-11780
上诉法庭	-11781
个国家的	-11782
其他地方	-11783
几个小时	-11784
发出警告	-11785
发生一起	-11786
和美国的	-11787
库斯克号	-11788
开票结果	-11789
感染病例	-11790
持续进行	-11791
提高警觉	-11792
正在考虑	-11793
研究发现	-11794
祖文特斯	-11795
票房收入	-11796
竭尽所能	-11797
自杀攻击	-11798
记者会上	-11799
访问中国	-11800
赢得胜利	-11801
辞职下台	-11802
这种病毒	-11803
这起事件	-11804
高度警戒	-11805
▁委内瑞拉	-11806
丰富多采的	-11807
亚努科维奇	-11808
▁一九九九年	-11809
七比六七比五	-11810
在记者会中说	-11811
炸弹攻击事件	-11812
▁以色列总理夏隆	-11813
自杀炸弹攻击事件	-11814
48	-11815
▁连	-11816
三点	-11817
上阵	-11818
两只	-11819
云南	-11820
他很	-11821
传唤	-11822
伸出	-11823
你要	-11824
写信	-11825
却因	-11826
史特	-11827
名叫	-11828
员说	-11829
哨站	-11830
土壤	-11831
在本	-11832
在美	-11833
处长	-11834
外债	-11835
存有	-11836
实体	-11837
家常	-11838
对待	-11839
将它	-11840
巫师	-11841
布仑	-11842
年后	-11843
应邀	-11844
归功	-11845
手枪	-11846
拉圾	-11847
挥落	-11848
排斥	-11849
推销	-11850
提亚	-11851
无前	-11852
曼哈	-11853
有五	-11854
有害	-11855
每次	-11856
流离	-11857
渠会	-11858
点话	-11859
玫瑰	-11860
的法	-11861
种种	-11862
芭芭	-11863
要犯	-11864
规避	-11865
译者	-11866
足协	-11867
踢和	-11868
轴心	-11869
输送	-11870
重启	-11871
长大	-11872
陈述	-11873
雇主	-11874
魔戒	-11875
▁埃及	-11876
▁挪威	-11877
▁波兰	-11878
一年内	-11879
不容易	-11880
不得了	-11881
与他们	-11882
丝齐娜	-11883
主义者	-11884
了大约	-11885
五月间	-11886
今天又	-11887
今年前	-11888
内部的	-11889
出口额	-11890
制造厂	-11891
前不久	-11892
十二人	-11893
卡蜜拉	-11894
印地安	-11895
原来的	-11896
另一次	-11897
可以让	-11898
在此一	-11899
在汉城	-11900
大赛的	-11901
安德鲁	-11902
就没有	-11903
尼克森	-11904
岁生日	-11905
感染了	-11906
托雷多	-11907
无线电	-11908
空前的	-11909
训练营	-11910
重要性	-11911
金像奖	-11912
金汉宫	-11913
飞机的	-11914
▁卢武铉	-11915
▁朱镕基	-11916
万桶原油	-11917
亚齐运动	-11918
今年九月	-11919
从伊拉克	-11920
六十八杆	-11921
医学杂志	-11922
史瓦辛格	-11923
向法新社	-11924
国会议长	-11925
多国部队	-11926
女发言人	-11927
如果我们	-11928
如果美国	-11929
将于下周	-11930
少数民族	-11931
度假胜地	-11932
恐怖哎击	-11933
我们将会	-11934
我们应该	-11935
无期徒刑	-11936
电子产品	-11937
的比赛中	-11938
约翰尼斯	-11939
罢工行动	-11940
这种情况	-11941
连续第二	-11942
造成重大	-11943
采驭行动	-11944
长期以来	-11945
▁美国宫员	-11946
▁葛林斯潘	-11947
一九八四年	-11948
二十六岁的	-11949
前南斯拉夫	-11950
新华社报导	-11951
蒙蒂西诺斯	-11952
2,	-11953
▁丹	-11954
一是	-11955
一比	-11956
一篇	-11957
不定	-11958
产值	-11959
人潮	-11960
亿万	-11961
仇恨	-11962
令他	-11963
仪器	-11964
体能	-11965
佳的	-11966
债信	-11967
光耀	-11968
全数	-11969
全蕨	-11970
刚好	-11971
功夫	-11972
务之	-11973
动摇	-11974
北爱	-11975
双重	-11976
喜爱	-11977
四成	-11978
回事	-11979
在生	-11980
均已	-11981
奇说	-11982
存量	-11983
学教	-11984
小牛	-11985
己在	-11986
干的	-11987
并已	-11988
德曼	-11989
总体	-11990
惠特	-11991
把他	-11992
拉说	-11993
撮纸	-11994
改编	-11995
旺入	-11996
最严	-11997
机率	-11998
查德	-11999
柯勒	-12000
标示	-12001
水源	-12002
河流	-12003
济兹	-12004
犯法	-12005
电报	-12006
疆界	-12007
盛大	-12008
直要	-12009
着陆	-12010
精确	-12011
纳哥	-12012
缺陷	-12013
臆测	-12014
艺人	-12015
茯得	-12016
获取	-12017
蓝图	-12018
要为	-12019
记念	-12020
赛跑	-12021
超市	-12022
路边	-12023
载人	-12024
输给	-12025
运营	-12026
运行	-12027
逃往	-12028
酒精	-12029
难堪	-12030
难得	-12031
靠着	-12032
顶目	-12033
鲨鱼	-12034
▁担任	-12035
▁独立	-12036
▁缅甸	-12037
▁邮报	-12038
一月份	-12039
业务的	-12040
两千名	-12041
于七月	-12042
五年前	-12043
传统上	-12044
似乎是	-12045
佛塞特	-12046
元月份	-12047
六十万	-12048
决策者	-12049
劫机者	-12050
卷土重	-12051
合法性	-12052
困难的	-12053
在一月	-12054
复活节	-12055
宣布的	-12056
应该是	-12057
引起了	-12058
很重要	-12059
性行为	-12060
我现在	-12061
托利亚	-12062
曼提娃	-12063
检查官	-12064
澳洲人	-12065
特别的	-12066
的职务	-12067
的这个	-12068
能够在	-12069
认为是	-12070
赖夫特	-12071
较去年	-12072
集会的	-12073
零售商	-12074
▁检察官	-12075
▁辛吉丝	-12076
一年一度	-12077
一连串的	-12078
下午二时	-12079
与西班牙	-12080
二十五名	-12081
二十年来	-12082
令人失望	-12083
军事攻击	-12084
刚果民主	-12085
十二个月	-12086
和阿富汗	-12087
最后一刻	-12088
民答那峨	-12089
流离失所	-12090
澳洲选手	-12091
的时间表	-12092
研究所的	-12093
贸易关系	-12094
这次会议	-12095
这顶计划	-12096
▁这项法案	-12097
犹太屯垦区	-12098
的死亡人数	-12099
内阁官房长官	-12100
的经济成长率	-12101
艾斯特拉达的	-12102
▁英国首柜布莱尔	-12103
哥伦比亚广播公司	-12104
▁仅	-12105
一封	-12106
不合	-12107
丫力	-12108
二人	-12109
从新	-12110
以行	-12111
修宪	-12112
修补	-12113
倾销	-12114
元凶	-12115
光荣	-12116
冬天	-12117
募集	-12118
华沙	-12119
发主	-12120
发自	-12121
可信	-12122
呼应	-12123
在向	-12124
在被	-12125
处方	-12126
多夫	-12127
妞约	-12128
宏都	-12129
宵禁	-12130
山东	-12131
岁生	-12132
希姆	-12133
干净	-12134
建构	-12135
得说	-12136
心里	-12137
怒力	-12138
总于	-12139
手续	-12140
打的	-12141
拍下	-12142
施工	-12143
时装	-12144
普利	-12145
残暴	-12146
水产	-12147
汇丰	-12148
派对	-12149
海盗	-12150
渔民	-12151
烈的	-12152
照护	-12153
特续	-12154
甲级	-12155
电梯	-12156
百花	-12157
的圣	-12158
的画	-12159
研商	-12160
空调	-12161
窃取	-12162
等级	-12163
而将	-12164
职篮	-12165
苜局	-12166
苦战	-12167
荣耀	-12168
蓝色	-12169
融合	-12170
该市	-12171
走缓	-12172
踪迹	-12173
这此	-12174
造威	-12175
金边	-12176
问到	-12177
阿姆	-12178
频传	-12179
---	-12180
▁法官	-12181
▁现场	-12182
▁电视	-12183
三月间	-12184
举行了	-12185
亚洲的	-12186
到今天	-12187
勃恩斯	-12188
十个月	-12189
压力下	-12190
吴作栋	-12191
哈塔米	-12192
回忆录	-12193
国家和	-12194
在北韩	-12195
大教堂	-12196
平方米	-12197
广大的	-12198
当务之	-12199
所领导	-12200
教室里	-12201
新一波	-12202
有两个	-12203
模特儿	-12204
民航机	-12205
活动中	-12206
玛拉彤	-12207
的一员	-12208
的前途	-12209
的动作	-12210
相关的	-12211
竹中平	-12212
纽约州	-12213
维纳斯	-12214
自行车	-12215
街道上	-12216
装甲车	-12217
西南方	-12218
要求的	-12219
觉得很	-12220
还需要	-12221
部部长	-12222
里程碑	-12223
错误的	-12224
阿塞德	-12225
预估的	-12226
驻北京	-12227
今天发表	-12228
以四比六	-12229
名列第三	-12230
启明中说	-12231
天文学家	-12232
官方媒体	-12233
战争罪行	-12234
日本银行	-12235
环境保护	-12236
福特汽车	-12237
维多利亚	-12238
资深官员	-12239
金正日的	-12240
▁一名美国	-12241
为期两天的	-12242
常任理事国	-12243
的盖达组织	-12244
回教圣战组织	-12245
百分之零点二	-12246
31	-12247
36	-12248
▁乔	-12249
▁受	-12250
▁帕	-12251
▁看	-12252
。9	-12253
一四	-12254
一的	-12255
七八	-12256
不全	-12257
不暸	-12258
东区	-12259
买主	-12260
五岁	-12261
五度	-12262
仍可	-12263
他人	-12264
以思	-12265
修息	-12266
僵持	-12267
克利	-12268
公职	-12269
其琛	-12270
冷冻	-12271
加利	-12272
十大	-12273
即时	-12274
发放	-12275
叹方	-12276
名星	-12277
和我	-12278
和新	-12279
哈山	-12280
哥国	-12281
士丹	-12282
外卡	-12283
天在	-12284
安抚	-12285
已到	-12286
巴山	-12287
戴维	-12288
拉法	-12289
指明	-12290
接处	-12291
支票	-12292
故宫	-12293
故障	-12294
教头	-12295
时分	-12296
暗中	-12297
曾以	-12298
杀戮	-12299
欧文	-12300
步入	-12301
比拉	-12302
海边	-12303
演变	-12304
澳币	-12305
的分	-12306
经融	-12307
致使	-12308
艾德	-12309
行踪	-12310
角度	-12311
警车	-12312
贩毒	-12313
走下	-12314
赶到	-12315
软件	-12316
达的	-12317
那次	-12318
阿华	-12319
预订	-12320
首批	-12321
鸡只	-12322
黄元	-12323
▁例如	-12324
▁凯利	-12325
▁它们	-12326
▁支持	-12327
▁本周	-12328
下一步	-12329
不足以	-12330
与会者	-12331
世养上	-12332
两年来	-12333
健康的	-12334
再加上	-12335
分钟就	-12336
力冲突	-12337
十五万	-12338
十五人	-12339
发现有	-12340
史无前	-12341
各国的	-12342
国渠团	-12343
圣彼得	-12344
在机场	-12345
在野党	-12346
型电脑	-12347
大奖赛	-12348
完成了	-12349
对台湾	-12350
将会有	-12351
将这些	-12352
将面对	-12353
工厂的	-12354
巴西队	-12355
弹劾案	-12356
总司令	-12357
拥有一	-12358
最喜欢	-12359
有鉴于	-12360
杆之差	-12361
演变成	-12362
爱司球	-12363
现在是	-12364
生活的	-12365
的官员	-12366
的家人	-12367
的胜利	-12368
的道路	-12369
短期内	-12370
社会的	-12371
第十七	-12372
第十四	-12373
米克森	-12374
纽约的	-12375
结束的	-12376
脱维亚	-12377
营业额	-12378
过半数	-12379
这封信	-12380
这次的	-12381
非军事	-12382
项目中	-12383
领导下	-12384
领袖在	-12385
驾驶员	-12386
▁克拉克	-12387
▁巴格达	-12388
▁法新社	-12389
▁阿布沙	-12390
一个月前	-12391
一百万人	-12392
严重影响	-12393
今年七月	-12394
今日美国	-12395
以来首度	-12396
六十九杆	-12397
冬季奥运	-12398
加德满都	-12399
医护人员	-12400
印尼总统	-12401
可能引发	-12402
威廉王子	-12403
强硬立场	-12404
德州州长	-12405
我们无法	-12406
摄影记者	-12407
机组人员	-12408
核子危机	-12409
欧盟国家	-12410
爆炸案的	-12411
社会主义	-12412
认为这是	-12413
这种作法	-12414
预防措施	-12415
▁阿布杜拉	-12416
三千万美元	-12417
二十七岁的	-12418
召开记者会	-12419
感染禽流感	-12420
百分之十七	-12421
诺斯艾利斯	-12422
发展核子武器	-12423
巴勒斯坦当局	-12424
纽约和华盛顿	-12425
阿布贾里布监狱	-12426
▁英国首相布莱尔	-12427
▁徐	-12428
▁施	-12429
▁曰	-12430
七次	-12431
不自	-12432
不该	-12433
业主	-12434
两球	-12435
为二	-12436
亨利	-12437
佩特	-12438
信守	-12439
停飞	-12440
克在	-12441
公升	-12442
冰岛	-12443
出马	-12444
十余	-12445
升到	-12446
印像	-12447
去职	-12448
双万	-12449
取胜	-12450
同志	-12451
哈德	-12452
哈瓦	-12453
唱歌	-12454
园区	-12455
坚辛	-12456
城府	-12457
大刀	-12458
大厅	-12459
定居	-12460
密特	-12461
属实	-12462
差点	-12463
已及	-12464
巴尼	-12465
幸苦	-12466
开兴	-12467
形态	-12468
影导	-12469
微笑	-12470
心力	-12471
念书	-12472
恶名	-12473
感激	-12474
戏院	-12475
战胜	-12476
所称	-12477
手足	-12478
报怨	-12479
拉开	-12480
掌声	-12481
援手	-12482
斋戒	-12483
日军	-12484
昏迷	-12485
是前	-12486
是项	-12487
欧斯	-12488
民警	-12489
氧气	-12490
清白	-12491
澳门	-12492
照过	-12493
的柯	-12494
社交	-12495
积金	-12496
税率	-12497
系由	-12498
紧追	-12499
绝食	-12500
绿影	-12501
缴交	-12502
能与	-12503
能量	-12504
自制	-12505
莱德	-12506
要有	-12507
触犯	-12508
记得	-12509
质量	-12510
走路	-12511
起初	-12512
身命	-12513
连线	-12514
连路	-12515
迪欧	-12516
追到	-12517
适用	-12518
避开	-12519
部曲	-12520
酱局	-12521
错勿	-12522
长江	-12523
长跑	-12524
问提	-12525
降雨	-12526
零三	-12527
雷斯	-12528
预先	-12529
预赛	-12530
频繁	-12531
鸟类	-12532
▁医生	-12533
▁卡赛	-12534
▁又说	-12535
▁唐纳	-12536
▁地方	-12537
▁菲国	-12538
▁这样	-12539
▁阿米	-12540
与会的	-12541
与平壤	-12542
世养杯	-12543
两年内	-12544
丰富的	-12545
了解到	-12546
八百万	-12547
六年的	-12548
副外长	-12549
劳工部	-12550
原则上	-12551
后来居	-12552
在学校	-12553
多数的	-12554
将出现	-12555
戈巴契	-12556
我没有	-12557
或失踪	-12558
政治犯	-12559
新内阁	-12560
明尼加	-12561
有一次	-12562
期间的	-12563
柯尔号	-12564
球员的	-12565
的进口	-12566
第一天	-12567
统治者	-12568
获得了	-12569
这就是	-12570
选出的	-12571
音乐会	-12572
▁墨西哥	-12573
▁尼泊尔	-12574
▁美国的	-12575
世界经济	-12576
二千五百	-12577
四月一日	-12578
国际油价	-12579
国际足总	-12580
展开会谈	-12581
并未说明	-12582
当务之急	-12583
撮告中说	-12584
数以干计	-12585
昨天宣布	-12586
核武计划	-12587
爱滋病患	-12588
特拉伊克	-12589
疾病管制	-12590
美国民众	-12591
苏丹政府	-12592
这项禁令	-12593
▁太空总署	-12594
世界杯足球	-12595
世贸组织的	-12596
今天报导说	-12597
以色列军方	-12598
以色列政府	-12599
伊拉克问题	-12600
总理戴克辛	-12601
斯洛温尼亚	-12602
的行动电话	-12603
美国领导的	-12604
08	-12605
▁天	-12606
一组	-12607
东岸	-12608
久后	-12609
之从	-12610
也正	-12611
些微	-12612
他于	-12613
余额	-12614
入场	-12615
公交	-12616
击倒	-12617
力求	-12618
加罗	-12619
包办	-12620
即已	-12621
双亲	-12622
各造	-12623
商家	-12624
善意	-12625
在和	-12626
均未	-12627
夺回	-12628
奇怪	-12629
奠立	-12630
娱快	-12631
孩堇	-12632
宿敌	-12633
将比	-12634
巡视	-12635
市政	-12636
建义	-12637
开除	-12638
弱的	-12639
必顺	-12640
悠关	-12641
或在	-12642
或着	-12643
打学	-12644
打完	-12645
扫射	-12646
找钱	-12647
把它	-12648
放下	-12649
放便	-12650
旅居	-12651
时尚	-12652
晏谷	-12653
景像	-12654
更改	-12655
某个	-12656
格拉	-12657
楚理	-12658
次日	-12659
此后	-12660
此起	-12661
毒气	-12662
毛病	-12663
气势	-12664
汁划	-12665
泡沫	-12666
波多	-12667
派克	-12668
浈袖	-12669
演奏	-12670
牧场	-12671
特遣	-12672
班次	-12673
看的	-12674
粉碎	-12675
粮农	-12676
网页	-12677
而其	-12678
胎儿	-12679
舞蹈	-12680
菖欢	-12681
萨维	-12682
蔬菜	-12683
视讯	-12684
调解	-12685
赎金	-12686
走了	-12687
转会	-12688
较小	-12689
这辆	-12690
违背	-12691
逃出	-12692
里拜	-12693
重镇	-12694
青睐	-12695
领张	-12696
高温	-12697
鼓掌	-12698
▁--	-12699
▁主管	-12700
▁企业	-12701
▁众院	-12702
七十杆	-12703
丑闻案	-12704
为目标	-12705
五干人	-12706
仍继续	-12707
体育场	-12708
冠军赛	-12709
出身的	-12710
加拉瓜	-12711
十八个	-12712
及一名	-12713
名列前	-12714
在这场	-12715
大会的	-12716
平均每	-12717
并造成	-12718
归功于	-12719
性侵害	-12720
所面临	-12721
技术的	-12722
是否要	-12723
有什么	-12724
生涯中	-12725
的不满	-12726
的作业	-12727
的前景	-12728
的基因	-12729
第四次	-12730
结束前	-12731
能源部	-12732
表现出	-12733
遭杀害	-12734
钱其琛	-12735
▁内政部	-12736
▁爱尔兰	-12737
一百九十	-12738
下午三时	-12739
世界各国	-12740
人道援助	-12741
六十七杆	-12742
双方关系	-12743
国营媒体	-12744
国际安全	-12745
大威廉丝	-12746
失业人口	-12747
宏都拉斯	-12748
宣誓就任	-12749
年民主党	-12750
引起争议	-12751
成为一个	-12752
我们预期	-12753
新一回合	-12754
新闻周刊	-12755
美军基地	-12756
访问期间	-12757
足球联盟	-12758
进行这项	-12759
预定今天	-12760
▁日本银行	-12761
三十一岁的	-12762
作以上表示	-12763
卡菲尼可夫	-12764
对抗爱滋病	-12765
恐怖主义的	-12766
报告中指出	-12767
菲律宾总统	-12768
首都巴格达	-12769
▁日本外务省	-12770
▁联邦调查局	-12771
欧盟轮值主席	-12772
首脑欧萨玛宾拉登	-12773
75	-12774
▁塔	-12775
▁宋	-12776
▁非	-12777
一心	-12778
三轮	-12779
不实	-12780
不解	-12781
世银	-12782
两轮	-12783
也使	-12784
买进	-12785
人犯	-12786
人身	-12787
仍需	-12788
伯特	-12789
停摆	-12790
先决	-12791
公立	-12792
共谋	-12793
其待	-12794
卡德	-12795
厂房	-12796
参欢	-12797
变革	-12798
咖拿	-12799
咨文	-12800
哪个	-12801
囚此	-12802
圆形	-12803
在在	-12804
培育	-12805
复责	-12806
外商	-12807
大体	-12808
夫婿	-12809
夺下	-12810
奴生	-12811
她对	-12812
学术	-12813
学身	-12814
宽松	-12815
宿舍	-12816
导论	-12817
封琐	-12818
少将	-12819
席的	-12820
年时	-12821
强森	-12822
扭曲	-12823
扰乱	-12824
抵触	-12825
损坏	-12826
摘金	-12827
收场	-12828
放气	-12829
旁便	-12830
是指	-12831
查禁	-12832
民宅	-12833
海中	-12834
淡判	-12835
焚毁	-12836
王的	-12837
环节	-12838
现状	-12839
男婴	-12840
白天	-12841
的他	-12842
的南	-12843
直言	-12844
票价	-12845
穿戴	-12846
精子	-12847
终将	-12848
经销	-12849
缺失	-12850
美中	-12851
肃贪	-12852
能为	-12853
舒玛	-12854
苏拉	-12855
荻得	-12856
菖到	-12857
蓝控	-12858
触及	-12859
警万	-12860
该报	-12861
说他	-12862
调派	-12863
赵紫	-12864
逞团	-12865
造船	-12866
防碍	-12867
阵莒	-12868
除罚	-12869
震荡	-12870
骨折	-12871
▁卡斯	-12872
▁只有	-12873
▁法庭	-12874
一兀九	-12875
与政治	-12876
两年的	-12877
中美洲	-12878
之后的	-12879
也同意	-12880
今天茌	-12881
伊凡尼	-12882
传染给	-12883
农作物	-12884
净亏损	-12885
出不穷	-12886
前一天	-12887
原子弹	-12888
参谋长	-12889
口可乐	-12890
吸引力	-12891
孩子们	-12892
对未来	-12893
就此事	-12894
已抵达	-12895
已连续	-12896
布希统	-12897
张德培	-12898
我不会	-12899
我不能	-12900
数千人	-12901
演说时	-12902
的主张	-12903
的信函	-12904
的基础	-12905
的大型	-12906
的女儿	-12907
的演说	-12908
的父母	-12909
的病毒	-12910
的高级	-12911
知名的	-12912
破坏了	-12913
诊断出	-12914
违反了	-12915
一九七年	-12916
世养大战	-12917
五十岁的	-12918
从来没有	-12919
共和党籍	-12920
其中一名	-12921
其中之一	-12922
印尼政府	-12923
塞内加尔	-12924
外交人员	-12925
小儿麻痹	-12926
很快就会	-12927
搜狐科技	-12928
政府表示	-12929
的阿拉伯	-12930
统计显示	-12931
莫他国家	-12932
行政长宫	-12933
解决问题	-12934
还不清楚	-12935
领先地位	-12936
驱逐出境	-12937
▁布希表示	-12938
七大工业国	-12939
八大工业国	-12940
公开赛冠军	-12941
恐怖攻击的	-12942
恐怖组织的	-12943
感染爱滋病	-12944
数百万美元	-12945
的发言人说	-12946
禁止核子扩散	-12947
德国总理施若德	-12948
民意调查结果显示	-12949
▁瑞	-12950
▁裴	-12951
▁韦	-12952
一无	-12953
万豪	-12954
不清	-12955
不等	-12956
主力	-12957
书店	-12958
了对	-12959
事间	-12960
五周	-12961
亚美	-12962
交还	-12963
交道	-12964
亭件	-12965
以示	-12966
份的	-12967
众所	-12968
作曲	-12969
使它	-12970
偷渡	-12971
入果	-12972
六分	-12973
兼任	-12974
冠状	-12975
决得	-12976
准确	-12977
出事	-12978
出资	-12979
动做	-12980
勇夺	-12981
华南	-12982
卖给	-12983
去逝	-12984
友宜	-12985
呕意	-12986
喂了	-12987
四兆	-12988
塞拉	-12989
夺魁	-12990
安然	-12991
尚有	-12992
尾声	-12993
山谷	-12994
带回	-12995
常务	-12996
当今	-12997
很久	-12998
必竟	-12999
急遽	-13000
愈测	-13001
我方	-13002
户外	-13003
所长	-13004
拉齐	-13005
拙折	-13006
持平	-13007
按排	-13008
推展	-13009
提共	-13010
摄取	-13011
摔退	-13012
收获	-13013
无需	-13014
日方	-13015
晋遍	-13016
最少	-13017
有何	-13018
格丽	-13019
横扫	-13020
泄露	-13021
波坏	-13022
流产	-13023
焦虑	-13024
特微	-13025
狂欢	-13026
狱中	-13027
猪只	-13028
猪肉	-13029
生下	-13030
电缆	-13031
矢败	-13032
离境	-13033
老公	-13034
而对	-13035
莫洛	-13036
虚拟	-13037
誓卫	-13038
记续	-13039
访客	-13040
赶往	-13041
路的	-13042
轻易	-13043
迈近	-13044
还能	-13045
迦纳	-13046
速食	-13047
郑梦	-13048
部要	-13049
阿巴	-13050
雄心	-13051
风速	-13052
380	-13053
▁中央	-13054
▁主要	-13055
▁参加	-13056
▁拥有	-13057
▁此时	-13058
▁逞国	-13059
与我们	-13060
东北方	-13061
丧生的	-13062
中间偏	-13063
主办的	-13064
主演的	-13065
也受到	-13066
亿九千	-13067
亿六千	-13068
以防范	-13069
传染性	-13070
六十名	-13071
六日在	-13072
出一个	-13073
卫冕的	-13074
取得的	-13075
史上最	-13076
和两名	-13077
在这些	-13078
塞斯基	-13079
夫表示	-13080
对此一	-13081
就必须	-13082
岁男子	-13083
已接受	-13084
并希望	-13085
扬言要	-13086
承诺将	-13087
挑战者	-13088
撒哈拉	-13089
没什么	-13090
温和派	-13091
熹娃蒂	-13092
的一环	-13093
的年度	-13094
的未来	-13095
的许多	-13096
罗宾逊	-13097
而无法	-13098
至九月	-13099
被告知	-13100
詹姆斯	-13101
誓言要	-13102
警方已	-13103
赛末点	-13104
这是我	-13105
▁该组织	-13106
三十分钟	-13107
二十世纪	-13108
全国人民	-13109
公共电台	-13110
六十六杆	-13111
包括两名	-13112
包括美国	-13113
可能无法	-13114
可能需要	-13115
后来居上	-13116
回教叛军	-13117
当局表示	-13118
抗议群众	-13119
提克里特	-13120
日益升高	-13121
民主政治	-13122
澳洲政府	-13123
的以色列	-13124
竞选连任	-13125
罹难者的	-13126
美国联邦	-13127
这件事情	-13128
▁南斯拉夫	-13129
一九八七年	-13130
与阿拉法特	-13131
奥斯卡最佳	-13132
死亡人数已	-13133
理事会主席	-13134
百分之十八	-13135
罗马天主教	-13136
重量级拳王	-13137
十二月二十六日	-13138
司法部长艾希克罗	-13139
▁国务院发言人包润石说	-13140
4,	-13141
▁刚	-13142
▁虽	-13143
七位	-13144
中锋	-13145
为她	-13146
九洞	-13147
仓库	-13148
以待	-13149
伊塔	-13150
会徽	-13151
会是	-13152
停战	-13153
全程	-13154
全身	-13155
再起	-13156
利息	-13157
刻服	-13158
前在	-13159
努孩	-13160
参架	-13161
友动	-13162
发斩	-13163
只鸡	-13164
向未	-13165
四项	-13166
固障	-13167
在加	-13168
在北	-13169
均为	-13170
坚守	-13171
埤酒	-13172
基楚	-13173
塶色	-13174
套房	-13175
妻骗	-13176
始用	-13177
姐姐	-13178
安葬	-13179
官理	-13180
宝贵	-13181
宣市	-13182
家乐	-13183
少校	-13184
尽早	-13185
展延	-13186
岁时	-13187
席丹	-13188
平面	-13189
年在	-13190
建康	-13191
影集	-13192
往后	-13193
忍何	-13194
忙着	-13195
性和	-13196
想关	-13197
所已	-13198
抗拒	-13199
拉提	-13200
指为	-13201
探锁	-13202
控管	-13203
推建	-13204
效益	-13205
斗士	-13206
新网	-13207
昨夜	-13208
暴涨	-13209
标签	-13210
格里	-13211
歌星	-13212
永敢	-13213
牙齿	-13214
牺生	-13215
狄恩	-13216
球会	-13217
瑞尔	-13218
生体	-13219
神盾	-13220
福祉	-13221
稍微	-13222
突变	-13223
竭力	-13224
约在	-13225
纳加	-13226
肠癌	-13227
草地	-13228
获选	-13229
莿激	-13230
菖林	-13231
蝗虫	-13232
行贿	-13233
解示	-13234
请愿	-13235
豪窄	-13236
负予	-13237
财物	-13238
购通	-13239
贸扇	-13240
资原	-13241
跟快	-13242
载着	-13243
邻住	-13244
部位	-13245
重开	-13246
错败	-13247
阵菖	-13248
韦件	-13249
魔术	-13250
麦隆	-13251
▁九月	-13252
▁当然	-13253
▁成为	-13254
▁新京	-13255
二十人	-13256
仍维持	-13257
以换取	-13258
使他们	-13259
克斯说	-13260
八月间	-13261
击败了	-13262
可望于	-13263
哈里里	-13264
小孩子	-13265
巴布亚	-13266
并发症	-13267
所得税	-13268
打破了	-13269
找不到	-13270
日本和	-13271
是英国	-13272
是针对	-13273
最重要	-13274
有三名	-13275
有大约	-13276
有没有	-13277
杉山爱	-13278
根据地	-13279
检察长	-13280
正面的	-13281
此案的	-13282
步兵师	-13283
汤普森	-13284
法国和	-13285
的儿子	-13286
的案子	-13287
的过程	-13288
精神病	-13289
罕见的	-13290
舒玛赫	-13291
解释说	-13292
部长们	-13293
都无法	-13294
领先群	-13295
▁这将是	-13296
万五千人	-13297
下午一时	-13298
两个星期	-13299
两千五百	-13300
人士指出	-13301
全世界的	-13302
化学物质	-13303
发表这项	-13304
可能高达	-13305
周年纪念	-13306
回教团体	-13307
因为美国	-13308
在十二月	-13309
在西班牙	-13310
坎城影展	-13311
当选连任	-13312
提供协助	-13313
提出辞呈	-13314
最后一天	-13315
最后通牒	-13316
正式访问	-13317
民主反对	-13318
玻利维亚	-13319
理事会的	-13320
的义大利	-13321
的话撮导	-13322
索马利亚	-13323
约翰蓝侬	-13324
蜜丝齐娜	-13325
表示遗憾	-13326
调查工作	-13327
返回地球	-13328
这个数字	-13329
这次会谈	-13330
▁世界银行	-13331
人民共和国	-13332
今年上半年	-13333
伊拉克北部	-13334
已开发国家	-13335
的美国选手	-13336
消息人士指出	-13337
伊拉克总统沙丹胡笙	-13338
参谋首长联席会议主席	-13339
,,	-13340
▁卫	-13341
▁奎	-13342
▁潘	-13343
▁石	-13344
▁遭	-13345
一但	-13346
一共	-13347
一股	-13348
不段	-13349
两地	-13350
严词	-13351
主人	-13352
主流	-13353
也应	-13354
事合	-13355
亚丁	-13356
他从	-13357
伯格	-13358
伴演	-13359
修好	-13360
列出	-13361
勃勃	-13362
医料	-13363
却定	-13364
吃道	-13365
各类	-13366
合伙	-13367
后被	-13368
否择	-13369
唱加	-13370
回桉	-13371
圣火	-13372
培尔	-13373
声名	-13374
外加	-13375
多多	-13376
大明	-13377
夺标	-13378
她也	-13379
孟买	-13380
学到	-13381
安华	-13382
宙团	-13383
宾士	-13384
尽量	-13385
差别	-13386
并宋	-13387
并耒	-13388
幸服	-13389
应由	-13390
庞德	-13391
影艺	-13392
微幅	-13393
必定	-13394
志远	-13395
悲痛	-13396
惟有	-13397
愉快	-13398
抛售	-13399
报案	-13400
据悉	-13401
数学	-13402
数额	-13403
方象	-13404
时后	-13405
木星	-13406
枪枝	-13407
模拟	-13408
欠缺	-13409
死了	-13410
残伥	-13411
沙巴	-13412
涨价	-13413
渠道	-13414
灵柩	-13415
烈士	-13416
热浪	-13417
爆冷	-13418
瓦洛	-13419
甲组	-13420
相应	-13421
福建	-13422
称许	-13423
给与	-13424
绿党	-13425
罪魁	-13426
自信	-13427
至序	-13428
舒解	-13429
艾克	-13430
藏在	-13431
行进	-13432
西区	-13433
证买	-13434
该案	-13435
贡现	-13436
辛慰	-13437
这款	-13438
进力	-13439
逞罚	-13440
陪养	-13441
障拟	-13442
雅克	-13443
雇员	-13444
颇具	-13445
首季	-13446
首战	-13447
驻韩	-13448
▁三名	-13449
▁已经	-13450
▁比如	-13451
▁鉴于	-13452
七美元	-13453
万八千	-13454
万日圆	-13455
三百一	-13456
不过在	-13457
中扮演	-13458
为全球	-13459
也不能	-13460
二十多	-13461
以来即	-13462
会导致	-13463
债权人	-13464
史蒂芬	-13465
因涉及	-13466
在第二	-13467
地点在	-13468
基督徒	-13469
对此事	-13470
将宣布	-13471
库契马	-13472
底之前	-13473
志明市	-13474
愤怒的	-13475
数以万	-13476
是由于	-13477
的交易	-13478
的人质	-13479
的土地	-13480
的家庭	-13481
的故事	-13482
的规模	-13483
的资金	-13484
的飞弹	-13485
皇太子	-13486
票通过	-13487
第三代	-13488
第三天	-13489
费南德	-13490
赔偿金	-13491
适用于	-13492
▁科威特	-13493
▁鲍尔在	-13494
世卫组织	-13495
个会员国	-13496
传奇人物	-13497
候选人的	-13498
六十岁的	-13499
准决赛中	-13500
几个星期	-13501
办公大楼	-13502
博士尼亚	-13503
史无前例	-13504
太空飞行	-13505
好战团体	-13506
安全警戒	-13507
影响力的	-13508
成员国的	-13509
所引发的	-13510
抗议民众	-13511
政治危机	-13512
民主党籍	-13513
渡假胜地	-13514
目的是要	-13515
空气污染	-13516
第七种子	-13517
计票结果	-13518
那不鲁斯	-13519
▁塞尔维亚	-13520
二零零一年	-13521
五十万美元	-13522
今天在一项	-13523
八千万美元	-13524
卡罗来纳州	-13525
巴勤斯坦人	-13526
总理瓦巴依	-13527
拉斯维加斯	-13528
智慧财产权	-13529
的攻击行动	-13530
▁到目前为止	-13531
▁新华社报导	-13532
回教好战份子	-13533
对伊拉克动武	-13534
欧洲中央银行	-13535
民意调查显示	-13536
百分之一点五	-13537
第二大经济体	-13538
副国务卿阿米塔吉	-13539
49	-13540
6,	-13541
▁十	-13542
▁吕	-13543
▁曼	-13544
▁江	-13545
▁蓝	-13546
一庄	-13547
一整	-13548
三四	-13549
上将	-13550
不符	-13551
专机	-13552
严苛	-13553
之谱	-13554
争霸	-13555
二二	-13556
五时	-13557
交保	-13558
人家	-13559
会合	-13560
传答	-13561
估算	-13562
余元	-13563
做品	-13564
共计	-13565
冲满	-13566
凯特	-13567
分为	-13568
刺量	-13569
前熹	-13570
南北	-13571
却实	-13572
发浸	-13573
可供	-13574
号称	-13575
司通	-13576
名义	-13577
命名	-13578
国大	-13579
圣母	-13580
坦白	-13581
塔尼	-13582
塞拜	-13583
天灾	-13584
如粟	-13585
妇努	-13586
安静	-13587
实地	-13588
尚待	-13589
干涉	-13590
开使	-13591
引来	-13592
弱点	-13593
影迷	-13594
得了	-13595
心中	-13596
息惯	-13597
托延	-13598
报子	-13599
探员	-13600
操控	-13601
政界	-13602
新车	-13603
新鲜	-13604
施以	-13605
既使	-13606
普瑞	-13607
未何	-13608
果岭	-13609
欣赏	-13610
比交	-13611
河南	-13612
波澜	-13613
熹气	-13614
现己	-13615
生上	-13616
的同	-13617
益见	-13618
盐湖	-13619
竟量	-13620
米说	-13621
经俭	-13622
缩水	-13623
职工	-13624
背部	-13625
自焚	-13626
至九	-13627
苦难	-13628
蜜密	-13629
衷悼	-13630
要他	-13631
语演	-13632
跑尔	-13633
距子	-13634
达致	-13635
这镗	-13636
进出	-13637
迪确	-13638
遨请	-13639
野火	-13640
鉴定	-13641
阶断	-13642
阿必	-13643
随机	-13644
难关	-13645
零四	-13646
首唱	-13647
马来	-13648
高举	-13649
麽有	-13650
300	-13651
▁丹麦	-13652
▁之后	-13653
▁布雷	-13654
▁平壤	-13655
▁无论	-13656
七百名	-13657
万六千	-13658
下午二	-13659
世足赛	-13660
为他们	-13661
为自己	-13662
了一场	-13663
五日在	-13664
什么事	-13665
今天起	-13666
他告诉	-13667
佛克斯	-13668
刊登在	-13669
国内外	-13670
女网赛	-13671
好朋友	-13672
对美元	-13673
将遭遇	-13674
巴基斯	-13675
并宣布	-13676
幸存者	-13677
张选票	-13678
当局在	-13679
形式的	-13680
总理的	-13681
扬言将	-13682
拉鲁亚	-13683
支援下	-13684
此同肘	-13685
率领的	-13686
电影院	-13687
的主因	-13688
的反对	-13689
的团体	-13690
的朋友	-13691
的特别	-13692
的限制	-13693
目前有	-13694
移交给	-13695
解除对	-13696
认真的	-13697
运作的	-13698
进口额	-13699
阿拉斯	-13700
▁葡萄牙	-13701
二十一名	-13702
五十万桶	-13703
今年以来	-13704
他的政府	-13705
信息中心	-13706
利物浦队	-13707
十二日在	-13708
卷土重来	-13709
发表一项	-13710
和联合国	-13711
声明表示	-13712
小泉首相	-13713
希望能够	-13714
感到满意	-13715
数字显示	-13716
日报引述	-13717
核武计画	-13718
海岸防卫	-13719
由于美国	-13720
的情形下	-13721
种族歧视	-13722
结束以来	-13723
表决结果	-13724
起火燃烧	-13725
过去一年	-13726
这是一项	-13727
进行讨论	-13728
逮捕行动	-13729
重建工作	-13730
马萨里沙	-13731
▁分析师说	-13732
▁南韩政府	-13733
▁梅嘉娃蒂	-13734
一九八一年	-13735
二十八岁的	-13736
毁灭性武器	-13737
的国家安全	-13738
这个地区的	-13739
于一九九八年	-13740
全球经济成长	-13741
加入世贸组织	-13742
执政协商会议	-13743
百分之三十五	-13744
记者会上表示	-13745
驻联合国大使	-13746
▁-	-13747
▁印	-13748
▁又	-13749
▁后	-13750
▁崔	-13751
▁把	-13752
▁班	-13753
▁百	-13754
▁范	-13755
一季	-13756
一本	-13757
一生	-13758
上尉	-13759
不经	-13760
与否	-13761
举报	-13762
之举	-13763
也就	-13764
亘大	-13765
今曰	-13766
付款	-13767
代袁	-13768
依靠	-13769
修女	-13770
假设	-13771
党籍	-13772
农地	-13773
准则	-13774
分站	-13775
剧本	-13776
加重	-13777
单纯	-13778
双手	-13779
各州	-13780
吉说	-13781
君子	-13782
听众	-13783
品的	-13784
商机	-13785
国中	-13786
国情	-13787
土制	-13788
坐路	-13789
坦帕	-13790
士兰	-13791
复发	-13792
如合	-13793
孤儿	-13794
安乐	-13795
定于	-13796
宪章	-13797
宫内	-13798
富翁	-13799
将此	-13800
小平	-13801
尼在	-13802
居于	-13803
巴林	-13804
市立	-13805
庄园	-13806
延伸	-13807
开进	-13808
悬赏	-13809
感清	-13810
手上	-13811
才有	-13812
抉择	-13813
拜访	-13814
挂牌	-13815
捕鱼	-13816
摇摇	-13817
撑握	-13818
文说	-13819
断定	-13820
旱盘	-13821
春天	-13822
曾遭	-13823
朋唷	-13824
残酷	-13825
水位	-13826
沃芬	-13827
河北	-13828
波普	-13829
海绵	-13830
涉入	-13831
深度	-13832
游实	-13833
激极	-13834
爱情	-13835
牲口	-13836
珊瑚	-13837
瓦兹	-13838
矛顿	-13839
研判	-13840
破获	-13841
糟遇	-13842
线路	-13843
维兹	-13844
缓冲	-13845
网蹈	-13846
肺部	-13847
肾脏	-13848
胜力	-13849
自接	-13850
般的	-13851
芳迪	-13852
莫实	-13853
菲南	-13854
要做	-13855
解体	-13856
谢尔	-13857
赦免	-13858
轫站	-13859
近快	-13860
还末	-13861
送进	-13862
逍失	-13863
重心	-13864
银河	-13865
领取	-13866
验证	-13867
高呼	-13868
龃龉	-13869
▁万科	-13870
▁以及	-13871
▁最新	-13872
▁没有	-13873
▁金融	-13874
中东的	-13875
中部的	-13876
争取到	-13877
他呼吁	-13878
似乎已	-13879
使美国	-13880
八十万	-13881
创纪录	-13882
前表示	-13883
十七岁	-13884
单位的	-13885
卡西亚	-13886
叶尔勤	-13887
向中国	-13888
和越南	-13889
四十万	-13890
在最近	-13891
太阳报	-13892
安德森	-13893
密苏里	-13894
山区的	-13895
干上万	-13896
必要时	-13897
所有人	-13898
摄影师	-13899
斋戒月	-13900
日本在	-13901
曾经在	-13902
本球季	-13903
每天都	-13904
法庭的	-13905
现在的	-13906
瑞里说	-13907
瓦纳兹	-13908
留下的	-13909
的商业	-13910
的批评	-13911
的联合	-13912
的能源	-13913
的行程	-13914
的表示	-13915
突击队	-13916
第一场	-13917
约三百	-13918
老年人	-13919
考虑到	-13920
葛洛尚	-13921
赵紫阳	-13922
这是个	-13923
革命军	-13924
▁事实上	-13925
▁反对党	-13926
▁安理会	-13927
上午十时	-13928
义大利的	-13929
元月二十	-13930
公开市场	-13931
兽斯柯尼	-13932
内阁阁员	-13933
国际贸易	-13934
大赛冠军	-13935
我们非常	-13936
所发表的	-13937
拒绝说明	-13938
法塔组织	-13939
法律行动	-13940
炸弹爆炸	-13941
狄曼提娃	-13942
的影响力	-13943
索伦丝坦	-13944
该地区的	-13945
足球联赛	-13946
邪恶轴心	-13947
顾问公司	-13948
▁佛莱谢说	-13949
五十亿美元	-13950
今年第一季	-13951
八十亿美元	-13952
四十五岁的	-13953
总统大选中	-13954
政府发言人	-13955
欧洲冠军杯	-13956
百分之十六	-13957
的最后期限	-13958
索罗门群岛	-13959
联邦参议员	-13960
要求匿名的	-13961
七比六七比四	-13962
百分之零点五	-13963
百分之零点八	-13964
▁南韩总统金大中	-13965
▁好	-13966
一头	-13967
三成	-13968
下旬	-13969
不伦	-13970
不平	-13971
不惜	-13972
伊说	-13973
传球	-13974
体操	-13975
像要	-13976
儅中	-13977
元旦	-13978
免除	-13979
关念	-13980
关门	-13981
分散	-13982
分行	-13983
及早	-13984
反制	-13985
发林	-13986
后冠	-13987
命中	-13988
响应	-13989
哥大	-13990
地带	-13991
坐位	-13992
城的	-13993
基嫚	-13994
处罚	-13995
大事	-13996
夺取	-13997
字眼	-13998
宝颜	-13999
宣战	-14000
家电	-14001
小岛	-14002
尔特	-14003
巴赫	-14004
帮派	-14005
强人	-14006
当事	-14007
征取	-14008
征收	-14009
想信	-14010
意在	-14011
才刚	-14012
担保	-14013
拖延	-14014
挤进	-14015
散发	-14016
斩获	-14017
新娘	-14018
新疆	-14019
昆主	-14020
条文	-14021
格雷	-14022
桐当	-14023
次官	-14024
波里	-14025
浏览	-14026
消化	-14027
涪克	-14028
淮备	-14029
游览	-14030
激动	-14031
热那	-14032
狙击	-14033
玫势	-14034
的无	-14035
监察	-14036
瞻仰	-14037
石头	-14038
稳固	-14039
空运	-14040
筛检	-14041
类型	-14042
累累	-14043
经神	-14044
维利	-14045
缺少	-14046
航行	-14047
葛瑞	-14048
藏身	-14049
西比	-14050
该州	-14051
败选	-14052
质得	-14053
跌到	-14054
身旁	-14055
载明	-14056
较多	-14057
辣斯	-14058
达阵	-14059
连署	-14060
迷你	-14061
退役	-14062
选檡	-14063
逞元	-14064
遇刺	-14065
遭级	-14066
金刚	-14067
高地	-14068
魏斯	-14069
黄军	-14070
▁东协	-14071
▁只要	-14072
▁并且	-14073
▁最终	-14074
▁网路	-14075
▁预计	-14076
不动产	-14077
以阻止	-14078
克鲁斯	-14079
六月间	-14080
减少到	-14081
划时代	-14082
十万名	-14083
和伊朗	-14084
和安全	-14085
在四月	-14086
在平壤	-14087
在没有	-14088
在雪梨	-14089
大海啸	-14090
对欧洲	-14091
将开始	-14092
将要求	-14093
将访问	-14094
巴双方	-14095
微生物	-14096
意外的	-14097
提高到	-14098
明尼苏	-14099
是一大	-14100
是如何	-14101
是造成	-14102
晏联队	-14103
暨发展	-14104
曾担任	-14105
有一百	-14106
有关系	-14107
正寻求	-14108
比赛时	-14109
法国队	-14110
炼油厂	-14111
现阶段	-14112
瑞典的	-14113
的一架	-14114
的呼吁	-14115
的对象	-14116
的标准	-14117
的死亡	-14118
的竞选	-14119
约一万	-14120
罗伯森	-14121
而导致	-14122
至今仍	-14123
舒马赫	-14124
被判刑	-14125
西费特	-14126
诺基亚	-14127
部表示	-14128
采取更	-14129
问题而	-14130
预定于	-14131
▁乔治亚	-14132
▁我认为	-14133
▁戴克辛	-14134
一九五年	-14135
三星电子	-14136
上午九时	-14137
不断增加	-14138
中东危机	-14139
人权团体	-14140
今天结束	-14141
以巴冲突	-14142
作出回应	-14143
先决条件	-14144
参加比赛	-14145
可能出现	-14146
可能已经	-14147
合格选民	-14148
合资企业	-14149
圣彼得堡	-14150
在二一年	-14151
在日内瓦	-14152
在美国的	-14153
垃圾邮件	-14154
太空任务	-14155
如果他们	-14156
工作小组	-14157
成为美国	-14158
所以我们	-14159
拉脱维亚	-14160
检验结果	-14161
民主运动	-14162
法国政府	-14163
海峡时报	-14164
经济活动	-14165
美元奖金	-14166
这项措施	-14167
那个时候	-14168
锦标赛的	-14169
附近地区	-14170
以来的最低	-14171
俄罗斯选手	-14172
六十亿美元	-14173
总理温家宝	-14174
总统卢武铉	-14175
第二号人物	-14176
▁一九九八年	-14177
百分之三十三	-14178
百分之零点三	-14179
百分之零点四	-14180
自由亚齐运动	-14181
国家主席胡锦涛	-14182
事务高级专员公署	-14183
▁湖	-14184
一亩	-14185
不的	-14186
两方	-14187
中级	-14188
主使	-14189
义犬	-14190
交代	-14191
人气	-14192
以此	-14193
以求	-14194
住处	-14195
冲秃	-14196
分居	-14197
分布	-14198
则因	-14199
动态	-14200
单身	-14201
受益	-14202
变种	-14203
吗吗	-14204
和前	-14205
品种	-14206
哈佛	-14207
哈根	-14208
回顾	-14209
困景	-14210
国库	-14211
在东	-14212
在外	-14213
坐宰	-14214
坦雅	-14215
培训	-14216
威而	-14217
宁可	-14218
定议	-14219
害户	-14220
小镇	-14221
就不	-14222
巡弋	-14223
已后	-14224
性侵	-14225
慢漫	-14226
成仁	-14227
提克	-14228
收在	-14229
族民	-14230
无所	-14231
暴民	-14232
最求	-14233
杆菌	-14234
比前	-14235
永有	-14236
浮动	-14237
点名	-14238
版权	-14239
班迪	-14240
瑞说	-14241
生边	-14242
疏失	-14243
的全	-14244
的沙	-14245
相似	-14246
确立	-14247
程受	-14248
站上	-14249
背负	-14250
自家	-14251
致癌	-14252
船长	-14253
节日	-14254
苏少	-14255
荨求	-14256
萨拉	-14257
行凶	-14258
衬衫	-14259
装有	-14260
要救	-14261
观查	-14262
解读	-14263
试途	-14264
赫尔	-14265
跟本	-14266
过重	-14267
近曰	-14268
返乡	-14269
远远	-14270
道贺	-14271
除去	-14272
静脉	-14273
餐馆	-14274
马达	-14275
鲁岛	-14276
...	-14277
▁在这	-14278
▁女子	-14279
▁电脑	-14280
上市的	-14281
不满意	-14282
丝特丝	-14283
个小时	-14284
于美国	-14285
五千名	-14286
亿四千	-14287
仍持续	-14288
仍然是	-14289
他是在	-14290
任金兹	-14291
先前的	-14292
公司与	-14293
冥名的	-14294
分钟时	-14295
北方的	-14296
咖拿大	-14297
在三月	-14298
安哥拉	-14299
对亚洲	-14300
将增加	-14301
已发现	-14302
巴山约	-14303
巴拉圭	-14304
布莱德	-14305
引发了	-14306
当前的	-14307
总统巴	-14308
感兴趣	-14309
所以他	-14310
接班人	-14311
教宗的	-14312
斯塔尼	-14313
新一代	-14314
无条件	-14315
是什么	-14316
有一种	-14317
有关联	-14318
有意思	-14319
李肇星	-14320
母公司	-14321
疫情的	-14322
的两倍	-14323
的力量	-14324
的医疗	-14325
的画面	-14326
的身份	-14327
的身分	-14328
茌美国	-14329
被列为	-14330
被称为	-14331
计划将	-14332
银行业	-14333
黄元的	-14334
▁一九九	-14335
▁他们在	-14336
▁胡锦涛	-14337
▁雅罗盲	-14338
二十岁的	-14339
二百七十	-14340
以三比六	-14341
债权银行	-14342
催泪瓦斯	-14343
击败对手	-14344
南威尔斯	-14345
南部地区	-14346
在温布顿	-14347
在网路上	-14348
引爆炸弹	-14349
技术人员	-14350
振兴经济	-14351
改革措施	-14352
政治庇护	-14353
武器管制	-14354
民调结果	-14355
油价上涨	-14356
玛拉彤嘉	-14357
第八种子	-14358
考古学家	-14359
警察局长	-14360
进行研究	-14361
部长会议	-14362
▁金融时报	-14363
▁阿米塔吉	-14364
一九七六年	-14365
一九八年代	-14366
主要是因为	-14367
举行的会谈	-14368
关达那摩湾	-14369
十一月七日	-14370
和加萨走廊	-14371
哈玛斯组织	-14372
工业化国家	-14373
总理霍华德	-14374
恐怖攻击后	-14375
攻打伊拉克	-14376
的军事行动	-14377
▁华尔街日报	-14378
民主党参议员	-14379
百分之二十二	-14380
英国首柜布莱尔	-14381
▁京华时报讯记者	-14382
77	-14383
▁内	-14384
▁唐	-14385
▁汉	-14386
」,	-14387
不旦	-14388
与日	-14389
之余	-14390
之力	-14391
乐罐	-14392
了几	-14393
仓促	-14394
他家	-14395
他正	-14396
以东	-14397
侵用	-14398
倒塔	-14399
停泊	-14400
偶象	-14401
全能	-14402
关怀	-14403
其子	-14404
内卢	-14405
军中	-14406
冲走	-14407
刊物	-14408
创伤	-14409
动身	-14410
助使	-14411
单是	-14412
反叛	-14413
古斯	-14414
台作	-14415
和二	-14416
咨询	-14417
困染	-14418
基层	-14419
备自	-14420
奖章	-14421
奶奶	-14422
子上	-14423
子和	-14424
实拖	-14425
客车	-14426
宫泽	-14427
容纳	-14428
射门	-14429
尌励	-14430
尴尬	-14431
幅炸	-14432
干静	-14433
幼智	-14434
开辟	-14435
强震	-14436
录制	-14437
得过	-14438
德仁	-14439
恛忆	-14440
悲伤	-14441
想起	-14442
所受	-14443
打消	-14444
折扣	-14445
支情	-14446
改委	-14447
政务	-14448
救治	-14449
教噢	-14450
教淂	-14451
昭彰	-14452
晚报	-14453
更能	-14454
有六	-14455
柯恩	-14456
步伐	-14457
每位	-14458
汁画	-14459
深切	-14460
清晰	-14461
港元	-14462
特任	-14463
男网	-14464
画作	-14465
白血	-14466
的王	-14467
皮书	-14468
真理	-14469
瞄准	-14470
神奇	-14471
移送	-14472
筹募	-14473
篮版	-14474
细结	-14475
营区	-14476
虾去	-14477
讽刺	-14478
诉状	-14479
说出	-14480
谨甚	-14481
趋式	-14482
足坛	-14483
身高	-14484
这点	-14485
逊王	-14486
通道	-14487
配着	-14488
配角	-14489
问卷	-14490
音响	-14491
马龙	-14492
▁史卓	-14493
▁当年	-14494
▁新力	-14495
▁法院	-14496
▁石油	-14497
▁英文	-14498
▁非洲	-14499
不好的	-14500
不认为	-14501
与叛军	-14502
两周内	-14503
也宣布	-14504
于昨天	-14505
五干名	-14506
产业省	-14507
他将会	-14508
但现在	-14509
准备好	-14510
前美国	-14511
十万人	-14512
参加在	-14513
告诉你	-14514
哈瓦那	-14515
四强赛	-14516
国政府	-14517
圣路易	-14518
在他们	-14519
复杂的	-14520
多万人	-14521
多小时	-14522
失踪者	-14523
将获得	-14524
尽一切	-14525
已完成	-14526
巴格兰	-14527
布希和	-14528
并强调	-14529
总统和	-14530
我自己	-14531
所属的	-14532
报导中	-14533
摩托车	-14534
数十年	-14535
数百人	-14536
无人机	-14537
无法在	-14538
是曰本	-14539
未来将	-14540
李少民	-14541
森喜郎	-14542
正努力	-14543
汤玛斯	-14544
生产国	-14545
的一顶	-14546
的争议	-14547
的地震	-14548
的基本	-14549
的打击	-14550
的服务	-14551
的电话	-14552
的费用	-14553
的部份	-14554
第一大	-14555
纪录片	-14556
联盟党	-14557
芭芭拉	-14558
袁斯坦	-14559
被起诉	-14560
警方的	-14561
贾克逊	-14562
超音速	-14563
转移到	-14564
这两位	-14565
这只是	-14566
连锁店	-14567
都柏林	-14568
金额达	-14569
面对面	-14570
▁农业部	-14571
▁利比亚	-14572
▁土耳莫	-14573
▁森喜朗	-14574
▁财务省	-14575
▁费德瑞	-14576
两干五百	-14577
今天展开	-14578
作出决定	-14579
免疫系统	-14580
公开露面	-14581
再度发生	-14582
协会主席	-14583
南亚海啸	-14584
参众两院	-14585
号太空船	-14586
国际传真	-14587
对北韩的	-14588
将在今天	-14589
将在今年	-14590
就职典礼	-14591
尼加拉瓜	-14592
已经结束	-14593
已经造成	-14594
救援行动	-14595
明星球员	-14596
检查人员	-14597
欧盟宪法	-14598
电视节目	-14599
禁止进口	-14600
继续推动	-14601
网路服务	-14602
行政首长	-14603
访问平壤	-14604
该委员会	-14605
过渡政府	-14606
金融风暴	-14607
阿根廷的	-14608
一九七五年	-14609
万美元奖金	-14610
个工作机会	-14611
二十三岁的	-14612
二零零三年	-14613
反对派领袖	-14614
引起争议的	-14615
流行性感冒	-14616
的百分之五	-14617
科罗拉多州	-14618
伊丽莎白二世	-14619
约旦河西岸的	-14620
▁美国贸易代表	-14621
布宜诺斯艾利斯	-14622
▁根	-14623
一空	-14624
一身	-14625
下车	-14626
世代	-14627
主产	-14628
主政	-14629
主营	-14630
之势	-14631
了三	-14632
享收	-14633
亲属	-14634
人生	-14635
从回	-14636
代给	-14637
以勉	-14638
会让	-14639
保征	-14640
信赖	-14641
兴氛	-14642
冰河	-14643
则被	-14644
删减	-14645
升温	-14646
双料	-14647
古柯	-14648
史塔	-14649
合乎	-14650
商场	-14651
商用	-14652
国力	-14653
国命	-14654
增添	-14655
大将	-14656
大象	-14657
姊姊	-14658
宫司	-14659
就将	-14660
就绪	-14661
已久	-14662
希夏	-14663
幸福	-14664
应附	-14665
康辛	-14666
建功	-14667
形势	-14668
忧钰	-14669
急时	-14670
我还	-14671
战迹	-14672
房东	-14673
批判	-14674
抗意	-14675
拿出	-14676
捐出	-14677
支待	-14678
救缓	-14679
敬意	-14680
文物	-14681
斯利	-14682
旅程	-14683
旗鼓	-14684
时会	-14685
普拉	-14686
暂缓	-14687
末曾	-14688
杆数	-14689
杜马	-14690
柏吾	-14691
核发	-14692
模糊	-14693
欣上	-14694
正雀	-14695
民事	-14696
水患	-14697
永拥	-14698
洪灾	-14699
消退	-14700
热身	-14701
熟析	-14702
现今	-14703
球衣	-14704
的光	-14705
的功	-14706
看似	-14707
社长	-14708
移往	-14709
等着	-14710
精力	-14711
精密	-14712
纪碌	-14713
结吏	-14714
老树	-14715
老鹰	-14716
聚会	-14717
肺癌	-14718
臭氧	-14719
至关	-14720
莒运	-14721
莫后	-14722
菲常	-14723
营利	-14724
被杀	-14725
裁武	-14726
见证	-14727
货机	-14728
赫恩	-14729
走高	-14730
路段	-14731
载客	-14732
这三	-14733
这总	-14734
追促	-14735
降价	-14736
顺子	-14737
餐听	-14738
高昂	-14739
鼓吹	-14740
▁有人	-14741
▁这顷	-14742
一直被	-14743
与世界	-14744
为中国	-14745
伊波拉	-14746
佘契尔	-14747
公积金	-14748
创新高	-14749
十九岁	-14750
华府的	-14751
危险性	-14752
只小鸟	-14753
在比赛	-14754
在越南	-14755
大赛中	-14756
妥员会	-14757
完全不	-14758
将展开	-14759
总公司	-14760
总统在	-14761
患者的	-14762
我们仍	-14763
我必须	-14764
政权的	-14765
新宪法	-14766
柯斯塔	-14767
棕榈滩	-14768
欧元兑	-14769
污染的	-14770
河南省	-14771
田纳西	-14772
的决心	-14773
的机器	-14774
的构想	-14775
的案件	-14776
的班机	-14777
的生命	-14778
的记者	-14779
瞩目的	-14780
第三位	-14781
终场前	-14782
经营的	-14783
美国所	-14784
美巡赛	-14785
而美国	-14786
被击毙	-14787
警官说	-14788
警方在	-14789
起诉书	-14790
这是自	-14791
都已经	-14792
▁今天在	-14793
▁他认为	-14794
▁哈玛斯	-14795
▁报告中	-14796
▁泰晤士	-14797
▁苏格兰	-14798
中央情撮	-14799
今天击出	-14800
今天正式	-14801
十七岁的	-14802
发现任何	-14803
告诉他们	-14804
国内需求	-14805
在马尼拉	-14806
士兵丧生	-14807
官员透露	-14808
就业市场	-14809
恶名昭彰	-14810
揭开序幕	-14811
政界人士	-14812
最后一轮	-14813
梅熹娃蒂	-14814
波罗的海	-14815
游击队的	-14816
的前总统	-14817
罪魁祸首	-14818
航太总署	-14819
蒙上阴影	-14820
贸易协定	-14821
边界地区	-14822
违反人权	-14823
阿富汗人	-14824
▁他们表示	-14825
▁搜狐娱乐	-14826
▁研究报告	-14827
为百分之二	-14828
举行的世界	-14829
人士的话说	-14830
伊拉克囚犯	-14831
宫员今天说	-14832
帕金森氏症	-14833
房地产市场	-14834
扮演的角色	-14835
接受法新社	-14836
的恐怖攻击	-14837
的百分之三	-14838
的百分之二	-14839
西尼罗病毒	-14840
保护野生动物	-14841
美国国会议员	-14842
靖国神社参拜	-14843
▁美国总统柯林顿	-14844
阿尔巴尼亚裔叛军	-14845
▁几	-14846
▁只	-14847
▁星	-14848
▁水	-14849
▁随	-14850
一方	-14851
不详	-14852
不道	-14853
东源	-14854
两支	-14855
亟需	-14856
人将	-14857
今夏	-14858
今早	-14859
以位	-14860
价钱	-14861
任教	-14862
但不	-14863
佛瑞	-14864
充份	-14865
冶疗	-14866
凯莉	-14867
分开	-14868
分手	-14869
创设	-14870
前近	-14871
厕所	-14872
叙述	-14873
可依	-14874
后备	-14875
困绕	-14876
国债	-14877
场景	-14878
基辅	-14879
声援	-14880
夏尔	-14881
大该	-14882
天前	-14883
头子	-14884
孕妇	-14885
学位	-14886
富却	-14887
对代	-14888
对着	-14889
小龙	-14890
展后	-14891
巴洛	-14892
布局	-14893
帐篷	-14894
幸好	-14895
库兹	-14896
性能	-14897
恶烈	-14898
我家	-14899
执勤	-14900
投诚	-14901
援引	-14902
有钱	-14903
杜雀	-14904
树木	-14905
桃园	-14906
正十	-14907
泪据	-14908
泰铢	-14909
派员	-14910
浮现	-14911
海报	-14912
海水	-14913
深的	-14914
漫画	-14915
澳州	-14916
激起	-14917
热爱	-14918
登机	-14919
的内	-14920
的约	-14921
的该	-14922
看者	-14923
眼光	-14924
着作	-14925
石化	-14926
硝后	-14927
秒钟	-14928
立方	-14929
粉丝	-14930
紧蹦	-14931
纪律	-14932
纳的	-14933
罚球	-14934
美食	-14935
者中	-14936
胃布	-14937
脚下	-14938
脚踏	-14939
脚踝	-14940
菩方	-14941
血栓	-14942
规章	-14943
读书	-14944
质询	-14945
跻身	-14946
车厂	-14947
轻意	-14948
过失	-14949
还得	-14950
远比	-14951
迫性	-14952
适时	-14953
遵循	-14954
那边	-14955
错失	-14956
问匙	-14957
骚乱	-14958
麻州	-14959
▁不少	-14960
▁可以	-14961
▁贝克	-14962
▁这支	-14963
一年多	-14964
七千名	-14965
两百一	-14966
也不是	-14967
也因此	-14968
以加强	-14969
全都是	-14970
十四人	-14971
卫冕者	-14972
反映了	-14973
发改委	-14974
可能将	-14975
四十年	-14976
国内政	-14977
她表示	-14978
官员的	-14979
将使得	-14980
岁男童	-14981
已经是	-14982
希布伦	-14983
年青人	-14984
很喜欢	-14985
总书记	-14986
总额达	-14987
所说的	-14988
扩大的	-14989
扳回一	-14990
是他的	-14991
是可以	-14992
普罗迪	-14993
此行的	-14994
热那亚	-14995
特斯拉	-14996
的动物	-14997
的命令	-14998
的武装	-14999
的水准	-15000
的竞争	-15001
的预测	-15002
盐湖城	-15003
称之为	-15004
罗培兹	-15005
美国及	-15006
而丧生	-15007
能获得	-15008
舞台上	-15009
表达了	-15010
被绑架	-15011
被问及	-15012
造成一	-15013
逮捕令	-15014
部电影	-15015
都不会	-15016
采取了	-15017
▁贝克汉	-15018
一名美国	-15019
世养贸易	-15020
严重关切	-15021
五十公尺	-15022
今天旱上	-15023
他们将在	-15024
合作组织	-15025
吹洲联盟	-15026
因为这些	-15027
墓因改造	-15028
大部分是	-15029
头号种子	-15030
完全没有	-15031
居高不下	-15032
戈巴契夫	-15033
打进决赛	-15034
提出抗议	-15035
数以百万	-15036
无可避免	-15037
欧元地区	-15038
没有说明	-15039
爱德华兹	-15040
的候选人	-15041
红土球场	-15042
英格兰队	-15043
这可能是	-15044
退出比赛	-15045
遭到绑架	-15046
重新考虑	-15047
金牌得主	-15048
领导人的	-15049
▁不过他说	-15050
▁欧布莱特	-15051
九百万美元	-15052
分析家认为	-15053
向记者表示	-15054
胚胎干细胞	-15055
这项决议案	-15056
阿拉伯世界	-15057
医院接受治疗	-15058
支持恐怖主义	-15059
飞弹防御计画	-15060
首席谈判代表	-15061
▁国际原子能总署	-15062
7,	-15063
▁乌	-15064
▁去	-15065
一块	-15066
一把	-15067
一连	-15068
不碪	-15069
丝特	-15070
两处	-15071
个案	-15072
主机	-15073
书籍	-15074
事的	-15075
五点	-15076
什图	-15077
仅能	-15078
佛朗	-15079
供电	-15080
列斯	-15081
劳资	-15082
勉强	-15083
卵子	-15084
友展	-15085
友现	-15086
受过	-15087
古茶	-15088
可夫	-15089
吃了	-15090
吞噬	-15091
哥本	-15092
哪时	-15093
地理	-15094
埋葬	-15095
威为	-15096
存的	-15097
将让	-15098
居然	-15099
工地	-15100
市大	-15101
应可	-15102
应有	-15103
御下	-15104
成份	-15105
房产	-15106
指令	-15107
指要	-15108
捷任	-15109
斯图	-15110
无霸	-15111
景点	-15112
期中	-15113
未再	-15114
本营	-15115
梅铎	-15116
欉林	-15117
歌剧	-15118
殊荣	-15119
水泥	-15120
法定	-15121
源自	-15122
滨海	-15123
牵涉	-15124
特勤	-15125
琪士	-15126
的李	-15127
的车	-15128
穆沙	-15129
穿梭	-15130
窒事	-15131
答成	-15132
糟糕	-15133
练球	-15134
经产	-15135
给付	-15136
继往	-15137
腿部	-15138
苔国	-15139
莫它	-15140
莫有	-15141
营地	-15142
表扬	-15143
要去	-15144
设限	-15145
误解	-15146
诸塞	-15147
赁国	-15148
超前	-15149
踢球	-15150
辣妹	-15151
达兰	-15152
这番	-15153
进帐	-15154
选前	-15155
错过	-15156
闭门	-15157
阿曼	-15158
降温	-15159
面包	-15160
革职	-15161
页的	-15162
颊军	-15163
麻萨	-15164
黯淡	-15165
▁新的	-15166
▁芙国	-15167
▁费雪	-15168
▁预定	-15169
一点六	-15170
与社会	-15171
主持的	-15172
之一是	-15173
也发现	-15174
二十个	-15175
二十岁	-15176
于九月	-15177
今天仍	-15178
他预期	-15179
以对抗	-15180
克瑞强	-15181
全球性	-15182
动物的	-15183
十日在	-15184
同意让	-15185
喷射机	-15186
塞拜然	-15187
太子港	-15188
姆贝基	-15189
将受到	-15190
尔维亚	-15191
局表示	-15192
带来了	-15193
并且说	-15194
并提供	-15195
废弃物	-15196
我感到	-15197
托罗拉	-15198
扩大到	-15199
推动的	-15200
敢死队	-15201
曼哈坦	-15202
有责任	-15203
正处于	-15204
派出所	-15205
犯下的	-15206
的主权	-15207
的患者	-15208
的油价	-15209
的群众	-15210
的财务	-15211
的重点	-15212
第五名	-15213
第十六	-15214
等方面	-15215
而成为	-15216
而来的	-15217
要求将	-15218
走下坡	-15219
达拉斯	-15220
这三名	-15221
这个月	-15222
这样做	-15223
连续第	-15224
都表示	-15225
高血压	-15226
▁南北韩	-15227
▁在这项	-15228
▁如果你	-15229
▁美国和	-15230
一般预料	-15231
七十一杆	-15232
三干五百	-15233
人死亡的	-15234
仍不清楚	-15235
出口成长	-15236
分割手术	-15237
医院治疗	-15238
十五分钟	-15239
去年七月	-15240
去年八月	-15241
可能不会	-15242
告诉我们	-15243
四十岁的	-15244
如果没有	-15245
对我来说	-15246
将进一步	-15247
年度最佳	-15248
接受审判	-15249
改革计画	-15250
新泽西州	-15251
昨天下午	-15252
晋级四强	-15253
最后一站	-15254
毫无疑问	-15255
特任大臣	-15256
犯罪行为	-15257
环境部长	-15258
电视转播	-15259
白宫宝座	-15260
纪念仪式	-15261
调查行动	-15262
谢瓦纳兹	-15263
陷入困境	-15264
▁澳大利亚	-15265
一九六七年	-15266
六月三十日	-15267
多数党领袖	-15268
布仑特原油	-15269
百分之十九	-15270
美国的经济	-15271
在记者会上说	-15272
飞弹防御计划	-15273
九一一攻击事件	-15274
印度与巴基斯坦	-15275
▁德国总理施若德	-15276
▁日本经济新闻说	-15277
▁像	-15278
▁包	-15279
▁女	-15280
▁恩	-15281
▁时	-15282
▁查	-15283
▁飞	-15284
一小	-15285
上年	-15286
不通	-15287
与新	-15288
中弹	-15289
中途	-15290
之时	-15291
争辩	-15292
从末	-15293
代号	-15294
伦理	-15295
但有	-15296
余地	-15297
例位	-15298
停在	-15299
偶像	-15300
全是	-15301
其所	-15302
几近	-15303
剧情	-15304
劝告	-15305
助手	-15306
即在	-15307
合组	-15308
合适	-15309
围绕	-15310
圆满	-15311
地放	-15312
塞维	-15313
墓园	-15314
处制	-15315
大关	-15316
奉献	-15317
她和	-15318
存底	-15319
宫邸	-15320
寺庙	-15321
将因	-15322
希暨	-15323
带原	-15324
年长	-15325
庆祖	-15326
延揽	-15327
形同	-15328
德尔	-15329
怀特	-15330
慢性	-15331
报的	-15332
捕捉	-15333
损及	-15334
掉了	-15335
推断	-15336
提诺	-15337
改良	-15338
断裂	-15339
是继	-15340
杭州	-15341
柯夫	-15342
校方	-15343
残障	-15344
添加	-15345
游乐	-15346
溺毙	-15347
爆竹	-15348
独自	-15349
电线	-15350
的加	-15351
知悉	-15352
竞技	-15353
红海	-15354
红雀	-15355
罚锾	-15356
美女	-15357
美好	-15358
美日	-15359
腺癌	-15360
舞厅	-15361
航程	-15362
船舰	-15363
艾氏	-15364
荷马	-15365
菲尔	-15366
蛋糕	-15367
行情	-15368
行裡	-15369
衰竭	-15370
计话	-15371
谷底	-15372
败仗	-15373
货品	-15374
贾拉	-15375
足已	-15376
进去	-15377
适逢	-15378
通勤	-15379
通膨	-15380
道理	-15381
遗骸	-15382
郝尔	-15383
都对	-15384
野蛮	-15385
风云	-15386
高端	-15387
魁北	-15388
▁中心	-15389
▁八月	-15390
▁其余	-15391
▁周日	-15392
▁标准	-15393
▁苏丹	-15394
主办国	-15395
也使得	-15396
二百一	-15397
五十年	-15398
五曰在	-15399
以外的	-15400
任命案	-15401
任天堂	-15402
会继续	-15403
出生于	-15404
副局长	-15405
化学品	-15406
却没有	-15407
受重伤	-15408
史蒂文	-15409
吸烟者	-15410
嘉柏皋	-15411
在政治	-15412
在某些	-15413
地表示	-15414
大法官	-15415
大罢工	-15416
奥斯陆	-15417
威胁到	-15418
学中文	-15419
将会是	-15420
将减少	-15421
巡逻艇	-15422
工会的	-15423
已久的	-15424
已确定	-15425
幼智园	-15426
德国人	-15427
总理艾	-15428
所在的	-15429
摩纳哥	-15430
是目前	-15431
本月底	-15432
栋建筑	-15433
正十郎	-15434
水资源	-15435
瑞士的	-15436
的内阁	-15437
的案例	-15438
的治疗	-15439
的衣服	-15440
看不出	-15441
纪念碑	-15442
自杀式	-15443
莫他的	-15444
该国的	-15445
该机构	-15446
轨道上	-15447
较大的	-15448
首度在	-15449
▁马哈地	-15450
专家小组	-15451
世界通讯	-15452
两个小时	-15453
争议性的	-15454
事件发生	-15455
亚美尼亚	-15456
八强赛中	-15457
几个月来	-15458
可能遭到	-15459
哥本哈根	-15460
四十年来	-15461
国际会议	-15462
在二零一	-15463
基本教义	-15464
大英国协	-15465
媒体记者	-15466
宣布辞职	-15467
密西根州	-15468
展开谈判	-15469
川口顺子	-15470
建设性的	-15471
强烈抗议	-15472
战争期间	-15473
执行任务	-15474
报纸报导	-15475
格林威尔	-15476
武装份子	-15477
消费支出	-15478
濒临绝种	-15479
爱沙尼亚	-15480
瓦砾堆中	-15481
的成长率	-15482
的第一个	-15483
目前已有	-15484
石油供应	-15485
石涠输出	-15486
科技公司	-15487
粮食计画	-15488
美国空军	-15489
联军部队	-15490
言论自由	-15491
访问中说	-15492
访问美国	-15493
财政大臣	-15494
资本市场	-15495
车臣叛军	-15496
造成两名	-15497
造成严重	-15498
防范措施	-15499
▁空中巴士	-15500
▁美国今天	-15501
三十七岁的	-15502
三十二岁的	-15503
即将卸任的	-15504
发言人指出	-15505
口蹄疫病例	-15506
在加萨走廊	-15507
总理阿拉威	-15508
阿富汗境内	-15509
福特汽车公司	-15510
署长艾巴拉迪	-15511
自由贸易协议	-15512
首席经济学家	-15513
中东和平路线图	-15514
印度和巴基斯坦	-15515
戴姆勒克莱斯勒	-15516
纽约世界贸易中心	-15517
38	-15518
39	-15519
▁平	-15520
▁明	-15521
▁赛	-15522
一贯	-15523
一顷	-15524
上路	-15525
下水	-15526
不予	-15527
不悦	-15528
不成	-15529
专栏	-15530
两届	-15531
之子	-15532
交割	-15533
交接	-15534
人土	-15535
低点	-15536
你会	-15537
偎告	-15538
做成	-15539
储油	-15540
党和	-15541
公益	-15542
几名	-15543
切除	-15544
动画	-15545
化妆	-15546
化武	-15547
发病	-15548
叛变	-15549
召唤	-15550
各式	-15551
同比	-15552
后即	-15553
哥华	-15554
喜观	-15555
围堵	-15556
国菖	-15557
圣经	-15558
坚挺	-15559
外围	-15560
多样	-15561
天起	-15562
头牛	-15563
宙慎	-15564
宾客	-15565
对房	-15566
封杀	-15567
局部	-15568
布达	-15569
并指	-15570
应在	-15571
忙上	-15572
慢慢	-15573
我去	-15574
我麽	-15575
报到	-15576
拿着	-15577
措词	-15578
撤消	-15579
改写	-15580
放假	-15581
新建	-15582
普顿	-15583
曰产	-15584
有朝	-15585
杰伦	-15586
林说	-15587
枪械	-15588
武汉	-15589
汊城	-15590
污然	-15591
汽荤	-15592
浪潮	-15593
涌进	-15594
渺茫	-15595
炮击	-15596
物体	-15597
玫府	-15598
球隧	-15599
甘地	-15600
生级	-15601
的佛	-15602
的日	-15603
的死	-15604
的病	-15605
相处	-15606
看侍	-15607
破解	-15608
禧年	-15609
突出	-15610
筹措	-15611
管线	-15612
米苏	-15613
类股	-15614
终端	-15615
者和	-15616
肝脏	-15617
膘国	-15618
致电	-15619
英超	-15620
茴都	-15621
莎拉	-15622
获知	-15623
菲力	-15624
营建	-15625
蚊子	-15626
行成	-15627
裁撤	-15628
要把	-15629
要素	-15630
设记	-15631
调萱	-15632
费者	-15633
贿款	-15634
赈灾	-15635
走厂	-15636
转为	-15637
近郊	-15638
这宗	-15639
远见	-15640
迪使	-15641
选美	-15642
都兹	-15643
铁道	-15644
防毒	-15645
零八	-15646
颅定	-15647
首领	-15648
高潮	-15649
鸡肉	-15650
麻醉	-15651
150	-15652
▁约旦	-15653
一直到	-15654
一般的	-15655
七四七	-15656
七百万	-15657
三比克	-15658
两千年	-15659
两天后	-15660
了这个	-15661
五分钟	-15662
他们不	-15663
他们正	-15664
他强调	-15665
以作为	-15666
先进的	-15667
几年来	-15668
十三人	-15669
只不过	-15670
只表示	-15671
史考特	-15672
和台湾	-15673
在同一	-15674
型飞机	-15675
复兴党	-15676
完成的	-15677
对人类	-15678
对欧盟	-15679
小规模	-15680
巨无霸	-15681
已不再	-15682
布雷克	-15683
并获得	-15684
情报局	-15685
我真的	-15686
战斗中	-15687
所引起	-15688
护病房	-15689
拉多恩	-15690
攀升至	-15691
支持下	-15692
教科文	-15693
时间内	-15694
是来自	-15695
暴露在	-15696
更有效	-15697
曼表示	-15698
杯冠军	-15699
每个月	-15700
炸弹客	-15701
热内卢	-15702
电视机	-15703
的使用	-15704
的停火	-15705
的各种	-15706
的影片	-15707
的日期	-15708
的时后	-15709
的警告	-15710
相当的	-15711
看电视	-15712
第四度	-15713
结构性	-15714
职人员	-15715
艺术家	-15716
虽然在	-15717
身上的	-15718
输油管	-15719
阿莒汗	-15720
▁但是在	-15721
▁叙利亚	-15722
▁黎巴嫩	-15723
万五千名	-15724
专家指出	-15725
中央政府	-15726
中小企业	-15727
二十公里	-15728
仍然存在	-15729
伤亡人数	-15730
健康状况	-15731
全球暖化	-15732
判处死刑	-15733
十七日在	-15734
十二月份	-15735
即将来临	-15736
发表演讲	-15737
合作伙伴	-15738
墓金会的	-15739
复制人类	-15740
奥斯卡奖	-15741
将于明年	-15742
我们一直	-15743
所有国家	-15744
新闻简报	-15745
无法确定	-15746
最高领袖	-15747
电影公司	-15748
白金汉宫	-15749
的话指出	-15750
粮农组织	-15751
这次事件	-15752
这项报告	-15753
造成任何	-15754
金融体系	-15755
▁沃佛维茨	-15756
上午十一时	-15757
五千万美元	-15758
人民解放军	-15759
副国防部长	-15760
卫生组织的	-15761
四十万美元	-15762
国营电视台	-15763
新闻社撮导	-15764
演说中表示	-15765
的国家之一	-15766
联合大公国	-15767
这起爆炸案	-15768
▁分析家指出	-15769
巴勒斯坦人在	-15770
百分之七十五	-15771
绿色和平组织	-15772
世界贸易组织的	-15773
46	-15774
5,	-15775
▁且	-15776
▁山	-15777
▁黎	-15778
七成	-15779
不像	-15780
主控	-15781
乐见	-15782
了约	-15783
于世	-15784
五大	-15785
亚的	-15786
人造	-15787
亿至	-15788
仅以	-15789
他自	-15790
你麽	-15791
做得	-15792
光是	-15793
全市	-15794
兰经	-15795
冗长	-15796
分成	-15797
分隔	-15798
南戟	-15799
占地	-15800
厘清	-15801
原意	-15802
友善	-15803
双人	-15804
同为	-15805
吹盟	-15806
因其	-15807
团员	-15808
国苣	-15809
地标	-15810
塔台	-15811
士队	-15812
外线	-15813
大略	-15814
大雪	-15815
奉令	-15816
子星	-15817
宁街	-15818
定价	-15819
宝宝	-15820
希说	-15821
帕克	-15822
常见	-15823
庞提	-15824
弥漫	-15825
恶性	-15826
悟势	-15827
您们	-15828
我门	-15829
托斯	-15830
执意	-15831
扬弃	-15832
抗药	-15833
拳赛	-15834
摆平	-15835
收支	-15836
末获	-15837
正如	-15838
水库	-15839
波湾	-15840
流传	-15841
流浪	-15842
深表	-15843
炮轰	-15844
爆出	-15845
猩猩	-15846
珍贵	-15847
瑞奇	-15848
男堇	-15849
的菖	-15850
研制	-15851
穷人	-15852
米尼	-15853
粉末	-15854
纯粹	-15855
维生	-15856
而届	-15857
致作	-15858
花连	-15859
若是	-15860
荣衔	-15861
莉娜	-15862
莫余	-15863
蕰藏	-15864
认证	-15865
记看	-15866
该部	-15867
谋和	-15868
贯彻	-15869
赋予	-15870
轰动	-15871
返抵	-15872
迪尔	-15873
速水	-15874
遥遥	-15875
都曾	-15876
都没	-15877
金门	-15878
难度	-15879
颇有	-15880
首开	-15881
麻坊	-15882
400	-15883
▁一旦	-15884
▁也是	-15885
▁会议	-15886
▁原本	-15887
▁该报	-15888
▁通过	-15889
▁领导	-15890
一样的	-15891
七千人	-15892
不以为	-15893
不侵犯	-15894
不支持	-15895
与亚洲	-15896
中国将	-15897
九曰在	-15898
九百万	-15899
也包括	-15900
于五月	-15901
于四月	-15902
亘威夷	-15903
传教士	-15904
伤害到	-15905
几乎是	-15906
出版的	-15907
务必要	-15908
助理说	-15909
占全球	-15910
后立即	-15911
否决权	-15912
四美元	-15913
因为她	-15914
国民兵	-15915
在罗马	-15916
外交宫	-15917
奎斯特	-15918
好几个	-15919
媒体的	-15920
季节性	-15921
将有助	-15922
小行星	-15923
尚尼亚	-15924
年轻的	-15925
开出的	-15926
必须有	-15927
所提出	-15928
承包商	-15929
接受了	-15930
接受的	-15931
摇摇欲	-15932
政府为	-15933
新闻界	-15934
是我的	-15935
比预期	-15936
流行乐	-15937
生产线	-15938
生活在	-15939
町村信	-15940
癌细胞	-15941
的一半	-15942
的地步	-15943
的大陆	-15944
的空间	-15945
的策略	-15946
莉莎白	-15947
被捕后	-15948
西北方	-15949
认为他	-15950
议会的	-15951
轻原油	-15952
较高的	-15953
近期内	-15954
邻国的	-15955
领袖说	-15956
额外的	-15957
食品暨	-15958
▁众议院	-15959
▁报导中	-15960
一亿美元	-15961
三个国家	-15962
三千三百	-15963
三菱汽车	-15964
上任以来	-15965
二十一个	-15966
伊泣克的	-15967
全球最大	-15968
六十五杆	-15969
凌晨二时	-15970
出庭应讯	-15971
副总经理	-15972
十四日在	-15973
参加一项	-15974
可能还会	-15975
同时表示	-15976
大国家党	-15977
夺得冠军	-15978
媒体报道	-15979
市场需求	-15980
平壤当局	-15981
开始进行	-15982
恐怖威胁	-15983
救援工作	-15984
文件显示	-15985
新科学家	-15986
百万美元	-15987
的原因是	-15988
的时候了	-15989
的最新一	-15990
稍早表示	-15991
穆夏拉天	-15992
紧急事务	-15993
美国牛肉	-15994
解决办法	-15995
证券交易	-15996
证券公司	-15997
贸易谈判	-15998
这方面的	-15999
这是非常	-16000
这次地震	-16001
重新开放	-16002
高峰会上	-16003
高峰会谈	-16004
高级主管	-16005
▁北方联盟	-16006
▁在伊拉克	-16007
一九八二年	-16008
一千万美元	-16009
七十亿美元	-16010
二零一五年	-16011
六十四岁的	-16012
外长裴瑞斯	-16013
攻击伊拉克	-16014
最重要的是	-16015
民族解放军	-16016
高球公开赛	-16017
▁美国大使馆	-16018
在一九九七年	-16019
对伊拉克开战	-16020
日报今天报导	-16021
民调结果显示	-16022
刚果民主共和国	-16023
巴勒斯坦自治区	-16024
特拉伊克夫斯基	-16025
52	-16026
▁跟	-16027
▁陶	-16028
▁雅	-16029
▁齐	-16030
一杆	-16031
一流	-16032
七天	-16033
万台	-16034
个星	-16035
为数	-16036
为莫	-16037
二三	-16038
亚裔	-16039
产经	-16040
人中	-16041
从前	-16042
以两	-16043
休天	-16044
位居	-16045
侯格	-16046
偏低	-16047
克洛	-16048
全家	-16049
兹尼	-16050
军誓	-16051
冬运	-16052
凶嫌	-16053
出货	-16054
分支	-16055
列名	-16056
到一	-16057
发达	-16058
古丁	-16059
古代	-16060
句点	-16061
台并	-16062
同行	-16063
周前	-16064
哈伯	-16065
商谈	-16066
啤酒	-16067
啧发	-16068
国小	-16069
在以	-16070
均衡	-16071
它所	-16072
安妮	-16073
官僚	-16074
宝贝	-16075
将士	-16076
已成	-16077
巴提	-16078
庸毒	-16079
开了	-16080
开刀	-16081
开创	-16082
德斯	-16083
怀抱	-16084
感应	-16085
抓助	-16086
拉萨	-16087
措辞	-16088
新药	-16089
旁边	-16090
暴雨	-16091
最长	-16092
机动	-16093
染病	-16094
格尔	-16095
欧美	-16096
法治	-16097
洛姆	-16098
津贴	-16099
流失	-16100
潜入	-16101
特点	-16102
申柯	-16103
痊愈	-16104
的六	-16105
监护	-16106
秒八	-16107
稽核	-16108
突显	-16109
笔记	-16110
繁殖	-16111
经厉	-16112
置于	-16113
美东	-16114
老破	-16115
而于	-16116
而成	-16117
自主	-16118
落的	-16119
落马	-16120
该处	-16121
赌场	-16122
车主	-16123
较少	-16124
输入	-16125
这群	-16126
造价	-16127
遥控	-16128
长龙	-16129
闪电	-16130
阻断	-16131
陨石	-16132
零后	-16133
霍夫	-16134
饲养	-16135
首当	-16136
驻伊	-16137
高价	-16138
高音	-16139
▁初步	-16140
▁名列	-16141
▁哈里	-16142
▁大陆	-16143
▁曾在	-16144
▁男子	-16145
▁这罡	-16146
▁雪梨	-16147
三十多	-16148
三角洲	-16149
东南方	-16150
两干年	-16151
二日在	-16152
五十个	-16153
五十分	-16154
从美国	-16155
会晤了	-16156
但是我	-16157
保持人	-16158
军队的	-16159
十四个	-16160
反对者	-16161
另一场	-16162
可能为	-16163
可说是	-16164
周年的	-16165
四分卫	-16166
大约是	-16167
奥克兰	-16168
安东尼	-16169
审法官	-16170
对南韩	-16171
希特勒	-16172
开始时	-16173
当局将	-16174
成交量	-16175
昆士兰	-16176
最低点	-16177
有一位	-16178
有希望	-16179
检查站	-16180
派人士	-16181
潜水艇	-16182
澳洲队	-16183
爱媛丸	-16184
狮子山	-16185
的一万	-16186
的一周	-16187
的人员	-16188
的功能	-16189
的区域	-16190
的合约	-16191
的家属	-16192
的对话	-16193
的形象	-16194
的效果	-16195
立场超	-16196
给他们	-16197
被看好	-16198
要如何	-16199
迄今已	-16200
遭攻击	-16201
阿尔及	-16202
零售业	-16203
领先者	-16204
▁大部分	-16205
▁她又说	-16206
▁这两个	-16207
▁这是自	-16208
▁霍华德	-16209
一个月内	-16210
一家医院	-16211
三十一曰	-16212
三千七百	-16213
今天晚间	-16214
他们正在	-16215
任何国家	-16216
全力支持	-16217
共产主义	-16218
十一日在	-16219
印尼民主	-16220
四干五百	-16221
国家领袖	-16222
塔利班的	-16223
夏拉波娃	-16224
尚未决定	-16225
我们柜信	-16226
拒绝证实	-16227
提出报告	-16228
新闻部长	-16229
最高纪录	-16230
森林大火	-16231
正在研究	-16232
法律规定	-16233
犹太屯垦	-16234
由联合国	-16235
电视频道	-16236
的受害者	-16237
经济危机	-16238
胡志明市	-16239
航空总署	-16240
英国女王	-16241
获得通过	-16242
获得释放	-16243
财务大臣	-16244
这个组织	-16245
这项交易	-16246
这项建议	-16247
这项指控	-16248
预料将在	-16249
麻萨诸塞	-16250
一九九年代	-16251
亚太地区的	-16252
副发言人艾	-16253
四十八小时	-16254
四干万美元	-16255
市场占有率	-16256
柯林顿政府	-16257
管理委员会	-16258
▁麦克雷兰说	-16259
伊凡尼塞维奇	-16260
发言人今天说	-16261
外长伊凡诺夫	-16262
奥斯卡金像奖	-16263
消息人士透露	-16264
马萨里沙利夫	-16265
诺贝尔和平奖得主	-16266
联邦准备理事会主席葛林斯潘	-16267
56	-16268
7-	-16269
76	-16270
▁却	-16271
▁图	-16272
▁想	-16273
▁毕	-16274
一席	-16275
上最	-16276
下榻	-16277
不故	-16278
不敌	-16279
业内	-16280
两成	-16281
两辆	-16282
中立	-16283
丹佛	-16284
为护	-16285
举重	-16286
之上	-16287
之初	-16288
仅在	-16289
伴随	-16290
住了	-16291
供油	-16292
全长	-16293
公具	-16294
六岁	-16295
关岛	-16296
军阀	-16297
冲子	-16298
分发	-16299
创意	-16300
制订	-16301
动向	-16302
劳勃	-16303
势均	-16304
化合	-16305
又是	-16306
友邦	-16307
受难	-16308
古森	-16309
可事	-16310
台南	-16311
史提	-16312
名额	-16313
和偕	-16314
四家	-16315
回台	-16316
基石	-16317
塔基	-16318
士林	-16319
多么	-16320
太高	-16321
子里	-16322
学费	-16323
宛如	-16324
实践	-16325
宫房	-16326
寒冷	-16327
对比	-16328
将和	-16329
岗位	-16330
已无	-16331
布条	-16332
帕契	-16333
席卷	-16334
年华	-16335
并肩	-16336
库森	-16337
康迪	-16338
开来	-16339
待在	-16340
待尽	-16341
性感	-16342
总局	-16343
恶意	-16344
悼念	-16345
意向	-16346
慷慨	-16347
所苦	-16348
抢购	-16349
拜仁	-16350
捐血	-16351
提旱	-16352
整理	-16353
早以	-16354
昆众	-16355
昌星	-16356
本次	-16357
来往	-16358
检体	-16359
每此	-16360
民用	-16361
治愈	-16362
法务	-16363
浩劫	-16364
消慧	-16365
熹要	-16366
特质	-16367
犬约	-16368
狄克	-16369
的起	-16370
盘据	-16371
相连	-16372
眼看	-16373
竞逐	-16374
简讯	-16375
网址	-16376
美奖	-16377
翻覆	-16378
者是	-16379
而与	-16380
职权	-16381
至五	-16382
艰难	-16383
营销	-16384
被关	-16385
裁军	-16386
试管	-16387
说的	-16388
诺威	-16389
赤棉	-16390
跌落	-16391
路人	-16392
输球	-16393
进食	-16394
逐退	-16395
遥远	-16396
遴选	-16397
钢品	-16398
韩晏	-16399
韩森	-16400
顿说	-16401
领妞	-16402
风潮	-16403
马侃	-16404
麦考	-16405
▁他对	-16406
▁依据	-16407
▁台北	-16408
▁工会	-16409
▁据说	-16410
▁这批	-16411
▁马丁	-16412
七个月	-16413
三十个	-16414
下降至	-16415
中包括	-16416
也遭到	-16417
亚马逊	-16418
什么的	-16419
但最后	-16420
作出的	-16421
做什么	-16422
做准备	-16423
八美元	-16424
公顷的	-16425
加斯加	-16426
十五国	-16427
半世纪	-16428
原住民	-16429
只有在	-16430
可能因	-16431
名人堂	-16432
员工的	-16433
四小时	-16434
国际法	-16435
在一家	-16436
在加州	-16437
在空中	-16438
坚定的	-16439
墓督教	-16440
妇女的	-16441
安全和	-16442
安全无	-16443
安达信	-16444
将会见	-16445
将迎战	-16446
尚比亚	-16447
已接获	-16448
布罗陀	-16449
并指控	-16450
座冠军	-16451
志愿者	-16452
忧钰症	-16453
感恩节	-16454
找到了	-16455
持有的	-16456
捷克的	-16457
接触到	-16458
更容易	-16459
曾警告	-16460
曾试图	-16461
杀伤力	-16462
核废料	-16463
格丽特	-16464
比利肘	-16465
水手队	-16466
病人的	-16467
的主嫌	-16468
的发现	-16469
的独立	-16470
的病患	-16471
的组织	-16472
的联邦	-16473
紧张的	-16474
维勒班	-16475
艾佛森	-16476
葡萄酒	-16477
订定的	-16478
较预期	-16479
运动场	-16480
这两人	-16481
邓小平	-16482
都知道	-16483
陪宙团	-16484
领域的	-16485
首次在	-16486
魁北克	-16487
▁美国与	-16488
七月一日	-16489
三百六十	-16490
上午八时	-16491
不会改变	-16492
中东问题	-16493
主要因为	-16494
亚塞拜然	-16495
人权组织	-16496
从事间谍	-16497
俄罗斯和	-16498
债信评等	-16499
克拉荷马	-16500
单一货币	-16501
印度国会	-16502
印第安纳	-16503
可能爆发	-16504
四千五百	-16505
在今天的	-16506
在加拿大	-16507
坦尚尼亚	-16508
外交努力	-16509
妮可基嫚	-16510
安全会议	-16511
官员告诉	-16512
将于本周	-16513
市场经济	-16514
情报首长	-16515
成员包括	-16516
我们尚末	-16517
扳回一城	-16518
数小时后	-16519
新加坡的	-16520
施加压力	-16521
无法获得	-16522
是伊拉克	-16523
是全世界	-16524
朝鲜民主	-16525
核能电厂	-16526
棕榈滩郡	-16527
民主改革	-16528
的第一步	-16529
破产保护	-16530
继续努力	-16531
罹患癌症	-16532
罹难人数	-16533
莒员表示	-16534
访问北韩	-16535
负面影响	-16536
足球明星	-16537
这项条约	-16538
马里兰州	-16539
鲁塞斯基	-16540
三十六岁的	-16541
九月十一曰	-16542
四十一岁的	-16543
国隽卿鲍尔	-16544
外交通商部	-16545
广播公司的	-16546
数以千计的	-16547
海岸防卫队	-16548
的经济复苏	-16549
盐川正十郎	-16550
美国侦察机	-16551
规模最大的	-16552
进一步说明	-16553
通讯社报导	-16554
黛安娜王妃	-16555
▁美国参议院	-16556
▁阿布沙伊夫	-16557
一九九九年的	-16558
在美国公开赛	-16559
媒体今天报导	-16560
局局长泰内特	-16561
记者会中表示	-16562
官员告诉法新社	-16563
美国国防部长伦斯斐	-16564
▁白宫发言人佛莱谢说	-16565
▁使	-16566
▁博	-16567
▁广	-16568
▁斯	-16569
▁派	-16570
一七	-16571
一代	-16572
一劫	-16573
一看	-16574
万式	-16575
三起	-16576
不儘	-16577
不懂	-16578
不比	-16579
丢掉	-16580
个国	-16581
中山	-16582
主冒	-16583
义的	-16584
之名	-16585
亘正	-16586
产下	-16587
人门	-16588
令外	-16589
以方	-16590
休旅	-16591
伤患	-16592
低价	-16593
佐娃	-16594
侮辱	-16595
储量	-16596
先例	-16597
光纤	-16598
关颖	-16599
内有	-16600
军韦	-16601
几家	-16602
出手	-16603
制成	-16604
剂量	-16605
协力	-16606
协肋	-16607
卡瑞	-16608
却有	-16609
压迫	-16610
参展	-16611
反扑	-16612
发育	-16613
可使	-16614
可让	-16615
台海	-16616
名次	-16617
名流	-16618
名誉	-16619
后所	-16620
吕行	-16621
商的	-16622
商议	-16623
地检	-16624
埋在	-16625
塔瓦	-16626
复元	-16627
多科	-16628
太华	-16629
头巾	-16630
奈特	-16631
孙子	-16632
守卫	-16633
宏观	-16634
察觉	-16635
小国	-16636
居次	-16637
展高	-16638
带的	-16639
并论	-16640
应是	-16641
往返	-16642
征召	-16643
很不	-16644
志工	-16645
急需	-16646
悄悄	-16647
情别	-16648
我和	-16649
战况	-16650
戴尔	-16651
扩充	-16652
挣扎	-16653
摄护	-16654
放款	-16655
斯勒	-16656
是二	-16657
普查	-16658
机长	-16659
杜瓦	-16660
欲是	-16661
沈重	-16662
沉船	-16663
洗衣	-16664
活塞	-16665
激素	-16666
烟雾	-16667
犯了	-16668
献金	-16669
现况	-16670
用餐	-16671
的十	-16672
的回	-16673
的山	-16674
着重	-16675
绍尔	-16676
给她	-16677
缴械	-16678
翻印	-16679
老化	-16680
肘代	-16681
能将	-16682
舒适	-16683
艾利	-16684
艾米	-16685
茴次	-16686
莉雅	-16687
莫夫	-16688
落地	-16689
行经	-16690
要看	-16691
解救	-16692
订户	-16693
认莫	-16694
记载	-16695
象是	-16696
走的	-16697
走进	-16698
跟她	-16699
身价	-16700
过量	-16701
邹长	-16702
重现	-16703
重获	-16704
银幕	-16705
问鼎	-16706
顶袖	-16707
预朗	-16708
首侣	-16709
龙江	-16710
▁上月	-16711
▁不愿	-16712
▁人们	-16713
▁以军	-16714
▁佛州	-16715
▁到了	-16716
▁大宇	-16717
▁整个	-16718
▁日东	-16719
▁明天	-16720
▁此前	-16721
▁银行	-16722
两千人	-16723
主席的	-16724
也开始	-16725
你们的	-16726
六月底	-16727
军政府	-16728
到中国	-16729
劳动节	-16730
势均力	-16731
十八洞	-16732
南德拉	-16733
占上风	-16734
受到的	-16735
可是我	-16736
可能于	-16737
可能比	-16738
吸引了	-16739
和华府	-16740
和澳洲	-16741
四天的	-16742
在会议	-16743
在埃及	-16744
在此次	-16745
在目前	-16746
在第一	-16747
在进行	-16748
学生的	-16749
将于二	-16750
将可以	-16751
尼尔说	-16752
居住的	-16753
已承诺	-16754
帮我们	-16755
开幕式	-16756
当我们	-16757
成年人	-16758
我们是	-16759
所在地	-16760
政府所	-16761
是自从	-16762
暴风雪	-16763
曰本人	-16764
最高点	-16765
有资格	-16766
杜雀娃	-16767
来访的	-16768
极右派	-16769
每年有	-16770
法国人	-16771
浦西斯	-16772
玫击的	-16773
班迪恩	-16774
理论上	-16775
电子业	-16776
的一支	-16777
的禁令	-16778
的范围	-16779
的评论	-16780
的金额	-16781
的难民	-16782
看好的	-16783
稳定的	-16784
第二任	-16785
第四个	-16786
经济部	-16787
菁英赛	-16788
行动是	-16789
被送到	-16790
证监会	-16791
谈判中	-16792
豪元的	-16793
赖昌星	-16794
达希尔	-16795
这两项	-16796
这显示	-16797
遭淘汰	-16798
镇附近	-16799
阿尔卑	-16800
集会时	-16801
5000	-16802
▁中新网	-16803
▁司法部	-16804
▁安南说	-16805
▁美元兑	-16806
。900	-16807
举行双边	-16808
于二一年	-16809
今天誓告	-16810
伸出援手	-16811
作成决定	-16812
使用这种	-16813
保护措施	-16814
内阁宫房	-16815
内阁部长	-16816
创纪录的	-16817
十三日在	-16818
十六日在	-16819
南部城市	-16820
叛乱活动	-16821
和义大利	-16822
在喀布尔	-16823
在此同时	-16824
外交事务	-16825
央行总裁	-16826
女士表示	-16827
安全官员	-16828
密苏里州	-16829
必须采取	-16830
恐饰份子	-16831
恢复对话	-16832
意见分歧	-16833
感到遗憾	-16834
我们将在	-16835
所产生的	-16836
所使用的	-16837
攻击美国	-16838
新政府的	-16839
期货价格	-16840
殖民统治	-16841
瑞士法郎	-16842
生物学家	-16843
的会谈中	-16844
的支持度	-16845
的目标是	-16846
研究撮告	-16847
艾拉卡特	-16848
菖万美元	-16849
观光胜地	-16850
进行检验	-16851
逃过一劫	-16852
▁声明指出	-16853
▁这项协议	-16854
一级方程式	-16855
三十八岁的	-16856
东南亚国协	-16857
五十三岁的	-16858
在耶路撒冷	-16859
塔斯社引述	-16860
备受争议的	-16861
太平洋地区	-16862
晋级第二轮	-16863
朝鲜半岛的	-16864
电视新闻网	-16865
贸易自由化	-16866
▁中国外交部	-16867
▁佛罗里达州	-16868
▁菲律宾总统	-16869
民主反对联盟	-16870
汽车炸弹攻击	-16871
炸弹爆炸事件	-16872
百分之三十六	-16873
总统米洛塞维奇	-16874
第二次世界大战	-16875
美国联邦调查局	-16876
中国国家主席江泽民	-16877
59	-16878
69	-16879
一颗	-16880
三场	-16881
三季	-16882
丙度	-16883
东司	-16884
中对	-16885
中正	-16886
九成	-16887
交警	-16888
交运	-16889
仅剩	-16890
他因	-16891
他想	-16892
价码	-16893
传给	-16894
体质	-16895
保全	-16896
保镳	-16897
信号	-16898
修理	-16899
光明	-16900
党在	-16901
公汗	-16902
公河	-16903
典范	-16904
冒着	-16905
出门	-16906
初次	-16907
功课	-16908
化工	-16909
匹柏	-16910
医治	-16911
印呢	-16912
却未	-16913
卵巢	-16914
厨房	-16915
去除	-16916
受邀	-16917
口症	-16918
台玩	-16919
吉奇	-16920
同业	-16921
呕吐	-16922
周知	-16923
哈希	-16924
因萦	-16925
团长	-16926
声请	-16927
壶示	-16928
多顶	-16929
天价	-16930
夺金	-16931
奥里	-16932
她已	-16933
好让	-16934
定为	-16935
客人	-16936
对相	-16937
将球	-16938
尼兹	-16939
岩石	-16940
平稳	-16941
度纳	-16942
延到	-16943
录示	-16944
彰显	-16945
心态	-16946
心灵	-16947
性情	-16948
恫吓	-16949
意议	-16950
慰问	-16951
打工	-16952
托说	-16953
扣除	-16954
抗体	-16955
护卫	-16956
招架	-16957
指认	-16958
挪用	-16959
描绘	-16960
改艮	-16961
政洽	-16962
数次	-16963
断绝	-16964
旋风	-16965
时段	-16966
明鲜	-16967
昐望	-16968
暴跌	-16969
月底	-16970
有十	-16971
有空	-16972
根除	-16973
格的	-16974
案情	-16975
气喘	-16976
注定	-16977
深具	-16978
火爆	-16979
环比	-16980
理财	-16981
电气	-16982
的西	-16983
破了	-16984
硬体	-16985
神户	-16986
索赔	-16987
约达	-16988
维安	-16989
维特	-16990
维系	-16991
网域	-16992
胸部	-16993
苏贝	-16994
荣幸	-16995
蒙德	-16996
虚弱	-16997
课税	-16998
豪宅	-16999
资方	-17000
过滤	-17001
过高	-17002
连战	-17003
适到	-17004
通告	-17005
都可	-17006
都说	-17007
难免	-17008
领寻	-17009
风力	-17010
高压	-17011
高点	-17012
高空	-17013
黑暗	-17014
▁卫冕	-17015
▁叛军	-17016
▁爆炸	-17017
▁辛赫	-17018
一切都	-17019
三十人	-17020
三干名	-17021
三日在	-17022
三美元	-17023
下一代	-17024
下来的	-17025
下议院	-17026
不会对	-17027
个月来	-17028
买东西	-17029
二十亿	-17030
交货的	-17031
仅表示	-17032
他们被	-17033
伊利诺	-17034
但他的	-17035
作最后	-17036
八日在	-17037
公布了	-17038
则认为	-17039
创始人	-17040
利益的	-17041
十一天	-17042
十三亿	-17043
十六个	-17044
十四岁	-17045
台湾省	-17046
和宗教	-17047
和政治	-17048
在一处	-17049
在地上	-17050
在明天	-17051
在法庭	-17052
安乐死	-17053
家人的	-17054
将造成	-17055
将高达	-17056
就已经	-17057
工作者	-17058
市附近	-17059
并呼盱	-17060
并接受	-17061
当局也	-17062
当局对	-17063
当时他	-17064
总理乔	-17065
我一直	-17066
我无法	-17067
才开始	-17068
提并论	-17069
昆主党	-17070
是在二	-17071
末说明	-17072
柏格说	-17073
此一来	-17074
演出的	-17075
爆炸性	-17076
的中东	-17077
的人们	-17078
的军队	-17079
的相关	-17080
的经费	-17081
的预期	-17082
相反的	-17083
知名度	-17084
简单的	-17085
经理人	-17086
而造成	-17087
自己是	-17088
致命性	-17089
行为的	-17090
被用来	-17091
设立的	-17092
达佛区	-17093
过去曾	-17094
还会有	-17095
连体婴	-17096
迪击炮	-17097
那么多	-17098
那加福	-17099
部队和	-17100
里表示	-17101
间林顿	-17102
预期将	-17103
▁台北市	-17104
▁台湾的	-17105
▁数百名	-17106
▁莱斯说	-17107
一九九七	-17108
一如继往	-17109
不断升高	-17110
不过他们	-17111
两场比赛	-17112
二十五人	-17113
全国人大	-17114
加入欧元	-17115
卡车司机	-17116
参赛资格	-17117
反托辣斯	-17118
受欢迎的	-17119
喀什米尔	-17120
国际组织	-17121
外汇存底	-17122
外相史卓	-17123
大幅成长	-17124
女子网球	-17125
尤其是在	-17126
展开为期	-17127
工业指数	-17128
快速成长	-17129
成干上万	-17130
抵达北京	-17131
提出控告	-17132
携手合作	-17133
核武危机	-17134
比利时的	-17135
没有必要	-17136
泰晤士报	-17137
生活方式	-17138
画面显示	-17139
的大部分	-17140
石油价格	-17141
观察组织	-17142
这项消息	-17143
进行对话	-17144
透过电话	-17145
锦标赛中	-17146
▁朝日新闻	-17147
▁经济学家	-17148
为百分之三	-17149
六月三十曰	-17150
坦米尔之虎	-17151
安全委员会	-17152
成为第一位	-17153
最大规模的	-17154
核能发电厂	-17155
格林威尔号	-17156
民主党议员	-17157
海军陆战队	-17158
拥有核子武器	-17159
百分之二十七	-17160
百分之六十五	-17161
九月十一日美国	-17162
助理国务卿凯利	-17163
在记者会上表示	-17164
禁止核子扩散条约	-17165
阿布沙伊夫游击队	-17166
09	-17167
▁坎	-17168
▁年	-17169
、、	-17170
一六	-17171
一案	-17172
七分	-17173
七项	-17174
万吨	-17175
万斯	-17176
下葬	-17177
不艮	-17178
丑闾	-17179
丢掷	-17180
中点	-17181
为平	-17182
也没	-17183
书的	-17184
乳牛	-17185
事前	-17186
休斯	-17187
伤重	-17188
余人	-17189
佛像	-17190
你好	-17191
侦查	-17192
俱增	-17193
假帐	-17194
兑换	-17195
党政	-17196
公克	-17197
冲进	-17198
凌虐	-17199
凯萨	-17200
务实	-17201
南美	-17202
即被	-17203
参访	-17204
发送	-17205
变数	-17206
后又	-17207
周的	-17208
器材	-17209
四国	-17210
国语	-17211
地夫	-17212
场外	-17213
均在	-17214
培养	-17215
墨尼	-17216
大炮	-17217
它也	-17218
它说	-17219
安徽	-17220
宰杀	-17221
家畜	-17222
尖峰	-17223
居间	-17224
山上	-17225
峡谷	-17226
巴姆	-17227
巴特	-17228
床上	-17229
庭讯	-17230
建言	-17231
开往	-17232
归化	-17233
当成	-17234
彗星	-17235
征兆	-17236
必耍	-17237
思维	-17238
性别	-17239
惩处	-17240
我爱	-17241
抢得	-17242
掠夺	-17243
探勘	-17244
撤走	-17245
收押	-17246
政客	-17247
方说	-17248
施放	-17249
旱在	-17250
时光	-17251
明朗	-17252
昕有	-17253
春季	-17254
有待	-17255
有数	-17256
有着	-17257
极了	-17258
柏曼	-17259
染上	-17260
标制	-17261
残余	-17262
水中	-17263
水兵	-17264
永苜	-17265
流向	-17266
浪漫	-17267
涠戒	-17268
涨势	-17269
渠中	-17270
灭火	-17271
然大	-17272
狂热	-17273
独特	-17274
狭窄	-17275
生殖	-17276
用了	-17277
皇宫	-17278
监控	-17279
盒子	-17280
盟顿	-17281
矛头	-17282
硬币	-17283
碍于	-17284
礼服	-17285
繁忙	-17286
组约	-17287
而致	-17288
耶天	-17289
自首	-17290
舌动	-17291
茱蒂	-17292
莒收	-17293
菖席	-17294
装设	-17295
视力	-17296
警示	-17297
访间	-17298
该署	-17299
详述	-17300
调控	-17301
赤道	-17302
跑出	-17303
转达	-17304
选拔	-17305
邮务	-17306
阴霾	-17307
阿裔	-17308
随身	-17309
隔夜	-17310
震动	-17311
顽抗	-17312
颁布	-17313
风光	-17314
首场	-17315
马哈	-17316
驱动	-17317
骑兵	-17318
▁三菱	-17319
▁东芝	-17320
▁劳工	-17321
▁史密	-17322
▁昨晚	-17323
▁机场	-17324
▁汽车	-17325
▁读卖	-17326
▁麦可	-17327
一九一	-17328
一直未	-17329
七日在	-17330
万人次	-17331
三百人	-17332
下星期	-17333
为重要	-17334
也已经	-17335
也强调	-17336
亚利桑	-17337
人权的	-17338
他对于	-17339
以交换	-17340
以武力	-17341
作任何	-17342
关键性	-17343
列火车	-17344
则报导	-17345
十九个	-17346
只花了	-17347
和社会	-17348
在一场	-17349
在一次	-17350
在伊朗	-17351
在调查	-17352
墓地的	-17353
威而钢	-17354
存美国	-17355
将出席	-17356
将利用	-17357
已拒绝	-17358
巴黎的	-17359
幕僚长	-17360
德国队	-17361
我们应	-17362
打交道	-17363
托拉波	-17364
报告的	-17365
时间来	-17366
昆都兹	-17367
昨天曾	-17368
是一件	-17369
是亚洲	-17370
是欧洲	-17371
有五名	-17372
本身的	-17373
束埔寨	-17374
极可能	-17375
核燃料	-17376
民调中	-17377
气象厅	-17378
流行病	-17379
爱阿华	-17380
环境下	-17381
环境的	-17382
球队的	-17383
甘比尔	-17384
病患的	-17385
的三个	-17386
的产量	-17387
的天气	-17388
的宗教	-17389
的小孩	-17390
的成果	-17391
的来源	-17392
的欢迎	-17393
的病人	-17394
省省长	-17395
石油的	-17396
第十五	-17397
约翰松	-17398
给台湾	-17399
罗马队	-17400
而引发	-17401
联合会	-17402
被列入	-17403
被要求	-17404
较小的	-17405
这种事	-17406
▁在英国	-17407
▁在这个	-17408
▁希拉蕊	-17409
▁我知道	-17410
▁裴瑞斯	-17411
一个月的	-17412
三十五分	-17413
三十五名	-17414
下午四时	-17415
不利影响	-17416
二十一曰	-17417
二百六十	-17418
五月一日	-17419
人工验票	-17420
今年元月	-17421
他们可以	-17422
以一比一	-17423
住院治疗	-17424
公共工程	-17425
公司总裁	-17426
内阁改组	-17427
军事玫击	-17428
发展计划	-17429
可能影响	-17430
名列前矛	-17431
和塔利班	-17432
在这方面	-17433
坚决反对	-17434
我们准备	-17435
戒备森严	-17436
所带来的	-17437
所提供的	-17438
提供援助	-17439
摇摇欲坠	-17440
数以百计	-17441
方面表示	-17442
昨天晚上	-17443
普遍认为	-17444
有关方面	-17445
服用禁药	-17446
枪击事件	-17447
电视辩论	-17448
电话公司	-17449
的不确定	-17450
的前一天	-17451
目前仍在	-17452
目前尚末	-17453
组成一个	-17454
继续维持	-17455
罪名起诉	-17456
还有许多	-17457
这项判决	-17458
遭到杀害	-17459
遭到破坏	-17460
里兹联队	-17461
▁我们希望	-17462
▁新华社说	-17463
▁最高法院	-17464
▁读卖新闻	-17465
一九七八年	-17466
一九八三年	-17467
两千万美元	-17468
两干万美元	-17469
伊拉克政府	-17470
田径锦标赛	-17471
约翰尼斯堡	-17472
职棒大联盟	-17473
贝兽斯柯尼	-17474
陈水扁总统	-17475
▁南韩国防部	-17476
▁研究人员说	-17477
以低于标准杆	-17478
和平号太空站	-17479
回教解放阵线	-17480
国务院发言人	-17481
百分之二点五	-17482
百分之四十四	-17483
美国经济成长	-17484
阿富汗塔利班政权	-17485
▁巴勒斯坦领袖阿拉法特	-17486
▁何	-17487
▁向	-17488
一夜	-17489
一律	-17490
一线	-17491
丁堡	-17492
三种	-17493
不公	-17494
不具	-17495
不讳	-17496
与她	-17497
东海	-17498
两兆	-17499
两点	-17500
亩斗	-17501
亲近	-17502
代为	-17503
件况	-17504
休会	-17505
优于	-17506
伟禁	-17507
但其	-17508
但罡	-17509
住所	-17510
先是	-17511
六成	-17512
六次	-17513
农林	-17514
减免	-17515
则对	-17516
剧中	-17517
南区	-17518
南淳	-17519
博览	-17520
卡塔	-17521
印刷	-17522
印痘	-17523
发砚	-17524
可为	-17525
吸食	-17526
和在	-17527
哈说	-17528
商养	-17529
器的	-17530
四至	-17531
地上	-17532
地立	-17533
坠入	-17534
基改	-17535
填补	-17536
大感	-17537
如令	-17538
妥当	-17539
姿味	-17540
宁愿	-17541
家庄	-17542
将能	-17543
尊敬	-17544
小区	-17545
层的	-17546
州市	-17547
年间	-17548
并让	-17549
弊端	-17550
强国	-17551
影坛	-17552
影音	-17553
总种	-17554
悉数	-17555
想在	-17556
意昧	-17557
成行	-17558
成龙	-17559
戒烟	-17560
战备	-17561
报警	-17562
拉潘	-17563
拱手	-17564
挑起	-17565
损毁	-17566
探望	-17567
放火	-17568
无限	-17569
昔日	-17570
普敦	-17571
机票	-17572
李契	-17573
李德	-17574
格外	-17575
欢欣	-17576
款待	-17577
正以	-17578
毒素	-17579
污水	-17580
沈没	-17581
洽谈	-17582
清处	-17583
潮流	-17584
烟火	-17585
熟悉	-17586
特里	-17587
现茌	-17588
珠宝	-17589
疏乎	-17590
疗养	-17591
的伊	-17592
的哈	-17593
真主	-17594
真顿	-17595
社团	-17596
神舟	-17597
穆勒	-17598
空服	-17599
签字	-17600
精准	-17601
约克	-17602
纲琴	-17603
经莒	-17604
网队	-17605
耶斯	-17606
肖像	-17607
腹泻	-17608
膨胀	-17609
莫元	-17610
菖拉	-17611
菖的	-17612
葛莱	-17613
蒲隆	-17614
言词	-17615
誉为	-17616
诙复	-17617
该行	-17618
辽宁	-17619
这恛	-17620
送达	-17621
都拉	-17622
金恩	-17623
钢琴	-17624
问道	-17625
陌生	-17626
降下	-17627
雅拉	-17628
集合	-17629
▁她的	-17630
▁对此	-17631
▁很多	-17632
▁日前	-17633
▁相关	-17634
▁联军	-17635
一天的	-17636
一年后	-17637
一般人	-17638
一部分	-17639
三十岁	-17640
上升至	-17641
下台后	-17642
两国间	-17643
为一百	-17644
也发生	-17645
二千名	-17646
二百名	-17647
于八月	-17648
人员与	-17649
他们就	-17650
他们要	-17651
他准备	-17652
他本人	-17653
他自己	-17654
任务是	-17655
企业和	-17656
克莱门	-17657
八十名	-17658
其中的	-17659
冠军战	-17660
劳动省	-17661
十一万	-17662
及中国	-17663
反禁药	-17664
受到了	-17665
可疑的	-17666
向他们	-17667
向法院	-17668
和他们	-17669
四日在	-17670
四百人	-17671
因此而	-17672
国主义	-17673
国家中	-17674
地主国	-17675
型飞弹	-17676
复苏的	-17677
大量的	-17678
太空中	-17679
奥运的	-17680
妮佐娃	-17681
官员和	-17682
家乐福	-17683
尼坦雅	-17684
已加强	-17685
已呼吁	-17686
已导致	-17687
已提出	-17688
并同意	-17689
并将在	-17690
并购案	-17691
开会时	-17692
总人口	-17693
情不自	-17694
所学校	-17695
无辜的	-17696
时报说	-17697
曾两度	-17698
有四名	-17699
有多达	-17700
枪战中	-17701
检查哨	-17702
正进行	-17703
毕业生	-17704
海默症	-17705
消耗量	-17706
滑落到	-17707
热气球	-17708
理事长	-17709
瑞斯说	-17710
瓦斯涅	-17711
生活中	-17712
电信业	-17713
的主谋	-17714
的估计	-17715
的强烈	-17716
的手段	-17717
的水平	-17718
的法案	-17719
的详细	-17720
的预估	-17721
等议题	-17722
纳表示	-17723
维芳迪	-17724
网路的	-17725
节车厢	-17726
菲利浦	-17727
藤森谦	-17728
被询及	-17729
解决了	-17730
计画将	-17731
谈话中	-17732
这么多	-17733
这位前	-17734
这将使	-17735
遭警方	-17736
麦卡尼	-17737
▁专家说	-17738
▁参议院	-17739
▁孟加拉	-17740
▁蒲亭说	-17741
▁阿巴斯	-17742
下午五时	-17743
两国领袖	-17744
二年十月	-17745
于十一月	-17746
五十年来	-17747
交货价格	-17748
今年十月	-17749
关系密切	-17750
冲突事件	-17751
凌晨一时	-17752
加州州长	-17753
加强合作	-17754
十四岁的	-17755
受到威胁	-17756
受到感染	-17757
同时指出	-17758
向下修正	-17759
实况转播	-17760
层出不穷	-17761
德国选手	-17762
总统任期	-17763
情况良好	-17764
支持这项	-17765
暴力活动	-17766
武器扩散	-17767
没有理由	-17768
町村信孝	-17769
的录影带	-17770
的报导说	-17771
直接投资	-17772
第三季的	-17773
第四季的	-17774
级驱逐舰	-17775
美国希望	-17776
联赛冠军	-17777
能源总署	-17778
自治政府	-17779
获得胜利	-17780
菲律宾人	-17781
被任命为	-17782
要求他们	-17783
要求政府	-17784
规模最大	-17785
调查撮告	-17786
超级市场	-17787
足球劲旅	-17788
这种情形	-17789
阿尔及尔	-17790
▁赖比瑞亚	-17791
▁这项会议	-17792
▁这项报告	-17793
▁除此之外	-17794
一名发言人	-17795
三十三岁的	-17796
三干万美元	-17797
五十四岁的	-17798
以色列坦克	-17799
伊拉克重建	-17800
六十三岁的	-17801
其他国家的	-17802
对美国经济	-17803
布希总统的	-17804
总理吴作栋	-17805
暨发展组织	-17806
欧洲联盟的	-17807
油国组织的	-17808
美国官员说	-17809
菲律宾政府	-17810
阿根廷选手	-17811
高级宫员说	-17812
▁本报讯记者	-17813
▁柯斯杜尼查	-17814
共和党参议员	-17815
温室效应气体	-17816
百分之三十七	-17817
百分之二十三	-17818
百分之二十八	-17819
百分之五十五	-17820
百分之四十五	-17821
自一九九九年	-17822
解决这个问题	-17823
财政部长史诺	-17824
击出低于标准杆	-17825
财政部长欧尼尔	-17826
▁石油输出国家组织	-17827
国家航空暨太空总署	-17828
民主党总统候选人凯瑞	-17829
▁薛	-17830
▁赵	-17831
下半	-17832
不堪	-17833
不肯	-17834
九亿	-17835
乡镇	-17836
亚佛	-17837
亩抖	-17838
他仍	-17839
以其	-17840
众人	-17841
伤口	-17842
俄方	-17843
保释	-17844
信奉	-17845
入院	-17846
全盘	-17847
公墓	-17848
其间	-17849
内含	-17850
写的	-17851
出入	-17852
出砚	-17853
列举	-17854
副总	-17855
加坡	-17856
加大	-17857
北非	-17858
厚的	-17859
叫停	-17860
可用	-17861
史丹	-17862
周谋	-17863
嘈音	-17864
四倍	-17865
土机	-17866
圣塔	-17867
地块	-17868
坦言	-17869
增派	-17870
壳牌	-17871
大半	-17872
它会	-17873
安尉	-17874
安照	-17875
定在	-17876
室的	-17877
富裕	-17878
市俯	-17879
开场	-17880
开张	-17881
开的	-17882
强度	-17883
心意	-17884
患病	-17885
惟动	-17886
想的	-17887
成积	-17888
成都	-17889
我所	-17890
扫除	-17891
招待	-17892
搏斗	-17893
撮说	-17894
改装	-17895
文艺	-17896
无去	-17897
日经	-17898
早菜	-17899
是与	-17900
月间	-17901
有此	-17902
期能	-17903
本质	-17904
李鹏	-17905
板上	-17906
染患	-17907
栖息	-17908
欢乐	-17909
止痛	-17910
步上	-17911
浓度	-17912
海洛	-17913
涪哥	-17914
溴洲	-17915
演练	-17916
潘基	-17917
灵魂	-17918
照常	-17919
熊猫	-17920
牛津	-17921
猴子	-17922
王位	-17923
田说	-17924
电路	-17925
相形	-17926
碰上	-17927
神鬼	-17928
积雪	-17929
筒短	-17930
约谈	-17931
纵使	-17932
纾困	-17933
罗素	-17934
羞入	-17935
联邛	-17936
能对	-17937
腹部	-17938
虔诚	-17939
衍生	-17940
表情	-17941
詹姆	-17942
讲述	-17943
试点	-17944
诚意	-17945
路径	-17946
路支	-17947
辉瑞	-17948
过敏	-17949
这冲	-17950
这趟	-17951
迟疑	-17952
追思	-17953
递交	-17954
道上	-17955
重型	-17956
门店	-17957
阔斧	-17958
雪察	-17959
鸡场	-17960
鸣枪	-17961
▁一直	-17962
▁为期	-17963
▁发现	-17964
▁后者	-17965
▁大家	-17966
▁美元	-17967
▁这笔	-17968
▁雷根	-17969
专注于	-17970
两人都	-17971
也同样	-17972
也应该	-17973
二美元	-17974
亚历山	-17975
产业的	-17976
他必须	-17977
以及与	-17978
会不会	-17979
估计的	-17980
停留在	-17981
克鲁兹	-17982
刃公司	-17983
别人的	-17984
加州的	-17985
十三岁	-17986
原族民	-17987
可兰经	-17988
可能要	-17989
同时在	-17990
哈发林	-17991
喀土木	-17992
四十岁	-17993
四千人	-17994
国会中	-17995
在柏林	-17996
在非洲	-17997
太阳系	-17998
如果要	-17999
威廉思	-18000
完整的	-18001
将决定	-18002
将协助	-18003
将派遣	-18004
将负责	-18005
将针对	-18006
就是在	-18007
尼尔森	-18008
工人的	-18009
广场上	-18010
应该要	-18011
强劲的	-18012
数十万	-18013
斯特丹	-18014
新回合	-18015
旅游业	-18016
是不是	-18017
是相当	-18018
最近才	-18019
有两人	-18020
来这里	-18021
标准的	-18022
椭圆形	-18023
汽车业	-18024
波多黎	-18025
温哥华	-18026
男朋友	-18027
的大楼	-18028
的好处	-18029
的嫌犯	-18030
的审判	-18031
的援助	-18032
的政党	-18033
的方案	-18034
的演出	-18035
的炸弹	-18036
的节目	-18037
的预算	-18038
的食物	-18039
的首席	-18040
目的地	-18041
第一项	-18042
等国家	-18043
给中国	-18044
而获得	-18045
至今已	-18046
致词时	-18047
要求在	-18048
诺瓦克	-18049
贫穷的	-18050
这种新	-18051
这里的	-18052
马可仕	-18053
麦克威	-18054
▁在纽约	-18055
▁小布希	-18056
▁瓦巴依	-18057
▁财政部	-18058
万欧元的	-18059
三千八百	-18060
不愿说明	-18061
中国方面	-18062
乔治亚州	-18063
了一口气	-18064
二十三名	-18065
二十二名	-18066
于此同时	-18067
人士认为	-18068
元人民币	-18069
冠军头衔	-18070
冷战时期	-18071
医院接受	-18072
去年五月	-18073
反抗份子	-18074
哎击事件	-18075
场比赛中	-18076
多明尼加	-18077
威斯康辛	-18078
将于本月	-18079
当局今天	-18080
影艺学院	-18081
情报人员	-18082
我们决定	-18083
所举行的	-18084
排名世界	-18085
支持他的	-18086
政府机构	-18087
朝日新闻	-18088
欧洲议会	-18089
武装冲突	-18090
气候变化	-18091
狂牛症的	-18092
的一封信	-18093
的决议案	-18094
的行动中	-18095
的销售量	-18096
科学家说	-18097
美国人质	-18098
美国军事	-18099
获得解决	-18100
表达关切	-18101
身体健康	-18102
这场战争	-18103
这项调查	-18104
道格拉斯	-18105
间的关系	-18106
非常严重	-18107
龚萨雷兹	-18108
▁交易商说	-18109
▁柯林顿说	-18110
▁调查人员	-18111
一九七七年	-18112
为百分之四	-18113
事件发生后	-18114
二零一四年	-18115
五十九岁的	-18116
和巴勒斯坦	-18117
回教什叶派	-18118
库玛拉彤嘉	-18119
当选人布希	-18120
教科文组织	-18121
日本和南韩	-18122
的报导指出	-18123
美国与中国	-18124
芮氏规模六	-18125
进入伊拉克	-18126
于去年十二月	-18127
人民协商会议	-18128
今天在总奖额	-18129
参拜靖国神社	-18130
瑟琳娜威廉丝	-18131
百分之四十七	-18132
研究结果显示	-18133
联合军事演习	-18134
九一一恐怖玫击	-18135
难民事务高级专员公署	-18136
▁美国国务院发言人包润石	-18137
▁亲	-18138
▁合	-18139
▁季	-18140
▁应	-18141
▁提	-18142
▁朴	-18143
▁格	-18144
▁清	-18145
▁鲍	-18146
一班	-18147
上百	-18148
下场	-18149
不料	-18150
严惩	-18151
九分	-18152
也罡	-18153
争冠	-18154
五至	-18155
五项	-18156
交界	-18157
仅占	-18158
从小	-18159
代替	-18160
以赴	-18161
以轻	-18162
传来	-18163
余力	-18164
侣当	-18165
便衣	-18166
借贷	-18167
倾听	-18168
兰说	-18169
兴起	-18170
兹卡	-18171
再接	-18172
减低	-18173
凭等	-18174
击球	-18175
则从	-18176
前住	-18177
前曾	-18178
加雅	-18179
劣势	-18180
半夜	-18181
南欧	-18182
卡尼	-18183
即然	-18184
却被	-18185
受精	-18186
古事	-18187
可危	-18188
史奈	-18189
吉拉	-18190
吉林	-18191
同伙	-18192
和约	-18193
四胜	-18194
围困	-18195
在伊	-18196
地在	-18197
堆积	-18198
塔说	-18199
士官	-18200
夏普	-18201
多克	-18202
大于	-18203
失窃	-18204
头上	-18205
娃娃	-18206
孟年	-18207
容量	-18208
密度	-18209
就算	-18210
屋内	-18211
岌岌	-18212
布什	-18213
康乃	-18214
开议	-18215
得更	-18216
愤慨	-18217
或缺	-18218
戴上	-18219
手拍	-18220
抒缓	-18221
抓获	-18222
拉抬	-18223
指会	-18224
捕获	-18225
收缴	-18226
整修	-18227
旁观	-18228
日起	-18229
旱先	-18230
曰园	-18231
曾获	-18232
林德	-18233
染色	-18234
查核	-18235
树立	-18236
楼盘	-18237
欣喜	-18238
步行	-18239
残忍	-18240
气管	-18241
水坝	-18242
法人	-18243
海德	-18244
淡水	-18245
港币	-18246
溶入	-18247
澎湃	-18248
牛症	-18249
王国	-18250
瑞夫	-18251
瓦台	-18252
电机	-18253
畅旺	-18254
的黎	-18255
短程	-18256
破碎	-18257
硬件	-18258
神情	-18259
禁制	-18260
组叭	-18261
结算	-18262
罚金	-18263
美术	-18264
而代	-18265
职网	-18266
背包	-18267
胳针	-18268
脸上	-18269
自豪	-18270
舅子	-18271
莫军	-18272
莱尔	-18273
藉着	-18274
虽让	-18275
衣物	-18276
让后	-18277
谣传	-18278
负出	-18279
财源	-18280
败北	-18281
赚取	-18282
起即	-18283
跑者	-18284
踪影	-18285
轰出	-18286
过份	-18287
这张	-18288
迸行	-18289
适度	-18290
配套	-18291
金永	-18292
鏖战	-18293
问他	-18294
零时	-18295
霍华	-18296
香巷	-18297
鳄鱼	-18298
▁丰田	-18299
▁他还	-18300
▁即将	-18301
▁就是	-18302
▁据称	-18303
▁捷克	-18304
▁接近	-18305
▁智利	-18306
▁本届	-18307
▁沙芬	-18308
▁海珊	-18309
▁第三	-18310
▁罗伯	-18311
▁美方	-18312
▁距离	-18313
七曰在	-18314
三连霸	-18315
不会在	-18316
与古巴	-18317
与和平	-18318
两万人	-18319
个月前	-18320
中心说	-18321
之行的	-18322
也因为	-18323
也成为	-18324
了中国	-18325
人认为	-18326
他并且	-18327
他没有	-18328
以抗议	-18329
作上述	-18330
全球最	-18331
则指出	-18332
加油站	-18333
十一人	-18334
十二年	-18335
十八人	-18336
十公里	-18337
十六世	-18338
十六岁	-18339
十四万	-18340
协会说	-18341
占领的	-18342
及南韩	-18343
取消对	-18344
台湾人	-18345
各政党	-18346
向媒体	-18347
四十人	-18348
土石流	-18349
在南部	-18350
在台北	-18351
在大陆	-18352
地检署	-18353
培尔松	-18354
大爆炸	-18355
大都是	-18356
太大的	-18357
它已经	-18358
安全局	-18359
安那州	-18360
对人体	-18361
展主党	-18362
已逐渐	-18363
感觉到	-18364
憎加了	-18365
我们与	-18366
我们还	-18367
指控他	-18368
数分钟	-18369
斯图加	-18370
是否为	-18371
是基于	-18372
是属于	-18373
更安全	-18374
有不少	-18375
有利于	-18376
未透露	-18377
杰出的	-18378
海绵状	-18379
渥太华	-18380
湄公河	-18381
火箭队	-18382
爆炸物	-18383
父母亲	-18384
生命的	-18385
留学生	-18386
的关税	-18387
的准备	-18388
的前述	-18389
的后果	-18390
的差距	-18391
的意愿	-18392
的房子	-18393
的投票	-18394
的方向	-18395
的秘密	-18396
的警察	-18397
的评估	-18398
的金融	-18399
皮尔丝	-18400
科医师	-18401
第二的	-18402
精神号	-18403
萨德的	-18404
薪加坡	-18405
被取消	-18406
计画中	-18407
计画在	-18408
谈判后	-18409
负成长	-18410
这笔钱	-18411
通讯员	-18412
速水优	-18413
都受到	-18414
都希望	-18415
长期的	-18416
▁在伦敦	-18417
▁外交部	-18418
▁查维斯	-18419
▁观察家	-18420
万豪酒店	-18421
三千六百	-18422
中心主任	-18423
为伊拉克	-18424
五分之一	-18425
五十公里	-18426
今天接受	-18427
今天继续	-18428
他的家人	-18429
伊凡诺天	-18430
会上表示	-18431
健康问题	-18432
全国团结	-18433
八国集团	-18434
公共场所	-18435
出人意料	-18436
分析师说	-18437
前往北韩	-18438
势均力敌	-18439
参与这项	-18440
发动政变	-18441
叛乱分子	-18442
在二二年	-18443
基础建设	-18444
大学教授	-18445
太空探测	-18446
实施制裁	-18447
对于美国	-18448
将于十月	-18449
岌岌可危	-18450
希德马汀	-18451
总统卡赛	-18452
情报官员	-18453
感到愤怒	-18454
我们并末	-18455
投资人的	-18456
杯足球赛	-18457
格罗庞提	-18458
海啸侵袭	-18459
烟草公司	-18460
爆发以来	-18461
电脑公司	-18462
疑似感染	-18463
的大使馆	-18464
的领导人	-18465
监督机构	-18466
盖达组只	-18467
石油产量	-18468
种族隔离	-18469
维持不变	-18470
美国市场	-18471
能源价格	-18472
行政院长	-18473
警戒状态	-18474
访问北京	-18475
谈话中说	-18476
贸易盈余	-18477
过去十年	-18478
这种说法	-18479
这项发现	-18480
进行攻击	-18481
阿卡耶夫	-18482
阿尔卑斯	-18483
韩杜雀娃	-18484
飞弹防卫	-18485
▁国际传莫	-18486
▁国际奥会	-18487
▁媒体报导	-18488
▁时代杂志	-18489
▁根据一项	-18490
▁英国政府	-18491
世界各地的	-18492
数十人受伤	-18493
日益升高的	-18494
的塞尔维亚	-18495
研究中心的	-18496
自民党总裁	-18497
麻萨诸塞州	-18498
▁一九九七年	-18499
世界排名第一	-18500
什叶派回教徒	-18501
全国民主联盟	-18502
朝鲜民主主义	-18503
▁国际特赦组织	-18504
▁这名发言人说	-18505
北海布仑特原油	-18506
与俄罗斯总统蒲亭	-18507
▁信	-18508
▁精	-18509
▁网	-18510
▁青	-18511
上届	-18512
不善	-18513
不败	-18514
两造	-18515
中年	-18516
乎略	-18517
五国	-18518
亘季	-18519
交涉	-18520
人已	-18521
以八	-18522
伤心	-18523
低达	-18524
体坛	-18525
供需	-18526
侦办	-18527
俊雄	-18528
信的	-18529
克莉	-18530
党羽	-18531
军团	-18532
减薪	-18533
分店	-18534
刑警	-18535
到他	-18536
十国	-18537
去做	-18538
双发	-18539
双塔	-18540
句话	-18541
只差	-18542
只耍	-18543
可爱	-18544
各级	-18545
吉普	-18546
后座	-18547
咸长	-18548
哈维	-18549
哺乳	-18550
塑造	-18551
壑誉	-18552
大概	-18553
天才	-18554
失衡	-18555
契机	-18556
如下	-18557
妇人	-18558
姆说	-18559
宁泽	-18560
小麦	-18561
尔夫	-18562
尼柯	-18563
崛起	-18564
巨头	-18565
已不	-18566
已告	-18567
已婚	-18568
布来	-18569
布隆	-18570
广受	-18571
开办	-18572
忘了	-18573
思毫	-18574
总算	-18575
惊险	-18576
所苜	-18577
扭伤	-18578
拉伤	-18579
持刀	-18580
指的	-18581
排球	-18582
提说	-18583
提雅	-18584
擅长	-18585
斯汀	-18586
方而	-18587
时长	-18588
明罕	-18589
易于	-18590
是位	-18591
杜森	-18592
来宾	-18593
果子	-18594
模范	-18595
武警	-18596
民政	-18597
河水	-18598
注目	-18599
洞赛	-18600
流量	-18601
深远	-18602
港的	-18603
溥士	-18604
灵顿	-18605
片子	-18606
牢房	-18607
特务	-18608
特性	-18609
球奖	-18610
瑞特	-18611
生后	-18612
登说	-18613
真空	-18614
眼的	-18615
砚年	-18616
示范	-18617
称王	-18618
筹划	-18619
纳吉	-18620
纽喀	-18621
绕行	-18622
绝非	-18623
缓惶	-18624
罗兹	-18625
罗勃	-18626
罗德	-18627
美孚	-18628
美机	-18629
肝究	-18630
肯色	-18631
致歉	-18632
舰上	-18633
茴度	-18634
蝴蝶	-18635
衔接	-18636
装修	-18637
警政	-18638
语气	-18639
语音	-18640
误会	-18641
误差	-18642
诱因	-18643
诺鲁	-18644
课题	-18645
调节	-18646
谐商	-18647
赞许	-18648
起伏	-18649
起步	-18650
起跑	-18651
跳舞	-18652
身着	-18653
躲避	-18654
轮椅	-18655
运河	-18656
还以	-18657
这卷	-18658
追击	-18659
通撮	-18660
道夫	-18661
重炮	-18662
野洋	-18663
金援	-18664
问世	-18665
问蔻	-18666
阅兵	-18667
队与	-18668
防堵	-18669
防疫	-18670
阿玛	-18671
限购	-18672
雪佛	-18673
领写	-18674
风雨	-18675
首例	-18676
鲁兹	-18677
鳕果	-18678
鹰派	-18679
▁一架	-18680
▁中华	-18681
▁外界	-18682
▁太空	-18683
▁我很	-18684
▁政治	-18685
▁新航	-18686
▁阿诺	-18687
一九几	-18688
一周年	-18689
三宝颜	-18690
下午三	-18691
不久后	-18692
专家们	-18693
东北亚	-18694
个城市	-18695
为他的	-18696
之后说	-18697
于上周	-18698
于二月	-18699
交易员	-18700
交通部	-18701
以一百	-18702
以降低	-18703
伊朗的	-18704
会议时	-18705
传出后	-18706
但他说	-18707
但后来	-18708
作曲家	-18709
共同体	-18710
决定在	-18711
出席了	-18712
劫持的	-18713
化妆品	-18714
南华早	-18715
和另外	-18716
和家人	-18717
和莫他	-18718
在一顶	-18719
在南非	-18720
大会上	-18721
大问题	-18722
对所有	-18723
将军说	-18724
将加强	-18725
将用来	-18726
市场对	-18727
希望与	-18728
并不能	-18729
并敦促	-18730
开发中	-18731
影响的	-18732
微软的	-18733
怎么做	-18734
性骚扰	-18735
总统与	-18736
我看到	-18737
才得以	-18738
报今天	-18739
拒绝让	-18740
摧毁了	-18741
摩涪哥	-18742
支持他	-18743
新一轮	-18744
旅行社	-18745
日本与	-18746
是唯一	-18747
最高可	-18748
李光耀	-18749
林东源	-18750
核子弹	-18751
歌剧院	-18752
比赛后	-18753
然不同	-18754
珍妮佛	-18755
的回应	-18756
的大量	-18757
的开始	-18758
的撮告	-18759
的火车	-18760
的细胞	-18761
的莫他	-18762
的选择	-18763
相对的	-18764
破发点	-18765
而这是	-18766
节律宾	-18767
节目的	-18768
被控在	-18769
转变为	-18770
较前年	-18771
这一点	-18772
这两种	-18773
这种病	-18774
阿帕契	-18775
阿济兹	-18776
隐私权	-18777
隶属于	-18778
零组件	-18779
高雄市	-18780
▁不过在	-18781
▁戴凡波	-18782
▁电视台	-18783
▁美国在	-18784
▁英国的	-18785
▁这两名	-18786
▁这位前	-18787
一场比赛	-18788
万人口中	-18789
不太可能	-18790
与会人士	-18791
专家认为	-18792
世界大赛	-18793
严重威胁	-18794
中东情势	-18795
举行一项	-18796
五十美元	-18797
人士透露	-18798
亿人民币	-18799
今天中午	-18800
今天同意	-18801
从业集团	-18802
他们必须	-18803
令人意外	-18804
令人满意	-18805
以七比六	-18806
以色列与	-18807
信心指数	-18808
公开表示	-18809
其中一个	-18810
典型肺炎	-18811
划时代的	-18812
加护病房	-18813
北部地区	-18814
医疗人员	-18815
十五岁的	-18816
反以色列	-18817
可口可乐	-18818
回教教士	-18819
大刀阔斧	-18820
安全情势	-18821
对他们的	-18822
对我们的	-18823
将在下周	-18824
巴格达的	-18825
巴袁斯坦	-18826
希望借此	-18827
得不得了	-18828
恢复谈判	-18829
情不自尽	-18830
托拉波拉	-18831
日益增加	-18832
曰本政府	-18833
最惨重的	-18834
最近一次	-18835
有问题的	-18836
核子试爆	-18837
激进组织	-18838
第一阶段	-18839
紧急状况	-18840
美国人的	-18841
美国战机	-18842
获得晋级	-18843
藤森谦也	-18844
誓方表示	-18845
访问日本	-18846
身体状况	-18847
过去几天	-18848
过后不久	-18849
运动组织	-18850
这个星期	-18851
这是我们	-18852
追加预算	-18853
金大中的	-18854
银行帐户	-18855
▁山普拉斯	-18856
▁消息人士	-18857
▁这份报告	-18858
三十五岁的	-18859
三十四岁的	-18860
中东地区的	-18861
二百万美元	-18862
二零零二年	-18863
亿元人民币	-18864
他所领导的	-18865
以来的首次	-18866
分析家指出	-18867
卡西亚诺夫	-18868
发动大规模	-18869
后告诉记者	-18870
在二次大战	-18871
委员会表示	-18872
心脏病发作	-18873
排名第二的	-18874
欧盟会员国	-18875
瓦希德总统	-18876
经常帐赤字	-18877
经济不景气	-18878
菲律宾南部	-18879
通讯社引述	-18880
阿富汗人民	-18881
▁去年十二月	-18882
▁巴勒斯坦人	-18883
一名巴勒斯坦	-18884
分离主义份子	-18885
国际恐怖主义	-18886
圣伯多禄广场	-18887
百分之一点七	-18888
百分之一点三	-18889
百分之四十二	-18890
今天告诉法新社	-18891
▁菲律宾总统雅罗育	-18892
参谋首长联席会议主席迈尔斯	-18893
41	-18894
53	-18895
78	-18896
▁老	-18897
一堂	-18898
一角	-18899
上学	-18900
不耍	-18901
不舍	-18902
之闾	-18903
也向	-18904
也比	-18905
了前	-18906
亚州	-18907
产权	-18908
亿韩	-18909
他一	-18910
以供	-18911
企鹅	-18912
传单	-18913
传回	-18914
传票	-18915
传讯	-18916
低廉	-18917
低弱	-18918
偕同	-18919
停靠	-18920
偿债	-18921
克与	-18922
八天	-18923
六位	-18924
六四	-18925
共用	-18926
再添	-18927
冒出	-18928
军万	-18929
准动	-18930
准诣	-18931
办助	-18932
功臣	-18933
加里	-18934
务局	-18935
助力	-18936
十多	-18937
十岁	-18938
卧虎	-18939
即给	-18940
变跟	-18941
可观	-18942
吸姻	-18943
在全	-18944
在圣	-18945
坐牢	-18946
型车	-18947
外贸	-18948
多方	-18949
大工	-18950
大排	-18951
天下	-18952
天使	-18953
天妇	-18954
妮雅	-18955
威尼	-18956
宗旨	-18957
客场	-18958
寅他	-18959
对上	-18960
小吃	-18961
屈一	-18962
帆船	-18963
幼童	-18964
延搁	-18965
彩色	-18966
忠实	-18967
总量	-18968
愿景	-18969
慢长	-18970
成度	-18971
戒严	-18972
扩及	-18973
投给	-18974
投赘	-18975
抱歉	-18976
抱走	-18977
接手	-18978
救起	-18979
敢快	-18980
新书	-18981
方心	-18982
无视	-18983
无须	-18984
曾将	-18985
替补	-18986
末经	-18987
权限	-18988
李文	-18989
杜绝	-18990
查扣	-18991
查看	-18992
标志	-18993
歇尔	-18994
正为	-18995
死在	-18996
母牛	-18997
江苏	-18998
河川	-18999
法兹	-19000
淹水	-19001
港市	-19002
源于	-19003
爸霸	-19004
牛奶	-19005
牧师	-19006
瓦尔	-19007
生于	-19008
甲骨	-19009
盘中	-19010
目光	-19011
短曲	-19012
确凿	-19013
祈闻	-19014
穆迪	-19015
管的	-19016
系在	-19017
纳多	-19018
纳队	-19019
绩效	-19020
维纳	-19021
胜过	-19022
莫寺	-19023
装饰	-19024
要让	-19025
让它	-19026
谎言	-19027
赠送	-19028
较不	-19029
迎来	-19030
这处	-19031
这本	-19032
逃税	-19033
逃脱	-19034
逊说	-19035
逞在	-19036
锚误	-19037
静坐	-19038
风气	-19039
驱离	-19040
默默	-19041
▁原来	-19042
▁接着	-19043
▁直到	-19044
▁社会	-19045
▁稍后	-19046
▁询及	-19047
三曰在	-19048
不可思	-19049
与家人	-19050
与警方	-19051
中华队	-19052
中国是	-19053
为主题	-19054
为人质	-19055
也承认	-19056
也警告	-19057
亚军的	-19058
人感染	-19059
什图族	-19060
今天是	-19061
他们曾	-19062
他们有	-19063
他打算	-19064
他无法	-19065
以促进	-19066
伊拉芜	-19067
伯明罕	-19068
侦测到	-19069
先发制	-19070
八千名	-19071
八曰在	-19072
公开信	-19073
公里外	-19074
关节炎	-19075
再接再	-19076
出口的	-19077
分别在	-19078
制成的	-19079
力事件	-19080
十二万	-19081
华盟顿	-19082
卡巴拉	-19083
卡比拉	-19084
又发生	-19085
反恐战	-19086
受不了	-19087
古柯硷	-19088
和一个	-19089
和欧盟	-19090
因担心	-19091
土地上	-19092
在德州	-19093
多数党	-19094
失踪的	-19095
奥兰多	-19096
如果有	-19097
威尔森	-19098
嫌疑人	-19099
将出战	-19100
将立即	-19101
年以来	-19102
并准备	-19103
并可能	-19104
戏剧性	-19105
所发生	-19106
拉希德	-19107
文件中	-19108
旅行的	-19109
曾参与	-19110
条件是	-19111
柜当于	-19112
桑杰士	-19113
欧洲和	-19114
游泳池	-19115
独特的	-19116
甲骨文	-19117
疫苗的	-19118
瘾君子	-19119
的一般	-19120
的文化	-19121
的旅客	-19122
的最好	-19123
的船只	-19124
的讨论	-19125
的需要	-19126
的项目	-19127
目前尚	-19128
破纪录	-19129
穆萨维	-19130
第一百	-19131
签署了	-19132
签订的	-19133
维特说	-19134
被罢黜	-19135
被逮捕	-19136
西方的	-19137
诸如此	-19138
购房者	-19139
跟他们	-19140
选手艾	-19141
都同意	-19142
都非常	-19143
闻名的	-19144
龙太郎	-19145
1995	-19146
▁尤申科	-19147
一万六千	-19148
与塔利班	-19149
中国加入	-19150
什么时候	-19151
今天透露	-19152
他们可能	-19153
以色列对	-19154
冠军奖杯	-19155
双方同意	-19156
叛乱组织	-19157
四人死亡	-19158
因为它们	-19159
国泰航空	-19160
在上半场	-19161
在总奖金	-19162
在电话中	-19163
在维也纳	-19164
在英格兰	-19165
在雅加达	-19166
大多数的	-19167
大幅降低	-19168
天主教会	-19169
官方统计	-19170
宪法法庭	-19171
帕拉多恩	-19172
必须获得	-19173
总统宝座	-19174
情况稳定	-19175
成员之一	-19176
我的朋友	-19177
戴拉鲁亚	-19178
拥有核武	-19179
持续下去	-19180
提出要求	-19181
新力公司	-19182
无法立即	-19183
明鲜半岛	-19184
有朝一日	-19185
玛格丽特	-19186
生命危险	-19187
石涠公司	-19188
种族主义	-19189
竭尽全力	-19190
竹中平藏	-19191
签署协议	-19192
茉莉丝靡	-19193
行政部门	-19194
西南部的	-19195
踢进一球	-19196
这个机会	-19197
▁他指的是	-19198
▁南韩联合	-19199
▁该报引述	-19200
一百亿美元	-19201
伊拉克政权	-19202
十五亿美元	-19203
压倒性胜利	-19204
发表演说时	-19205
在布鲁塞尔	-19206
多科夫斯基	-19207
德意志银行	-19208
总统查维斯	-19209
恐怖份子的	-19210
数以干计的	-19211
日本外务省	-19212
松了一口气	-19213
温布顿网赛	-19214
的世界纪录	-19215
联合政府的	-19216
金大中总统	-19217
▁日本财务省	-19218
▁米洛塞维奇	-19219
北韩核子危机	-19220
百分之三点二	-19221
百分之零点六	-19222
美洲国家组织	-19223
自一九九八年	-19224
自由贸易区的	-19225
这起攻击事件	-19226
去年十二月二十	-19227
消费者物价指数	-19228
严重急性呼吸道症候群疫情	-19229
4。	-19230
▁摩	-19231
▁柴	-19232
▁省	-19233
一台	-19234
一早	-19235
一桩	-19236
一笔	-19237
丈天	-19238
三届	-19239
三至	-19240
上季	-19241
上是	-19242
不措	-19243
专制	-19244
世通	-19245
个性	-19246
主宰	-19247
义工	-19248
之手	-19249
之星	-19250
乐趣	-19251
习愤	-19252
买到	-19253
买施	-19254
争吵	-19255
五到	-19256
今茸	-19257
写作	-19258
农药	-19259
决战	-19260
击伤	-19261
刑法	-19262
医脘	-19263
十倍	-19264
单单	-19265
卖座	-19266
卡费	-19267
厘米	-19268
原谅	-19269
又被	-19270
反攻	-19271
同仁	-19272
和不	-19273
哈尔	-19274
哪儿	-19275
喉咙	-19276
四起	-19277
国歌	-19278
坚强	-19279
增为	-19280
复仇	-19281
大噪	-19282
天津	-19283
失手	-19284
妮兹	-19285
委国	-19286
威说	-19287
安诺	-19288
客运	-19289
害人	-19290
对阵	-19291
展主	-19292
山脉	-19293
岁月	-19294
工时	-19295
巨型	-19296
巴哈	-19297
巴迪	-19298
希林	-19299
带进	-19300
应声	-19301
底线	-19302
建成	-19303
开球	-19304
开革	-19305
弱势	-19306
往前	-19307
征求	-19308
成究	-19309
成衣	-19310
我只	-19311
我才	-19312
我最	-19313
我看	-19314
手腕	-19315
打死	-19316
扫描	-19317
拈供	-19318
拍落	-19319
拥护	-19320
挞伐	-19321
挥杆	-19322
捐献	-19323
揭发	-19324
摊牌	-19325
摧残	-19326
支住	-19327
日趋	-19328
旺口	-19329
明智	-19330
杜恩	-19331
来回	-19332
森的	-19333
民王	-19334
求偿	-19335
泄漏	-19336
法脘	-19337
法航	-19338
波尔	-19339
泽东	-19340
洛特	-19341
清算	-19342
满满	-19343
漠视	-19344
火警	-19345
热切	-19346
爆咋	-19347
爆破	-19348
犯行	-19349
珍娜	-19350
生死	-19351
生盲	-19352
畈军	-19353
的教	-19354
离家	-19355
空域	-19356
窃听	-19357
第第	-19358
筒单	-19359
答称	-19360
绝望	-19361
绿地	-19362
胰岛	-19363
脱颖	-19364
脸部	-19365
艾瑞	-19366
若不	-19367
英航	-19368
荒谬	-19369
荷西	-19370
菖朗	-19371
观望	-19372
规渍	-19373
譬察	-19374
记苔	-19375
讶异	-19376
论点	-19377
试飞	-19378
该机	-19379
起床	-19380
身手	-19381
转机	-19382
运往	-19383
运气	-19384
连下	-19385
选定	-19386
邦兹	-19387
配置	-19388
里奇	-19389
里奥	-19390
重类	-19391
重量	-19392
野说	-19393
金杯	-19394
门户	-19395
阔查	-19396
阴性	-19397
降为	-19398
降幅	-19399
零下	-19400
革新	-19401
顽强	-19402
领队	-19403
飞安	-19404
马蒂	-19405
马辛	-19406
骨髓	-19407
高校	-19408
高盛	-19409
鸦片	-19410
▁五月	-19411
▁依照	-19412
▁共有	-19413
▁教廷	-19414
▁现任	-19415
▁臼宫	-19416
▁赛后	-19417
▁迄今	-19418
▁这件	-19419
▁这条	-19420
▁首先	-19421
一菖在	-19422
三天内	-19423
下跌了	-19424
不要再	-19425
与国家	-19426
两国在	-19427
也是在	-19428
五比七	-19429
今天从	-19430
他支持	-19431
以争取	-19432
以及对	-19433
会影响	-19434
传出的	-19435
做的事	-19436
六十岁	-19437
凸显了	-19438
到最后	-19439
制造出	-19440
十一年	-19441
十三年	-19442
南方的	-19443
印度教	-19444
参加过	-19445
发斯特	-19446
各样的	-19447
同一个	-19448
向警方	-19449
和印尼	-19450
唐宁街	-19451
在本届	-19452
在爆炸	-19453
型客机	-19454
多元化	-19455
大企业	-19456
大会中	-19457
对布希	-19458
对政府	-19459
将不再	-19460
将寻求	-19461
将成长	-19462
就是要	-19463
年龄在	-19464
形容为	-19465
形成了	-19466
影片的	-19467
我喜欢	-19468
拒绝了	-19469
据称是	-19470
摇滚乐	-19471
新生儿	-19472
无异议	-19473
星期六	-19474
是导致	-19475
是透过	-19476
晚间在	-19477
曾多次	-19478
权力的	-19479
来处理	-19480
栋房屋	-19481
正当性	-19482
死者的	-19483
汽车和	-19484
波哥大	-19485
消防队	-19486
清莫寺	-19487
珍珠港	-19488
电动车	-19489
的一艘	-19490
的世养	-19491
的交通	-19492
的保证	-19493
的信徒	-19494
的士兵	-19495
的大幅	-19496
的布希	-19497
的幅度	-19498
的幕后	-19499
的成本	-19500
的支出	-19501
的收入	-19502
的政权	-19503
的肘间	-19504
的设计	-19505
的边界	-19506
的长期	-19507
的领导	-19508
皇马队	-19509
移民局	-19510
至少苜	-19511
节目中	-19512
花莲县	-19513
荷兰的	-19514
表现得	-19515
警察和	-19516
议题上	-19517
设定的	-19518
访问了	-19519
象征性	-19520
这两家	-19521
这意味	-19522
这方面	-19523
黑龙江	-19524
1996	-19525
▁小泉在	-19526
▁据美国	-19527
▁诺贝尔	-19528
一致通过	-19529
与此同时	-19530
主管官员	-19531
二十万人	-19532
人和一名	-19533
今天进入	-19534
今天通过	-19535
今年八月	-19536
他们是否	-19537
他的儿子	-19538
伊斯兰教	-19539
伊莉莎白	-19540
众所周知	-19541
俄罗斯与	-19542
六百五十	-19543
关键时刻	-19544
军事设施	-19545
减税方案	-19546
北部城市	-19547
医学中心	-19548
医院急救	-19549
十二曰在	-19550
华盛顿的	-19551
协调部长	-19552
南非选手	-19553
发射一枚	-19554
可能会有	-19555
国情咨文	-19556
大都会队	-19557
奥巴山约	-19558
安全理由	-19559
将在明年	-19560
布拉希米	-19561
平民丧生	-19562
当局已经	-19563
感到忧心	-19564
慈善机构	-19565
持续增加	-19566
接受媒体	-19567
提出控诉	-19568
撞机事件	-19569
支持者的	-19570
新任总统	-19571
明天将在	-19572
明确表示	-19573
曾经表示	-19574
机场起飞	-19575
武装团体	-19576
泰国政府	-19577
特区政府	-19578
王室成员	-19579
第二大城	-19580
第二阶段	-19581
米苏阿里	-19582
经济展望	-19583
美军士兵	-19584
自一九九	-19585
蓬勃发展	-19586
被人发现	-19587
讨论有关	-19588
调高利率	-19589
负责监督	-19590
这项攻击	-19591
迫切需要	-19592
送医治疗	-19593
逃离家园	-19594
选举人票	-19595
造成伤亡	-19596
部会首长	-19597
金融集团	-19598
镇压行动	-19599
▁他们两人	-19600
▁艾巴拉迪	-19601
七干万美元	-19602
举行历史性	-19603
二十万美元	-19604
五十六岁的	-19605
十一月二日	-19606
卫星电视台	-19607
四十四岁的	-19608
国家足球队	-19609
国际米兰队	-19610
将于十一月	-19611
展开大规模	-19612
我们的国家	-19613
攻击的目标	-19614
明尼苏达州	-19615
欧元兑美元	-19616
消费者物价	-19617
罗德里格斯	-19618
美国与欧洲	-19619
菲立浦西斯	-19620
里约热内卢	-19621
阿富汗东部	-19622
▁不愿具名的	-19623
四十八小时内	-19624
国际足球总会	-19625
百分之二十六	-19626
百分之五十二	-19627
百分之四十八	-19628
盖达组织成员	-19629
通用汽车公司	-19630
公开市场委员会	-19631
奥林匹克委员会	-19632
执行委员会主席	-19633
▁世界排名第一的	-19634
石油输出国家组只	-19635
▁兰	-19636
▁外	-19637
▁蔡	-19638
丁世	-19639
万至	-19640
三艘	-19641
上与	-19642
上方	-19643
不前	-19644
不绝	-19645
之类	-19646
买了	-19647
五号	-19648
亲眼	-19649
人马	-19650
仅管	-19651
付给	-19652
优良	-19653
伯恩	-19654
体积	-19655
侍别	-19656
偿付	-19657
先制	-19658
克力	-19659
全新	-19660
冰箱	-19661
冲入	-19662
决于	-19663
准啬	-19664
击溃	-19665
列在	-19666
剧烈	-19667
副本	-19668
加薪	-19669
助选	-19670
化了	-19671
午后	-19672
卡洛	-19673
卡通	-19674
反以	-19675
发炎	-19676
只剩	-19677
吉他	-19678
吉安	-19679
吾尔	-19680
员国	-19681
四季	-19682
回头	-19683
在意	-19684
在距	-19685
地缘	-19686
大权	-19687
天天	-19688
失效	-19689
存放	-19690
学金	-19691
安心	-19692
官万	-19693
宪兵	-19694
导游	-19695
小报	-19696
尽界	-19697
尾蛇	-19698
已和	-19699
当他	-19700
很长	-19701
得好	-19702
快递	-19703
怀念	-19704
性格	-19705
我真	-19706
打成	-19707
抗战	-19708
折磨	-19709
抢走	-19710
报酬	-19711
提防	-19712
摩擦	-19713
撤除	-19714
政敌	-19715
整整	-19716
斋月	-19717
断言	-19718
日皇	-19719
时就	-19720
普说	-19721
暖身	-19722
曰子	-19723
最旱	-19724
有于	-19725
有望	-19726
朝阳	-19727
未婚	-19728
枝术	-19729
树德	-19730
楚瑜	-19731
欧宪	-19732
止跌	-19733
正教	-19734
正轨	-19735
比四	-19736
没荀	-19737
注视	-19738
洋墓	-19739
活络	-19740
满贾	-19741
爷爷	-19742
狄亚	-19743
独占	-19744
独家	-19745
玛汀	-19746
珠儿	-19747
[...]
