<pad>	0
<unk>	0
<s>	0
</s>	0
美国	-0
表示	-1
今天	-2
我们	-3
二十	-4
公司	-5
他们	-6
中国	-7
日本	-8
政府	-9
可能	-10
总统	-11
▁这	-12
国家	-13
▁他	-14
官员	-15
美元	-16
经济	-17
拉克	-18
分之	-19
世界	-20
攻击	-21
伊拉克	-22
百分之	-23
一个	-24
布希	-25
报导	-26
▁美国	-27
组织	-28
这项	-29
进行	-30
目前	-31
▁在	-32
国际	-33
斯坦	-34
三十	-35
行动	-36
问题	-37
指出	-38
一九	-39
举行	-40
的一	-41
英国	-42
不过	-43
联合	-44
北韩	-45
因为	-46
已经	-47
地区	-48
没有	-49
发生	-50
今年	-51
会议	-52
希望	-53
安全	-54
一名	-55
包括	-56
去年	-57
恐怖	-58
要求	-59
以及	-60
十二	-61
以色	-62
以色列	-63
其他	-64
研究	-65
造成	-66
告诉	-67
记者	-68
支持	-69
认为	-70
调查	-71
人员	-72
五十	-73
这个	-74
事件	-75
发言	-76
罗斯	-77
这些	-78
▁他说	-79
法国	-80
部长	-81
南韩	-82
欧洲	-83
宣布	-84
发言人	-85
第一	-86
时间	-87
巴勒	-88
报告	-89
市场	-90
巴勒斯坦	-91
联合国	-92
四十	-93
俄罗斯	-94
一百	-95
第二	-96
可以	-97
工作	-98
全球	-99
会谈	-100
同时	-101
决定	-102
以来	-103
十一	-104
▁但	-105
有关	-106
增加	-107
领袖	-108
计划	-109
声明	-110
如果	-111
当局	-112
提出	-113
部队	-114
获得	-115
主要	-116
显示	-117
他的	-118
必须	-119
人士	-120
访问	-121
发表	-122
00	-123
一九九	-124
由于	-125
发现	-126
接受	-127
万美元	-128
计画	-129
比赛	-130
昨天	-131
代表	-132
开始	-133
之后	-134
成为	-135
警方	-136
最后	-137
将在	-138
其中	-139
活动	-140
一项	-141
根据	-142
个月	-143
十五	-144
新闻	-145
冠军	-146
澳洲	-147
富汗	-148
阿富汗	-149
成长	-150
贸易	-151
的人	-152
民主	-153
银行	-154
美军	-155
岁的	-156
遭到	-157
关系	-158
是在	-159
和平	-160
任何	-161
阿拉	-162
委员	-163
未来	-164
德国	-165
许多	-166
展开	-167
之前	-168
国会	-169
重要	-170
人民	-171
总理	-172
采取	-173
结果	-174
外交	-175
方面	-176
严重	-177
军事	-178
亿美元	-179
提供	-180
太空	-181
准备	-182
警告	-183
影响	-184
▁不过	-185
大的	-186
领导	-187
电视	-188
选手	-189
参加	-190
死亡	-191
欧盟	-192
情况	-193
北京	-194
联盟	-195
印度	-196
反对	-197
继续	-198
委员会	-199
国务	-200
政治	-201
爆炸	-202
回教	-203
武器	-204
丧生	-205
汽车	-206
这种	-207
这是	-208
台湾	-209
协议	-210
石油	-211
中心	-212
一千	-213
不会	-214
发展	-215
出现	-216
人的	-217
选举	-218
是否	-219
呼吁	-220
无法	-221
中说	-222
一直	-223
一年	-224
六十	-225
第三	-226
▁日本	-227
前往	-228
受到	-229
谈判	-230
结束	-231
公开	-232
消息	-233
所有	-234
正在	-235
政策	-236
因此	-237
自由	-238
自己	-239
使用	-240
纽约	-241
小时	-242
五百	-243
过去	-244
但是	-245
集团	-246
措施	-247
非常	-248
媒体	-249
合作	-250
投资	-251
并未	-252
月二十	-253
民众	-254
亚洲	-255
通过	-256
此一	-257
上周	-258
冲突	-259
国防	-260
企业	-261
同意	-262
虽然	-263
双方	-264
目标	-265
印尼	-266
官员说	-267
现在	-268
讨论	-269
日在	-270
十三	-271
生产	-272
达成	-273
卫生	-274
▁据	-275
今天在	-276
▁布希	-277
战争	-278
社会	-279
航空	-280
而且	-281
部分	-282
这次	-283
全国	-284
巴基	-285
协助	-286
份子	-287
巴基斯坦	-288
受伤	-289
▁根据	-290
主义	-291
举行的	-292
十四	-293
网路	-294
相当	-295
美国的	-296
年的	-297
最近	-298
一位	-299
证实	-300
特别	-301
进入	-302
联邦	-303
飞弹	-304
华盛	-305
十六	-306
华盛顿	-307
发动	-308
期间	-309
欧元	-310
核子	-311
对于	-312
解决	-313
努力	-314
▁这项	-315
将于	-316
香港	-317
最高	-318
系统	-319
需要	-320
至少	-321
主席	-322
赢得	-323
规模	-324
利亚	-325
--	-326
减少	-327
▁我	-328
正式	-329
十七	-330
五千	-331
持续	-332
十八	-333
运动	-334
高峰	-335
伊朗	-336
专家	-337
三百	-338
日圆	-339
指控	-340
的美国	-341
将会	-342
的是	-343
之一	-344
的大	-345
当地	-346
六比	-347
附近	-348
▁她	-349
病毒	-350
基金	-351
也是	-352
两百	-353
威胁	-354
上的	-355
警察	-356
负责	-357
为了	-358
炸弹	-359
投票	-360
机会	-361
布莱	-362
鲍尔	-363
医院	-364
纪录	-365
预定	-366
公里	-367
大陆	-368
成员	-369
地方	-370
新的	-371
当时	-372
首都	-373
两名	-374
情报	-375
三年	-376
拒绝	-377
危机	-378
白宫	-379
中的	-380
电话	-381
导致	-382
法院	-383
公布	-384
知道	-385
五年	-386
▁中国	-387
团体	-388
尽管	-389
稍早	-390
今天说	-391
有一	-392
他们的	-393
改革	-394
抗议	-395
九月	-396
分析	-397
交易	-398
十九	-399
▁此	-400
就是	-401
飞机	-402
三千	-403
科学	-404
之间	-405
引述	-406
城市	-407
制造	-408
奥运	-409
机构	-410
执行	-411
两个	-412
恢复	-413
菲律	-414
菲律宾	-415
南部	-416
国内	-417
来自	-418
感染	-419
出口	-420
中东	-421
保护	-422
的话	-423
恐怖攻击	-424
四百	-425
击败	-426
班牙	-427
西班牙	-428
共和	-429
爆发	-430
种子	-431
大学	-432
表现	-433
一日	-434
大利	-435
首相	-436
我们的	-437
产品	-438
针对	-439
新加	-440
一步	-441
消费	-442
法新	-443
超过	-444
预期	-445
首次	-446
并且	-447
二年	-448
相信	-449
拥有	-450
新加坡	-451
大使	-452
应该	-453
年来	-454
义大利	-455
取得	-456
大选	-457
▁英国	-458
法新社	-459
不是	-460
民主党	-461
所以	-462
中央	-463
担心	-464
时候	-465
台北	-466
大约	-467
会的	-468
科技	-469
总统布希	-470
处理	-471
人数	-472
男子	-473
再度	-474
西亚	-475
维持	-476
人丧生	-477
参与	-478
金融	-479
月份	-480
国务院	-481
共同	-482
暴力	-483
透露	-484
官方	-485
阿拉伯	-486
境内	-487
两千	-488
个人	-489
各国	-490
电脑	-491
完成	-492
斯特	-493
引发	-494
情势	-495
法特	-496
决赛	-497
最大	-498
爱滋	-499
阿拉法特	-500
抵达	-501
柯林	-502
建议	-503
感到	-504
的新	-505
泰国	-506
面临	-507
上述	-508
尚未	-509
历史	-510
他在	-511
方式	-512
销售	-513
如何	-514
服务	-515
任务	-516
二百	-517
相关	-518
塔利	-519
万人	-520
尼亚	-521
的问题	-522
加强	-523
加入	-524
塔利班	-525
学生	-526
利用	-527
明年	-528
油价	-529
担任	-530
进一步	-531
公开赛	-532
出的	-533
柯林顿	-534
▁该	-535
生活	-536
军方	-537
之际	-538
四年	-539
分钟	-540
北部	-541
开发	-542
能够	-543
▁一	-544
原因	-545
小泉	-546
公司的	-547
本周	-548
技术	-549
立即	-550
一起	-551
使得	-552
盖达	-553
第四	-554
两人	-555
控制	-556
议员	-557
可能会	-558
小组	-559
机场	-560
令人	-561
示威	-562
还有	-563
逮捕	-564
一点	-565
▁而	-566
名的	-567
的事	-568
更多	-569
叛军	-570
四千	-571
告诉记者	-572
重新	-573
高级	-574
足球	-575
报导说	-576
在美国	-577
另外	-578
工业	-579
加拿	-580
疾病	-581
他说	-582
华府	-583
成功	-584
寻求	-585
的经济	-586
多数	-587
一次	-588
在内	-589
并不	-590
六月	-591
又说	-592
只有	-593
达到	-594
▁一名	-595
排名	-596
来的	-597
领先	-598
主管	-599
二十五	-600
法庭	-601
环境	-602
完全	-603
一一	-604
推动	-605
一些	-606
立场	-607
高峰会	-608
重大	-609
拉夫	-610
事务	-611
本月	-612
二十四	-613
透过	-614
它们	-615
强调	-616
十月	-617
外国	-618
国务卿	-619
▁由于	-620
进口	-621
▁我们	-622
谈话	-623
两国	-624
货币	-625
了解	-626
土耳	-627
行为	-628
伦敦	-629
政权	-630
八年	-631
的情况	-632
土耳其	-633
电影	-634
六百	-635
成立	-636
巴格	-637
下午	-638
说明	-639
人口	-640
承诺	-641
紧急	-642
十二月	-643
拉登	-644
加拿大	-645
我的	-646
比亚	-647
三月	-648
宾拉登	-649
公尺	-650
九年	-651
病例	-652
对手	-653
都是	-654
改变	-655
反应	-656
危险	-657
引起	-658
什么	-659
承认	-660
管理	-661
法律	-662
内阁	-663
标准	-664
妇女	-665
外长	-666
队的	-667
儿童	-668
性的	-669
▁南韩	-670
东京	-671
建立	-672
压力	-673
预料	-674
签署	-675
决议	-676
规定	-677
不能	-678
考虑	-679
七日	-680
▁目前	-681
十一月	-682
自杀	-683
年度	-684
禁止	-685
越南	-686
各地	-687
不断	-688
今天表示	-689
治疗	-690
已有	-691
估计	-692
记者会	-693
单位	-694
演说	-695
网站	-696
基地	-697
召开	-698
实施	-699
与美国	-700
有些	-701
健康	-702
甚至	-703
的国家	-704
电视台	-705
▁他们	-706
位于	-707
分子	-708
不愿	-709
改善	-710
选人	-711
仍然	-712
巴格达	-713
的一项	-714
恐怖主义	-715
作为	-716
预算	-717
地区的	-718
即将	-719
指挥	-720
布莱尔	-721
▁阿	-722
球员	-723
首度	-724
发言人说	-725
电子	-726
人受伤	-727
九日	-728
五月	-729
发布	-730
四月	-731
检查	-732
觉得	-733
基金会	-734
停止	-735
国家的	-736
消息人士	-737
除了	-738
确定	-739
九一一	-740
很多	-741
广播	-742
法官	-743
国的	-744
学校	-745
财政	-746
经过	-747
三名	-748
告诉法新社	-749
自从	-750
▁这是	-751
组织的	-752
必要	-753
未能	-754
援助	-755
试图	-756
独立	-757
在二	-758
争议	-759
协定	-760
一场	-761
夏隆	-762
七月	-763
人权	-764
攻击事件	-765
方案	-766
部份	-767
已在	-768
居民	-769
竞争	-770
协会	-771
者的	-772
动物	-773
▁国际	-774
这位	-775
需求	-776
只是	-777
巴黎	-778
明天	-779
非洲	-780
执政	-781
海珊	-782
稳定	-783
人在	-784
大幅	-785
将是	-786
而言	-787
价格	-788
中国大陆	-789
看到	-790
这场	-791
一家	-792
不同	-793
会晤	-794
法案	-795
七年	-796
争取	-797
平壤	-798
离开	-799
员工	-800
武装	-801
的最	-802
面对	-803
朋友	-804
直接	-805
边界	-806
好的	-807
蒲亭	-808
紧张	-809
强烈	-810
能力	-811
七百	-812
保证	-813
高达	-814
一样	-815
地点	-816
官员表示	-817
六年	-818
成绩	-819
如今	-820
能源	-821
下的	-822
▁但是	-823
人类	-824
▁这位	-825
格兰	-826
尔斯	-827
星期	-828
二千	-829
▁世界	-830
二十二	-831
理事	-832
六日	-833
19	-834
内容	-835
巴西	-836
商业	-837
似乎	-838
律师	-839
对抗	-840
连续	-841
上午	-842
地震	-843
总署	-844
此项	-845
中共	-846
网球	-847
三日	-848
六千	-849
比较	-850
部门	-851
爱滋病	-852
▁这些	-853
曾经	-854
的前	-855
部署	-856
为止	-857
取消	-858
然后	-859
七千	-860
八日	-861
亿日圆	-862
声明中说	-863
▁法国	-864
基因	-865
▁新	-866
具有	-867
避免	-868
候选人	-869
一种	-870
▁以色列	-871
宣称	-872
出席	-873
打击	-874
拿下	-875
塞尔	-876
科学家	-877
办公	-878
疫情	-879
时报	-880
▁马	-881
大规模	-882
数字	-883
八十	-884
声明说	-885
最大的	-886
音乐	-887
伦斯	-888
欢迎	-889
不要	-890
一般	-891
这名	-892
大使馆	-893
如此	-894
▁联合国	-895
八月	-896
资料	-897
布希总统	-898
国防部长	-899
秘书	-900
一九八	-901
稍后	-902
发射	-903
工厂	-904
爆炸案	-905
大会	-906
全世界	-907
消费者	-908
显然	-909
领导人	-910
教宗	-911
七十	-912
升高	-913
项目	-914
恐怖份子	-915
现场	-916
尤其	-917
在伊拉克	-918
难民	-919
巴勒斯坦人	-920
士兵	-921
根廷	-922
统计	-923
斯科	-924
会员	-925
八百	-926
高尔	-927
意外	-928
约旦	-929
她的	-930
被捕	-931
▁警方	-932
信心	-933
主办	-934
数百	-935
现年	-936
的时候	-937
以前	-938
德里	-939
谴责	-940
几乎	-941
政府的	-942
提高	-943
预测	-944
▁俄罗斯	-945
一万	-946
每年	-947
证据	-948
晚间	-949
十一日	-950
教育	-951
选择	-952
长期	-953
司法	-954
然而	-955
航空公司	-956
传统	-957
另一	-958
直升	-959
军队	-960
破坏	-961
资讯	-962
回合	-963
莱斯	-964
的主要	-965
直升机	-966
欧洲联盟	-967
时代	-968
也将	-969
两天	-970
分别	-971
先前	-972
家庭	-973
瑞士	-974
胜利	-975
这样	-976
关切	-977
南亚	-978
发出	-979
国防部	-980
▁艾	-981
总部	-982
劳工	-983
基本	-984
可望	-985
伦斯斐	-986
利率	-987
昨晚	-988
三个	-989
电台	-990
挑战	-991
了一	-992
状况	-993
群众	-994
议题	-995
农业	-996
海军	-997
莫斯科	-998
战斗	-999
总裁	-1000
扩大	-1001
瑞典	-1002
精神	-1003
选民	-1004
上海	-1005
保持	-1006
威特	-1007
否认	-1008
批评	-1009
曾在	-1010
来西亚	-1011
每天	-1012
女子	-1013
▁虽然	-1014
国会议	-1015
一天	-1016
说法	-1017
晋级	-1018
的支持	-1019
对美国	-1020
医生	-1021
还是	-1022
办公室	-1023
非法	-1024
医疗	-1025
观察	-1026
理会	-1027
赛的	-1028
人死亡	-1029
损失	-1030
日报	-1031
积极	-1032
产生	-1033
竞选	-1034
该公司	-1035
▁以	-1036
产业	-1037
降低	-1038
飞行	-1039
数十	-1040
▁尽管	-1041
大厦	-1042
失踪	-1043
实验	-1044
过程	-1045
五日	-1046
类似	-1047
孩子	-1048
万美元的	-1049
那么	-1050
供应	-1051
绑架	-1052
提出的	-1053
自己的	-1054
台北时间	-1055
手术	-1056
涉嫌	-1057
000	-1058
人质	-1059
国营	-1060
也有	-1061
复苏	-1062
左右	-1063
点五	-1064
训练	-1065
在此	-1066
年轻	-1067
一月	-1068
拉斯	-1069
公共	-1070
至于	-1071
重要的	-1072
维亚	-1073
盖达组织	-1074
北约	-1075
半岛	-1076
共和党	-1077
原油	-1078
罹难	-1079
金牌	-1080
条件	-1081
表达	-1082
的行动	-1083
女士	-1084
临时	-1085
目的	-1086
至今	-1087
▁这名	-1088
实际	-1089
股市	-1090
原本	-1091
派遣	-1092
角色	-1093
因素	-1094
议院	-1095
传出	-1096
克斯	-1097
名单	-1098
设施	-1099
区域	-1100
时说	-1101
此事	-1102
评估	-1103
进展	-1104
地球	-1105
放弃	-1106
观光	-1107
阿布	-1108
声称	-1109
学家	-1110
年前	-1111
返回	-1112
基础	-1113
开放	-1114
失业	-1115
核武	-1116
维奇	-1117
资金	-1118
这起	-1119
审判	-1120
限制	-1121
不得	-1122
可是	-1123
区的	-1124
数据	-1125
方法	-1126
▁如果	-1127
文件	-1128
仪式	-1129
作出	-1130
首长	-1131
民调	-1132
▁澳洲	-1133
二零	-1134
喜欢	-1135
细胞	-1136
流感	-1137
西岸	-1138
的时间	-1139
遭遇	-1140
的百分之	-1141
民兵	-1142
的安全	-1143
秘书长	-1144
▁他表示	-1145
斯特拉	-1146
通讯	-1147
领导的	-1148
顾问	-1149
全面	-1150
阿根廷	-1151
建筑	-1152
▁今年	-1153
涉及	-1154
可能是	-1155
乌地	-1156
存在	-1157
经常	-1158
行政	-1159
组成	-1160
以上	-1161
大家	-1162
杂志	-1163
沙乌地	-1164
条约	-1165
▁当	-1166
平均	-1167
生物	-1168
责任	-1169
▁今天	-1170
威廉	-1171
文化	-1172
指数	-1173
纪念	-1174
和其他	-1175
情形	-1176
荷兰	-1177
其中包括	-1178
客机	-1179
研究人员	-1180
不到	-1181
业务	-1182
俄国	-1183
的话说	-1184
预估	-1185
关闭	-1186
利益	-1187
▁此外	-1188
九百	-1189
下降	-1190
停火	-1191
四日	-1192
有人	-1193
解除	-1194
南非	-1195
获利	-1196
的一个	-1197
态度	-1198
▁同时	-1199
三十日	-1200
对伊拉克	-1201
八千	-1202
加州	-1203
游击	-1204
一定	-1205
尸体	-1206
下周	-1207
乘客	-1208
食品	-1209
后的	-1210
财务	-1211
以六比	-1212
业者	-1213
支出	-1214
激进	-1215
国会议员	-1216
七比	-1217
才能	-1218
罪名	-1219
辞职	-1220
▁报导	-1221
一九七	-1222
世界杯	-1223
他将	-1224
古巴	-1225
注意	-1226
西方	-1227
代表团	-1228
衰退	-1229
▁这个	-1230
▁他在	-1231
中国的	-1232
交通	-1233
该国	-1234
马拉	-1235
新闻社	-1236
困难	-1237
贝尔	-1238
下令	-1239
金额	-1240
经济成长	-1241
国务卿鲍尔	-1242
宪法	-1243
一九九九年	-1244
嫌犯	-1245
联军	-1246
禽流感	-1247
集会	-1248
判决	-1249
制裁	-1250
坚持	-1251
的作	-1252
确保	-1253
不久	-1254
最佳	-1255
斯特拉达	-1256
其顿	-1257
安南	-1258
阿尔	-1259
某些	-1260
赛中	-1261
理由	-1262
部的	-1263
并没有	-1264
整个	-1265
决议案	-1266
罹患	-1267
分析家	-1268
加萨	-1269
罗马	-1270
董事	-1271
企图	-1272
接近	-1273
二月	-1274
从事	-1275
二日	-1276
四名	-1277
▁去年	-1278
北方	-1279
意见	-1280
金正	-1281
帮助	-1282
阶段	-1283
地位	-1284
警告说	-1285
奖金	-1286
证明	-1287
回应	-1288
迹象	-1289
▁前	-1290
在一	-1291
间的	-1292
状态	-1293
真正	-1294
安理会	-1295
激烈	-1296
现象	-1297
第五	-1298
那些	-1299
重建	-1300
后来	-1301
之间的	-1302
也不	-1303
明显	-1304
公民	-1305
暂时	-1306
严重的	-1307
参议员	-1308
抨击	-1309
收入	-1310
▁德国	-1311
▁大	-1312
是由	-1313
汉城	-1314
斯基	-1315
微软	-1316
力的	-1317
美国总统布希	-1318
你们	-1319
海外	-1320
增加百分之	-1321
若干	-1322
迄今	-1323
斯拉夫	-1324
女性	-1325
理事会	-1326
十二日	-1327
贝克	-1328
凯瑞	-1329
设备	-1330
风险	-1331
美国与	-1332
主持	-1333
共有	-1334
工程	-1335
同期	-1336
安排	-1337
▁美国总统布希	-1338
建设	-1339
的报导	-1340
下台	-1341
人物	-1342
陷入	-1343
政党	-1344
球场	-1345
零点	-1346
马来西亚	-1347
▁巴	-1348
高层	-1349
行的	-1350
英格兰	-1351
数千	-1352
有的	-1353
被控	-1354
主教	-1355
比利	-1356
通货	-1357
万名	-1358
快速	-1359
的可能	-1360
希德	-1361
指称	-1362
现代	-1363
经费	-1364
表决	-1365
防御	-1366
广播公司	-1367
它的	-1368
经营	-1369
和美国	-1370
到了	-1371
照片	-1372
污染	-1373
麦克	-1374
▁她说	-1375
▁卡	-1376
唯一	-1377
杀害	-1378
对话	-1379
攻击行动	-1380
选票	-1381
10	-1382
我们将	-1383
一致	-1384
传染	-1385
接触	-1386
评论	-1387
给予	-1388
来说	-1389
申请	-1390
进行的	-1391
距离	-1392
斯说	-1393
发生的	-1394
三天	-1395
电信	-1396
的影响	-1397
世界贸易	-1398
国民	-1399
设计	-1400
▁北韩	-1401
埃及	-1402
空中	-1403
违反	-1404
发表的	-1405
终于	-1406
九十	-1407
首席	-1408
将近	-1409
带来	-1410
随后	-1411
外交部	-1412
明确	-1413
检验	-1414
作业	-1415
哥伦	-1416
助理	-1417
打算	-1418
生命	-1419
管制	-1420
三十五	-1421
南斯拉夫	-1422
海啸	-1423
▁鲍尔	-1424
上个月	-1425
十五日	-1426
克兰	-1427
迅速	-1428
分析师	-1429
一周	-1430
批准	-1431
生涯	-1432
体育	-1433
反恐	-1434
亿美元的	-1435
起来	-1436
报纸	-1437
瑞克	-1438
▁自	-1439
亚太	-1440
会计	-1441
庆祝	-1442
有效	-1443
致命	-1444
是因为	-1445
哥伦比亚	-1446
清楚	-1447
真的	-1448
阻止	-1449
下滑	-1450
全部	-1451
不再	-1452
伙伴	-1453
设法	-1454
叙利亚	-1455
正常	-1456
也在	-1457
金正日	-1458
初步	-1459
火车	-1460
视为	-1461
反对党	-1462
委会	-1463
并在	-1464
卫冕	-1465
一事	-1466
公里的	-1467
两位	-1468
墨西	-1469
明星	-1470
哈克	-1471
太平	-1472
致力	-1473
美洲	-1474
日本的	-1475
时表示	-1476
人们	-1477
多名	-1478
旨在	-1479
在这	-1480
看法	-1481
制度	-1482
只要	-1483
各种	-1484
自治	-1485
伤亡	-1486
得到	-1487
最新	-1488
维斯	-1489
贷款	-1490
退出	-1491
▁它	-1492
办法	-1493
起诉	-1494
连串	-1495
高兴	-1496
四十五	-1497
少年	-1498
布尔	-1499
墨西哥	-1500
仍在	-1501
将与	-1502
年代	-1503
▁白宫	-1504
▁李	-1505
将有	-1506
直到	-1507
万桶	-1508
即使	-1509
莉丝	-1510
今天报导	-1511
出售	-1512
缅甸	-1513
发生在	-1514
的目标	-1515
因应	-1516
药物	-1517
合约	-1518
愿意	-1519
十分	-1520
坚称	-1521
卫星	-1522
五角	-1523
关键	-1524
或是	-1525
老师	-1526
节目	-1527
移民	-1528
警戒	-1529
▁欧盟	-1530
太平洋	-1531
马其顿	-1532
输出	-1533
会员国	-1534
十三日	-1535
内政	-1536
狂牛	-1537
外交官	-1538
总统大选	-1539
九千	-1540
以后	-1541
约有	-1542
指挥官	-1543
米尔	-1544
产量	-1545
巴士	-1546
广泛	-1547
父母	-1548
长达	-1549
双边	-1550
我认为	-1551
爱尔	-1552
贫穷	-1553
大部分	-1554
下跌	-1555
接着	-1556
病患	-1557
在内的	-1558
赛冠军	-1559
事实	-1560
朝鲜	-1561
▁伊拉克	-1562
五角大厦	-1563
货币基金会	-1564
沙乌地阿拉伯	-1565
心脏	-1566
邮报	-1567
日益	-1568
检察	-1569
万五千	-1570
约旦河	-1571
达成协议	-1572
东西	-1573
局长	-1574
成本	-1575
▁然而	-1576
在今年	-1577
▁由	-1578
丑闻	-1579
救援	-1580
案的	-1581
速度	-1582
手机	-1583
每日	-1584
油国	-1585
犯罪	-1586
医学	-1587
合并	-1588
及其	-1589
保险	-1590
巴斯	-1591
随着	-1592
▁一位	-1593
爱尔兰	-1594
早上	-1595
空军	-1596
十日	-1597
都会	-1598
二十一	-1599
目前的	-1600
▁报告	-1601
是美国	-1602
▁与	-1603
大楼	-1604
家人	-1605
赤字	-1606
的情况下	-1607
约旦河西岸	-1608
名人	-1609
教练	-1610
第一次	-1611
告诉记者说	-1612
占领	-1613
找到	-1614
海岸	-1615
程度	-1616
释放	-1617
高球	-1618
副总统	-1619
之外	-1620
创下	-1621
提升	-1622
购买	-1623
锦标	-1624
艾斯特拉达	-1625
已被	-1626
中表示	-1627
的一名	-1628
伍兹	-1629
好战	-1630
犹太	-1631
促使	-1632
同样	-1633
晚上	-1634
监督	-1635
一九九八年	-1636
上涨	-1637
太空站	-1638
两年	-1639
此举	-1640
卫生组织	-1641
上升	-1642
普遍	-1643
火箭	-1644
获胜	-1645
雪梨	-1646
怀疑	-1647
所谓	-1648
驾驶	-1649
喀布尔	-1650
十年	-1651
并非	-1652
相同	-1653
力量	-1654
金大	-1655
游击队	-1656
妻子	-1657
此次	-1658
资格	-1659
十四日	-1660
问题的	-1661
当选	-1662
共和国	-1663
名列	-1664
高度	-1665
▁印度	-1666
比利时	-1667
世纪	-1668
另有	-1669
身体	-1670
比赛中	-1671
推出	-1672
的主	-1673
退休	-1674
东南亚	-1675
参院	-1676
监狱	-1677
罢工	-1678
设立	-1679
▁报导说	-1680
战略	-1681
民族	-1682
资产	-1683
资深	-1684
一度	-1685
扮演	-1686
二十七	-1687
伊拉克的	-1688
宗教	-1689
与其他	-1690
前的	-1691
化学	-1692
经理	-1693
逐渐	-1694
十九日	-1695
的原因	-1696
仍有	-1697
克森	-1698
美国人	-1699
兴建	-1700
研发	-1701
十七日	-1702
举行会谈	-1703
世贸	-1704
佛罗	-1705
工会	-1706
确实	-1707
雅罗	-1708
席哈克	-1709
里斯	-1710
价值	-1711
的小	-1712
范围	-1713
都有	-1714
雅罗育	-1715
经验	-1716
资源	-1717
洛杉	-1718
▁印尼	-1719
为百分之	-1720
研究报告	-1721
的不	-1722
洛杉矶	-1723
超级	-1724
民间	-1725
下一	-1726
走廊	-1727
重申	-1728
二十六	-1729
每桶	-1730
土地	-1731
疑似	-1732
的报告	-1733
允许	-1734
内的	-1735
秘密	-1736
这么	-1737
邀请	-1738
低于	-1739
对此	-1740
被迫	-1741
199	-1742
死亡人数	-1743
日前	-1744
环保	-1745
的工作	-1746
一郎	-1747
运输	-1748
再次	-1749
密切	-1750
波兰	-1751
膨胀	-1752
诺夫	-1753
大战	-1754
进程	-1755
意味	-1756
可能在	-1757
调查局	-1758
更加	-1759
的消息	-1760
军事行动	-1761
自由贸易	-1762
任命	-1763
点二	-1764
受害	-1765
疫苗	-1766
二十八	-1767
尤其是	-1768
回教徒	-1769
八强	-1770
两周	-1771
乔治	-1772
九一一恐怖攻击	-1773
时期	-1774
雅加	-1775
鲁斯	-1776
不可	-1777
几个	-1778
点六	-1779
修正	-1780
否则	-1781
因而	-1782
赔偿	-1783
十六日	-1784
方面的	-1785
就会	-1786
医师	-1787
太阳	-1788
摧毁	-1789
事情	-1790
大量	-1791
策略	-1792
顺利	-1793
提议	-1794
一个月	-1795
十八日	-1796
雅加达	-1797
飞弹防御	-1798
广告	-1799
不知道	-1800
研究所	-1801
奥斯	-1802
影片	-1803
撤离	-1804
大多数	-1805
瓦希德	-1806
以一	-1807
协调	-1808
家属	-1809
的日本	-1810
造成的	-1811
但他	-1812
点七	-1813
达州	-1814
小泉纯	-1815
美国经济	-1816
扩散	-1817
都在	-1818
在一项	-1819
夏拉夫	-1820
美国政府	-1821
自杀炸弹	-1822
五名	-1823
市场的	-1824
塞尔维亚	-1825
暴力冲突	-1826
行程	-1827
▁现年	-1828
穆夏拉夫	-1829
小泉纯一郎	-1830
儿子	-1831
工人	-1832
去年同期	-1833
强硬	-1834
母亲	-1835
第一个	-1836
伤害	-1837
尔说	-1838
的国际	-1839
吸引	-1840
团结	-1841
美方	-1842
调整	-1843
的重要	-1844
接获	-1845
中指出	-1846
一百五十	-1847
细节	-1848
统治	-1849
阵营	-1850
二十三	-1851
在阿富汗	-1852
不明	-1853
主任	-1854
迫使	-1855
成长率	-1856
支付	-1857
他是	-1858
自然	-1859
鼓励	-1860
演出	-1861
点四	-1862
错误	-1863
食物	-1864
麦可	-1865
二十九	-1866
外界	-1867
▁中	-1868
事业	-1869
解放	-1870
住在	-1871
上月	-1872
来越	-1873
父亲	-1874
落后	-1875
加萨走廊	-1876
形成	-1877
指责	-1878
毫无	-1879
这一	-1880
有所	-1881
的关系	-1882
上市	-1883
目击	-1884
突然	-1885
附近的	-1886
乐观	-1887
并将	-1888
江泽	-1889
纷纷	-1890
最后一	-1891
通货膨胀	-1892
程序	-1893
队在	-1894
的决定	-1895
事故	-1896
润石	-1897
公布的	-1898
的说法	-1899
越来越	-1900
联邦调查局	-1901
▁哈	-1902
容易	-1903
职业	-1904
负责人	-1905
最高法院	-1906
举办	-1907
几天	-1908
的地方	-1909
旅游	-1910
炭疽	-1911
秘鲁	-1912
包润石	-1913
江泽民	-1914
为期	-1915
加上	-1916
半年	-1917
▁菲律宾	-1918
叛乱	-1919
有意	-1920
乌克兰	-1921
水准	-1922
西兰	-1923
轰炸	-1924
邮件	-1925
保守	-1926
属于	-1927
希腊	-1928
一亿	-1929
与会	-1930
呼吸	-1931
日期	-1932
权力	-1933
设在	-1934
佛罗里	-1935
采取行动	-1936
高级官员	-1937
就业	-1938
的机会	-1939
▁巴勒斯坦	-1940
▁史	-1941
▁对	-1942
种族	-1943
统一	-1944
萨玛	-1945
葡萄	-1946
苏联	-1947
软体	-1948
纽西兰	-1949
▁布	-1950
扬言	-1951
全力	-1952
地面	-1953
格西	-1954
股票	-1955
费用	-1956
狂牛症	-1957
▁有	-1958
克罗	-1959
数量	-1960
讯息	-1961
不可能	-1962
会议中	-1963
核子武器	-1964
本身	-1965
曼联	-1966
誓言	-1967
符合	-1968
此同时	-1969
恐怖分子	-1970
名将	-1971
周末	-1972
恶化	-1973
特说	-1974
现任	-1975
首相布莱尔	-1976
不仅	-1977
不足	-1978
感觉	-1979
至少有	-1980
三人	-1981
怎么	-1982
数以	-1983
的高	-1984
亏损	-1985
加速	-1986
在未来	-1987
时三十	-1988
一旦	-1989
助于	-1990
清晨	-1991
突破	-1992
观众	-1993
黎巴	-1994
及利亚	-1995
国际社会	-1996
我们必须	-1997
不满	-1998
以为	-1999
会有	-2000
则是	-2001
证券	-2002
在今天	-2003
黎巴嫩	-2004
出生	-2005
瑞拉	-2006
用来	-2007
太空总署	-2008
周日	-2009
女儿	-2010
朝鲜半岛	-2011
周二	-2012
权利	-2013
班机	-2014
▁纽约	-2015
想要	-2016
报复	-2017
根本	-2018
西藏	-2019
长的	-2020
石油输出	-2021
一九九七年	-2022
交给	-2023
四个	-2024
多的	-2025
威廉丝	-2026
金大中	-2027
上网	-2028
定的	-2029
这家	-2030
防卫	-2031
的可能性	-2032
不少	-2033
促进	-2034
排除	-2035
▁本	-2036
东部	-2037
口蹄	-2038
平民	-2039
广场	-2040
景气	-2041
特使	-2042
集中	-2043
得以	-2044
敦促	-2045
论坛	-2046
▁这次	-2047
形容	-2048
南北韩	-2049
12	-2050
毁灭	-2051
点三	-2052
粮食	-2053
两次	-2054
依然	-2055
天然	-2056
是一个	-2057
媒体报导	-2058
地产	-2059
淘汰	-2060
主张	-2061
原子	-2062
构成	-2063
西部	-2064
军人	-2065
录影	-2066
防止	-2067
四十八	-2068
会中	-2069
教授	-2070
青少年	-2071
天的	-2072
德州	-2073
支援	-2074
来源	-2075
质疑	-2076
辩论	-2077
▁继	-2078
伊夫	-2079
温布	-2080
场比赛	-2081
的攻击	-2082
国家安全	-2083
公平	-2084
大臣	-2085
旅客	-2086
美国和	-2087
协商	-2088
通常	-2089
▁北京	-2090
社报导	-2091
马德里	-2092
一份	-2093
处于	-2094
是个	-2095
今天宣布	-2096
合法	-2097
蔓延	-2098
街头	-2099
解释	-2100
▁新加坡	-2101
百分之五十	-2102
凌晨	-2103
参赛	-2104
周五	-2105
夫人	-2106
检讨	-2107
点九	-2108
的要求	-2109
上诉	-2110
侦察	-2111
执行长	-2112
的第一	-2113
伊斯	-2114
住宅	-2115
将可	-2116
患者	-2117
遭受	-2118
参议院	-2119
一切	-2120
汇率	-2121
期限	-2122
的政治	-2123
一架	-2124
复制	-2125
当中	-2126
旅行	-2127
第六	-2128
▁欧洲	-2129
基督	-2130
好莱	-2131
屠杀	-2132
提名	-2133
整体	-2134
▁他又说	-2135
比六	-2136
流行	-2137
道路	-2138
好莱坞	-2139
少数	-2140
波音	-2141
营运	-2142
补充	-2143
▁为	-2144
总共	-2145
授权	-2146
的两	-2147
佛罗里达州	-2148
厂商	-2149
布鲁	-2150
并说	-2151
玛斯	-2152
癌症	-2153
口蹄疫	-2154
防范	-2155
及其他	-2156
王子	-2157
球迷	-2158
职务	-2159
表明	-2160
商品	-2161
将对	-2162
民意	-2163
重返	-2164
行动电话	-2165
百分之三十	-2166
▁克	-2167
人道	-2168
很快	-2169
波士	-2170
消防	-2171
的反	-2172
▁三	-2173
也会	-2174
南方	-2175
失去	-2176
好手	-2177
陆军	-2178
希望能	-2179
发表声明说	-2180
尼尔	-2181
游行	-2182
瑞斯	-2183
而非	-2184
这份	-2185
里的	-2186
的努力	-2187
球队	-2188
被判	-2189
西洋	-2190
的方式	-2191
的这项	-2192
公约	-2193
点八	-2194
与中国	-2195
冠军的	-2196
前总统	-2197
11	-2198
从未	-2199
国王	-2200
她们	-2201
车臣	-2202
领域	-2203
▁另外	-2204
他们在	-2205
▁美国国务院	-2206
铁路	-2207
与北韩	-2208
目击者	-2209
推翻	-2210
灾难	-2211
留在	-2212
检察官	-2213
九月十一日	-2214
为首	-2215
原先	-2216
并无	-2217
缺乏	-2218
贪污	-2219
主要是	-2220
▁佛	-2221
市的	-2222
群岛	-2223
苏丹	-2224
裁决	-2225
预计	-2226
塞维奇	-2227
▁二	-2228
债务	-2229
失败	-2230
定书	-2231
钱尼	-2232
阶层	-2233
温布顿	-2234
劳动	-2235
200	-2236
一再	-2237
会见	-2238
做出	-2239
出任	-2240
难以	-2241
▁自从	-2242
投资人	-2243
▁罗	-2244
的调查	-2245
科威特	-2246
首相小泉纯一郎	-2247
冲击	-2248
巨擘	-2249
民党	-2250
称为	-2251
饭店	-2252
欧萨玛	-2253
议定书	-2254
化解	-2255
多达	-2256
实现	-2257
禁令	-2258
经由	-2259
在中国	-2260
以巴	-2261
暂停	-2262
测试	-2263
这类	-2264
下来	-2265
法轮	-2266
的三	-2267
议会	-2268
一座	-2269
其后	-2270
回到	-2271
尼拉	-2272
这件	-2273
的计画	-2274
优势	-2275
发行	-2276
坦承	-2277
期待	-2278
通知	-2279
中央银行	-2280
会在	-2281
杆的	-2282
营业	-2283
运作	-2284
分之一	-2285
和解	-2286
尊重	-2287
德拉	-2288
的结果	-2289
今晚	-2290
展现	-2291
演习	-2292
牛肉	-2293
巴尼亚	-2294
以便	-2295
小孩	-2296
报说	-2297
暗示	-2298
梅嘉	-2299
气候	-2300
资本	-2301
华尔	-2302
埔寨	-2303
森喜	-2304
第七	-2305
▁国务院	-2306
会计年度	-2307
亚齐	-2308
忧虑	-2309
死于	-2310
聚集	-2311
身份	-2312
法轮功	-2313
美元的	-2314
欧萨玛宾拉登	-2315
其实	-2316
分离	-2317
加以	-2318
延后	-2319
感谢	-2320
▁至于	-2321
准决赛	-2322
东协	-2323
重点	-2324
昨天在	-2325
柬埔寨	-2326
的中国	-2327
森喜朗	-2328
恐怖组织	-2329
基于	-2330
收到	-2331
系列	-2332
草案	-2333
趋势	-2334
这两	-2335
财政部长	-2336
摄影	-2337
皇家	-2338
获释	-2339
成长百分之	-2340
破产	-2341
除非	-2342
发动攻击	-2343
发表声明	-2344
增长	-2345
所作	-2346
搭乘	-2347
▁美军	-2348
特别是	-2349
许多人	-2350
日本政府	-2351
内部	-2352
点一	-2353
▁因为	-2354
将继续	-2355
典礼	-2356
动作	-2357
将由	-2358
青年	-2359
利比亚	-2360
的立场	-2361
交换	-2362
功能	-2363
娃蒂	-2364
巴拉	-2365
而在	-2366
立法	-2367
败给	-2368
身分	-2369
预防	-2370
太空梭	-2371
的世界	-2372
全球经济	-2373
去年十二月	-2374
世界贸易组织	-2375
愤怒	-2376
截至	-2377
遵守	-2378
领袖阿拉法特	-2379
伊凡	-2380
卡拉	-2381
各方	-2382
央行	-2383
米洛	-2384
梅嘉娃蒂	-2385
多少	-2386
很好	-2387
英镑	-2388
▁香港	-2389
▁从	-2390
将使	-2391
战士	-2392
电力	-2393
一千五百	-2394
告诉法新社说	-2395
不幸	-2396
的信	-2397
在日本	-2398
关于	-2399
命令	-2400
案件	-2401
标准杆	-2402
锦标赛	-2403
中有	-2404
商务	-2405
城镇	-2406
心理	-2407
结果显示	-2408
六名	-2409
反映	-2410
当然	-2411
中心的	-2412
人民币	-2413
政府官员	-2414
线上	-2415
葛林	-2416
障碍	-2417
七十五	-2418
万欧元	-2419
击毙	-2420
五个	-2421
关税	-2422
变成	-2423
空袭	-2424
结构	-2425
长官	-2426
革命	-2427
了百分之	-2428
塔利班政权	-2429
京都	-2430
任期	-2431
反抗	-2432
取代	-2433
年底	-2434
机器	-2435
田径	-2436
营收	-2437
驱逐	-2438
太空人	-2439
并表示	-2440
性武器	-2441
有关的	-2442
消息人士说	-2443
也表示	-2444
月二十日	-2445
▁拉	-2446
地的	-2447
搜寻	-2448
裁员	-2449
飞往	-2450
中国家	-2451
原则	-2452
中东和平	-2453
市长	-2454
用户	-2455
罹难者	-2456
美国总统	-2457
农民	-2458
在于	-2459
气象	-2460
身上	-2461
三十二	-2462
的最后	-2463
失望	-2464
已于	-2465
救难	-2466
私人	-2467
辩护	-2468
小布希	-2469
男性	-2470
路线	-2471
客户	-2472
日内	-2473
会议的	-2474
失业率	-2475
葡萄牙	-2476
贝克汉	-2477
时三十分	-2478
公园	-2479
大众	-2480
我想	-2481
方向	-2482
波斯	-2483
第二次	-2484
但在	-2485
作战	-2486
出来	-2487
刺激	-2488
外的	-2489
意义	-2490
我不	-2491
才会	-2492
最终	-2493
绝对	-2494
表演	-2495
创造	-2496
制造商	-2497
正确	-2498
的事情	-2499
阿格西	-2500
际网路	-2501
予以	-2502
司机	-2503
夺得	-2504
燃料	-2505
的危险	-2506
记者说	-2507
▁欧	-2508
二世	-2509
侵袭	-2510
决心	-2511
加拉	-2512
强劲	-2513
攻势	-2514
被视为	-2515
拍摄	-2516
艺术	-2517
一连串	-2518
阿尔巴尼亚	-2519
囚犯	-2520
季的	-2521
对象	-2522
二零零	-2523
的谈话	-2524
教堂	-2525
焦点	-2526
确认	-2527
通信	-2528
总统蒲亭	-2529
网际网路	-2530
前来	-2531
届时	-2532
等待	-2533
网赛	-2534
的会谈	-2535
呈现	-2536
总额	-2537
挪威	-2538
的研究	-2539
的计划	-2540
的发言人	-2541
记者会上	-2542
假如	-2543
年龄	-2544
大西洋	-2545
油国组织	-2546
▁柯	-2547
于二	-2548
先生	-2549
入侵	-2550
时刻	-2551
耶路	-2552
调降	-2553
▁其中	-2554
台湾的	-2555
在这个	-2556
我觉得	-2557
沙伊夫	-2558
主导	-2559
会面	-2560
只能	-2561
增至	-2562
官兵	-2563
德瑞	-2564
战机	-2565
六十五	-2566
天主教	-2567
实验室	-2568
目前为止	-2569
一辆	-2570
撒冷	-2571
一九六	-2572
物价	-2573
里兰	-2574
三个月	-2575
乔治亚	-2576
耶路撒冷	-2577
作用	-2578
公车	-2579
兴趣	-2580
并列	-2581
得主	-2582
良好	-2583
的英国	-2584
国内生产	-2585
徒刑	-2586
万元	-2587
克的	-2588
委内	-2589
打破	-2590
案例	-2591
若德	-2592
支持者	-2593
提及	-2594
行业	-2595
卫生部	-2596
委内瑞拉	-2597
我们希望	-2598
克里	-2599
气氛	-2600
象征	-2601
路易	-2602
那里	-2603
巴瑞克	-2604
施若德	-2605
第二大	-2606
一处	-2607
严格	-2608
之下	-2609
周刊	-2610
干预	-2611
道歉	-2612
布莱特	-2613
布希政府	-2614
丹麦	-2615
股价	-2616
镇压	-2617
韩国	-2618
新闻网	-2619
二十四日	-2620
▁两	-2621
丰富	-2622
工作的	-2623
爱滋病毒	-2624
满贯	-2625
车辆	-2626
几个月	-2627
董事长	-2628
米洛塞维奇	-2629
上扬	-2630
以军	-2631
六个	-2632
庞大	-2633
柏林	-2634
经济体	-2635
观光客	-2636
他对	-2637
陆战	-2638
第二轮	-2639
20	-2640
元月	-2641
希尔	-2642
例如	-2643
充分	-2644
导演	-2645
巡逻	-2646
结婚	-2647
一百一	-2648
什米尔	-2649
▁布希说	-2650
佛州	-2651
击出	-2652
姆斯	-2653
本人	-2654
零售	-2655
亿五千	-2656
四十二	-2657
奥斯卡	-2658
发表演说	-2659
外交部长	-2660
化的	-2661
北美	-2662
女王	-2663
将以	-2664
拍卖	-2665
提到	-2666
是一	-2667
华尔街	-2668
不但	-2669
公路	-2670
发挥	-2671
受访	-2672
很难	-2673
天然气	-2674
我们在	-2675
延长	-2676
愈来	-2677
被告	-2678
愈来愈	-2679
的威胁	-2680
保障	-2681
勒斯	-2682
发球	-2683
大赛	-2684
封锁	-2685
票房	-2686
雅典	-2687
我们已	-2688
美国对	-2689
车队	-2690
那个	-2691
六比三	-2692
世界排名	-2693
安全部队	-2694
▁另	-2695
中断	-2696
婴儿	-2697
毒品	-2698
同胞	-2699
投入	-2700
见到	-2701
队员	-2702
党的	-2703
尽快	-2704
物质	-2705
电厂	-2706
约翰	-2707
中丧生	-2708
二十日	-2709
▁巴基斯坦	-2710
国际货币基金会	-2711
事宜	-2712
势力	-2713
学院	-2714
死刑	-2715
还在	-2716
遗憾	-2717
结束后	-2718
彼此	-2719
比例	-2720
毛额	-2721
耶诞	-2722
轻松	-2723
美国在	-2724
听到	-2725
庇护	-2726
诺贝尔	-2727
开发中国家	-2728
百分之四十	-2729
信息	-2730
极端	-2731
的海	-2732
以来的	-2733
马尼拉	-2734
具体	-2735
卡斯	-2736
四强	-2737
宝座	-2738
情绪	-2739
我希望	-2740
有限	-2741
北韩的	-2742
地利	-2743
比一	-2744
生日	-2745
领事	-2746
曾表示	-2747
调查人员	-2748
▁戴	-2749
专业	-2750
十字	-2751
就职	-2752
早已	-2753
一九九六年	-2754
吸烟	-2755
屯垦	-2756
缓和	-2757
后者	-2758
差距	-2759
洪水	-2760
相互	-2761
藤森	-2762
辛吉	-2763
面的	-2764
有可能	-2765
能总署	-2766
日本经济	-2767
七名	-2768
刊登	-2769
诉讼	-2770
适当	-2771
今日	-2772
众院	-2773
名为	-2774
周一	-2775
寻找	-2776
改造	-2777
时的	-2778
是要	-2779
服用	-2780
照顾	-2781
维护	-2782
其它	-2783
各界	-2784
严厉	-2785
僵局	-2786
前述	-2787
在与	-2788
祈祷	-2789
你的	-2790
天气	-2791
疑虑	-2792
连任	-2793
高的	-2794
▁对于	-2795
个国家	-2796
奥地利	-2797
的人数	-2798
其他国家	-2799
依据	-2800
考量	-2801
南部的	-2802
卡车	-2803
布拉	-2804
死者	-2805
奈及利亚	-2806
国防部长伦斯斐	-2807
一人	-2808
发起	-2809
德说	-2810
柯索	-2811
股权	-2812
今天的	-2813
六个月	-2814
活动的	-2815
以色列总理	-2816
列为	-2817
成果	-2818
火星	-2819
遗体	-2820
配合	-2821
▁泰国	-2822
他们将	-2823
第一位	-2824
秘书长安南	-2825
冻结	-2826
周四	-2827
学习	-2828
开会	-2829
杜拉	-2830
火山	-2831
美分	-2832
修威特	-2833
有必要	-2834
的政府	-2835
▁费	-2836
中部	-2837
她在	-2838
正当	-2839
游戏	-2840
▁这种	-2841
最严重的	-2842
出版	-2843
大型	-2844
就在	-2845
暴动	-2846
百分	-2847
美国官员	-2848
劫持	-2849
夫妇	-2850
这架	-2851
他已	-2852
大火	-2853
暴乱	-2854
特拉	-2855
省的	-2856
资助	-2857
苏格兰	-2858
半数	-2859
开幕	-2860
我很	-2861
籍的	-2862
自动	-2863
随即	-2864
三十八	-2865
▁柯林顿	-2866
工作人员	-2867
州长	-2868
演员	-2869
详细	-2870
重的	-2871
▁小泉	-2872
月份的	-2873
时台北时间	-2874
毁灭性武器	-2875
无人	-2876
有线	-2877
福特	-2878
汽车公司	-2879
多人	-2880
对外	-2881
当天	-2882
披露	-2883
收购	-2884
武力	-2885
爆炸事件	-2886
▁安	-2887
周三	-2888
四人	-2889
尼斯	-2890
履行	-2891
打进	-2892
录影带	-2893
数百名	-2894
二十三日	-2895
决策	-2896
巡回	-2897
老板	-2898
▁此一	-2899
日内瓦	-2900
之中	-2901
人和	-2902
反弹	-2903
所在	-2904
血液	-2905
贡献	-2906
▁这份	-2907
三十六	-2908
上周末	-2909
15	-2910
变化	-2911
自卫	-2912
间谍	-2913
境内的	-2914
总统的	-2915
中华	-2916
指示	-2917
赞成	-2918
餐厅	-2919
五十五	-2920
在英国	-2921
的最新	-2922
不安	-2923
中止	-2924
机关	-2925
钢铁	-2926
▁昨天	-2927
▁伦斯斐	-2928
在其	-2929
导体	-2930
帝汶	-2931
引爆	-2932
这对	-2933
在国会	-2934
国内生产毛额	-2935
台风	-2936
满意	-2937
查尔斯	-2938
什叶	-2939
对付	-2940
将军	-2941
是以	-2942
率领	-2943
盈余	-2944
罪行	-2945
足够	-2946
波斯湾	-2947
丈夫	-2948
减税	-2949
去世	-2950
局面	-2951
智利	-2952
遇害	-2953
的和平	-2954
军官	-2955
对方	-2956
赛事	-2957
半导体	-2958
二十六日	-2959
为主	-2960
妈妈	-2961
此行	-2962
自行	-2963
菲国	-2964
邻近	-2965
里岛	-2966
▁过去	-2967
哈玛斯	-2968
夫斯基	-2969
房地产	-2970
一向	-2971
困境	-2972
场的	-2973
已将	-2974
我要	-2975
格林	-2976
莱谢	-2977
人民的	-2978
二十二日	-2979
削减	-2980
症候	-2981
第八	-2982
装置	-2983
韩元	-2984
二零一	-2985
侦察机	-2986
炸弹攻击	-2987
克说	-2988
史上	-2989
幅度	-2990
的机	-2991
自民党	-2992
百分之五	-2993
原子能总署	-2994
▁美国国务卿鲍尔	-2995
位置	-2996
回答	-2997
多次	-2998
奥会	-2999
▁为了	-3000
六比四	-3001
▁高	-3002
周年	-3003
宣传	-3004
放在	-3005
新高	-3006
鉴于	-3007
百分之二	-3008
经济学家	-3009
伊拉克战争	-3010
阿布沙伊夫	-3011
仍未	-3012
据信	-3013
斯洛	-3014
最低	-3015
盟邦	-3016
伊斯兰	-3017
在纽约	-3018
大满贯	-3019
情报局	-3020
的作法	-3021
的比赛	-3022
二十一日	-3023
首先	-3024
目前正	-3025
三十一日	-3026
京都议定书	-3027
巴勒斯坦领袖阿拉法特	-3028
30	-3029
主权	-3030
他也	-3031
备受	-3032
登记	-3033
胡锦	-3034
计票	-3035
三十七	-3036
的措施	-3037
百分之零点	-3038
故事	-3039
晶片	-3040
政府军	-3041
两度	-3042
作法	-3043
出了	-3044
威尔	-3045
掌握	-3046
股东	-3047
降落	-3048
家公司	-3049
柯索伏	-3050
胡锦涛	-3051
减缓	-3052
敏感	-3053
职位	-3054
起飞	-3055
阵线	-3056
什叶派	-3057
市中心	-3058
▁义大利	-3059
▁华盛顿	-3060
主办单位	-3061
中文	-3062
习惯	-3063
复杂	-3064
大批	-3065
简报	-3066
的表现	-3067
发言人表示	-3068
人选	-3069
夺冠	-3070
或者	-3071
本季	-3072
警官	-3073
麦克雷	-3074
分裂	-3075
前景	-3076
此种	-3077
穿着	-3078
数小时	-3079
以外	-3080
共党	-3081
塔吉	-3082
而已	-3083
飓风	-3084
亿欧元	-3085
▁世界卫生组织	-3086
卡达	-3087
娱乐	-3088
政变	-3089
终止	-3090
症候群	-3091
二十五日	-3092
介绍	-3093
弹劾	-3094
磋商	-3095
禁药	-3096
轨道	-3097
转移	-3098
这部	-3099
俄罗斯的	-3100
垃圾	-3101
获准	-3102
计算	-3103
谋杀	-3104
是为了	-3105
被认为	-3106
▁他指出	-3107
▁布希在	-3108
紧张情势	-3109
麦克雷兰	-3110
也曾	-3111
成就	-3112
更为	-3113
演唱	-3114
受害者	-3115
传真	-3116
指标	-3117
损害	-3118
施压	-3119
游泳	-3120
登上	-3121
诸如	-3122
辛吉丝	-3123
女将	-3124
宣告	-3125
极为	-3126
还不	-3127
领土	-3128
▁伊朗	-3129
他表示	-3130
的政策	-3131
道飞弹	-3132
东亚	-3133
以二	-3134
听证	-3135
山区	-3136
法鲁	-3137
用于	-3138
销售量	-3139
集团的	-3140
修改	-3141
博物	-3142
意图	-3143
花费	-3144
说服	-3145
七比六	-3146
一九九四年	-3147
下去	-3148
体系	-3149
到底	-3150
斯塔	-3151
神经	-3152
脱离	-3153
都不	-3154
打电话	-3155
石油公司	-3156
▁并	-3157
其余	-3158
核心	-3159
声明中	-3160
峇里岛	-3161
克什米尔	-3162
百分之三	-3163
国际太空站	-3164
飞弹防御系统	-3165
这座	-3166
的公司	-3167
二十七日	-3168
目前正在	-3169
一枚	-3170
不论	-3171
他所	-3172
总会	-3173
手段	-3174
比率	-3175
还要	-3176
雷根	-3177
三十九	-3178
人士说	-3179
众议院	-3180
亿元	-3181
以三	-3182
凡波	-3183
参观	-3184
检方	-3185
有助于	-3186
未来的	-3187
社引述	-3188
今天上午	-3189
停留	-3190
家中	-3191
掌控	-3192
揭幕	-3193
曼谷	-3194
来到	-3195
沙国	-3196
演讲	-3197
突击	-3198
▁一般	-3199
大部份	-3200
实际上	-3201
的情形	-3202
坠毁	-3203
摩洛	-3204
生还	-3205
走私	-3206
隔离	-3207
有线电视	-3208
的伊拉克	-3209
▁亚	-3210
公斤	-3211
外务	-3212
它将	-3213
▁小	-3214
声音	-3215
持有	-3216
日子	-3217
裁减	-3218
规范	-3219
进步	-3220
也就是	-3221
呼吸道	-3222
基督教	-3223
百分点	-3224
也许	-3225
关注	-3226
老人	-3227
身亡	-3228
建筑物	-3229
我们不	-3230
执委会	-3231
摩洛哥	-3232
的协议	-3233
团队	-3234
家族	-3235
州的	-3236
或许	-3237
瓦斯	-3238
签证	-3239
一直在	-3240
三十三	-3241
我们认为	-3242
这个问题	-3243
总统候选人	-3244
▁曾	-3245
争执	-3246
农场	-3247
净利	-3248
凯利	-3249
历来	-3250
德的	-3251
架构	-3252
歧见	-3253
相对	-3254
被送	-3255
事实上	-3256
的一次	-3257
组成的	-3258
为何	-3259
实在	-3260
撤军	-3261
无论	-3262
来看	-3263
禁运	-3264
身为	-3265
一九五	-3266
二一年	-3267
的军事	-3268
的同时	-3269
访问时说	-3270
命运	-3271
提前	-3272
症状	-3273
选出	-3274
四十七	-3275
总统府	-3276
列入	-3277
手中	-3278
认识	-3279
百分之一点	-3280
交出	-3281
各项	-3282
特种	-3283
生效	-3284
袭击	-3285
东帝汶	-3286
反对派	-3287
临时政府	-3288
一条	-3289
共识	-3290
动力	-3291
否决	-3292
品质	-3293
回家	-3294
平静	-3295
所需	-3296
用的	-3297
盟友	-3298
看来	-3299
驳斥	-3300
三十四	-3301
他希望	-3302
国家组织	-3303
▁白宫发言人	-3304
八名	-3305
宣誓	-3306
武检	-3307
赛后	-3308
足以	-3309
香烟	-3310
▁因此	-3311
数千名	-3312
人体	-3313
制作	-3314
实力	-3315
特的	-3316
斯里兰	-3317
查维斯	-3318
斯里兰卡	-3319
将为	-3320
柏格	-3321
球季	-3322
空间	-3323
让他	-3324
遏止	-3325
已造成	-3326
杰克森	-3327
的谈判	-3328
▁阿富汗	-3329
好战份子	-3330
电子邮件	-3331
价位	-3332
几年	-3333
动乱	-3334
卢武	-3335
异议	-3336
总值	-3337
控告	-3338
提醒	-3339
攀升	-3340
本届	-3341
相较	-3342
通报	-3343
重量	-3344
七比五	-3345
在去年	-3346
高峰会议	-3347
官员今天说	-3348
克辛	-3349
战绩	-3350
森林	-3351
签订	-3352
米兰	-3353
罗迪	-3354
能在	-3355
负担	-3356
辐射	-3357
还会	-3358
更多的	-3359
有机会	-3360
新闻报导	-3361
效果	-3362
采购	-3363
▁现在	-3364
卢武铉	-3365
对中国	-3366
第二季	-3367
伊凡诺夫	-3368
促成	-3369
保留	-3370
出战	-3371
可疑	-3372
抑制	-3373
英文	-3374
苹果	-3375
血腥	-3376
六比二	-3377
受访者	-3378
世贸组织	-3379
联邦准备	-3380
两项	-3381
侵犯	-3382
策划	-3383
七十二	-3384
也没有	-3385
在法国	-3386
第一的	-3387
九一一恐怖攻击事件	-3388
两岸	-3389
将从	-3390
数位	-3391
明白	-3392
网友	-3393
角逐	-3394
试验	-3395
▁上周	-3396
报告说	-3397
有一个	-3398
上空	-3399
归咎	-3400
特丝	-3401
翁山	-3402
裁定	-3403
与日本	-3404
小时的	-3405
攻击的	-3406
的律师	-3407
▁西班牙	-3408
布鲁塞尔	-3409
十名	-3410
有利	-3411
衣服	-3412
两个月	-3413
多位	-3414
当年	-3415
推进	-3416
电讯	-3417
结论	-3418
震惊	-3419
博物馆	-3420
所有的	-3421
第三季	-3422
▁加拿大	-3423
巴勒斯坦自治	-3424
兴奋	-3425
减产	-3426
干部	-3427
库存	-3428
忧心	-3429
瑞亚	-3430
超越	-3431
重整	-3432
▁来自	-3433
在北京	-3434
有许多	-3435
▁日本经济	-3436
大规模毁灭性武器	-3437
全美	-3438
分享	-3439
半场	-3440
受损	-3441
最多	-3442
流血	-3443
男童	-3444
的女	-3445
短期	-3446
空气	-3447
紧缩	-3448
落实	-3449
▁分析家	-3450
记者会中说	-3451
▁被	-3452
充满	-3453
此案	-3454
胡笙	-3455
▁蒲亭	-3456
已成为	-3457
法鲁贾	-3458
该组织	-3459
住院	-3460
公投	-3461
同一	-3462
审慎	-3463
布里	-3464
期望	-3465
画面	-3466
老虎	-3467
药品	-3468
通用	-3469
重视	-3470
银行的	-3471
报告指出	-3472
以往	-3473
立刻	-3474
色的	-3475
了一个	-3476
五十二	-3477
休息	-3478
公安	-3479
则在	-3480
前天	-3481
四天	-3482
工具	-3483
式的	-3484
收盘	-3485
斯在	-3486
蒙特	-3487
▁除了	-3488
讯记者	-3489
这两个	-3490
与俄罗斯	-3491
北方联盟	-3492
月二十六日	-3493
▁泰	-3494
▁陈	-3495
不好	-3496
四周	-3497
巴德	-3498
播出	-3499
每个	-3500
的地区	-3501
的民众	-3502
示威者	-3503
一九九五年	-3504
商店	-3505
学者	-3506
孩童	-3507
排放	-3508
派驻	-3509
清真	-3510
记录	-3511
高速	-3512
计画的	-3513
专访	-3514
作品	-3515
值得	-3516
撤出	-3517
购物	-3518
赞扬	-3519
首府	-3520
的一百	-3521
还没有	-3522
部队的	-3523
委员会主席	-3524
三万	-3525
业的	-3526
多项	-3527
开枪	-3528
我国	-3529
机上	-3530
柯尼	-3531
于去年	-3532
另一个	-3533
清真寺	-3534
▁警方说	-3535
兄弟	-3536
夫说	-3537
对其	-3538
强化	-3539
形象	-3540
歌手	-3541
混乱	-3542
走访	-3543
世界上	-3544
已同意	-3545
的行为	-3546
补充说	-3547
领事馆	-3548
民意调查	-3549
▁海	-3550
得票	-3551
普莉	-3552
最好	-3553
漂亮	-3554
猛烈	-3555
知名	-3556
而是	-3557
警卫	-3558
迈向	-3559
一百零	-3560
今年的	-3561
关系的	-3562
内政部	-3563
增加到	-3564
选举中	-3565
▁布莱尔	-3566
低于标准杆	-3567
华德	-3568
名字	-3569
急性	-3570
所做	-3571
民营	-3572
达赖	-3573
提供的	-3574
有任何	-3575
的第二	-3576
陆战队	-3577
恐怖攻击事件	-3578
吉尔	-3579
船只	-3580
苏姬	-3581
车手	-3582
▁许多	-3583
阿富汗的	-3584
网球公开赛	-3585
一兆	-3586
婚礼	-3587
展望	-3588
所提	-3589
斯的	-3590
▁这家	-3591
将成为	-3592
一支	-3593
上次	-3594
中午	-3595
优先	-3596
会上	-3597
变得	-3598
成千	-3599
特兰	-3600
会谈的	-3601
的压力	-3602
他与	-3603
咖啡	-3604
外海	-3605
爱的	-3606
老鼠	-3607
过的	-3608
都已	-3609
在接受	-3610
比瑞亚	-3611
的回教	-3612
翁山苏姬	-3613
▁张	-3614
与其	-3615
乌兹	-3616
元首	-3617
入境	-3618
出赛	-3619
引擎	-3620
移动	-3621
第九	-3622
过度	-3623
与南韩	-3624
在欧洲	-3625
相当于	-3626
百分之七	-3627
谈判代表	-3628
何时	-3629
击中	-3630
同学	-3631
坎达	-3632
子女	-3633
彻底	-3634
总数	-3635
经历	-3636
阴谋	-3637
外交政策	-3638
赖比瑞亚	-3639
今后	-3640
坦克	-3641
房子	-3642
房屋	-3643
拘留	-3644
民航	-3645
水平	-3646
沙丹	-3647
生的	-3648
病人	-3649
近日	-3650
▁当时	-3651
六十六	-3652
已开始	-3653
战斗机	-3654
月二十九日	-3655
▁那	-3656
对他	-3657
新一	-3658
法兰	-3659
六十七	-3660
六十九	-3661
计划的	-3662
运动员	-3663
不佳	-3664
不错	-3665
宣言	-3666
强大	-3667
挟持	-3668
社区	-3669
积分	-3670
装备	-3671
外国人	-3672
曼联队	-3673
比赛的	-3674
葛林斯	-3675
这样的	-3676
二十九日	-3677
50	-3678
▁贾	-3679
仍是	-3680
别克	-3681
卡特	-3682
扑杀	-3683
敲定	-3684
沙芬	-3685
邻国	-3686
▁台湾	-3687
司法部	-3688
总经理	-3689
美国驻	-3690
二次	-3691
做为	-3692
在他	-3693
找出	-3694
文章	-3695
澳大	-3696
特殊	-3697
的地	-3698
简单	-3699
补贴	-3700
▁上述	-3701
四十六	-3702
成员国	-3703
执政党	-3704
难民营	-3705
倘若	-3706
内战	-3707
广州	-3708
提案	-3709
效应	-3710
活跃	-3711
而不	-3712
这里	-3713
必须在	-3714
成千上	-3715
没有人	-3716
的一位	-3717
亲自	-3718
以下	-3719
克服	-3720
市民	-3721
据点	-3722
维尔	-3723
太空船	-3724
报报导	-3725
贝鲁斯	-3726
中央情报局	-3727
一段	-3728
准许	-3729
参谋	-3730
暗杀	-3731
王室	-3732
终结	-3733
胜地	-3734
英雄	-3735
要在	-3736
见面	-3737
途中	-3738
▁这场	-3739
下个月	-3740
争议的	-3741
的态度	-3742
澳大利亚	-3743
▁研究人员	-3744
贝鲁斯柯尼	-3745
▁伊	-3746
主角	-3747
也纳	-3748
动用	-3749
失事	-3750
她说	-3751
威力	-3752
森说	-3753
独裁	-3754
风暴	-3755
▁国家	-3756
▁最近	-3757
的方法	-3758
塔利班民兵	-3759
仅有	-3760
冷战	-3761
利安	-3762
利斯	-3763
每周	-3764
至二	-3765
运用	-3766
都将	-3767
采用	-3768
坎达哈	-3769
目前已	-3770
目的在	-3771
美国将	-3772
莉丝特丝	-3773
假期	-3774
想法	-3775
探测	-3776
更是	-3777
水扁	-3778
涵盖	-3779
若望	-3780
见的	-3781
这笔	-3782
陆续	-3783
随时	-3784
高科技	-3785
▁其	-3786
保禄	-3787
机制	-3788
流亡	-3789
繁荣	-3790
街道	-3791
车祸	-3792
主要的	-3793
同时也	-3794
四十四	-3795
干细胞	-3796
戴凡波	-3797
代价	-3798
子的	-3799
家长	-3800
平衡	-3801
所得	-3802
拳击	-3803
接替	-3804
曾于	-3805
联系	-3806
让人	-3807
普勒斯	-3808
最严重	-3809
世界大战	-3810
分台北时间	-3811
阿尔巴尼亚裔	-3812
一时	-3813
不良	-3814
专员	-3815
以免	-3816
共产	-3817
让我	-3818
逃离	-3819
颁奖	-3820
▁上海	-3821
造成至少	-3822
▁杜	-3823
之行	-3824
军的	-3825
已对	-3826
怀孕	-3827
捷克	-3828
村民	-3829
羁押	-3830
胚胎	-3831
认真	-3832
赞助	-3833
野生	-3834
集体	-3835
后不久	-3836
让他们	-3837
▁该公司	-3838
迹象显示	-3839
大宇	-3840
方便	-3841
是最	-3842
浓缩	-3843
通缉	-3844
震撼	-3845
飞抵	-3846
报告中	-3847
保禄二世	-3848
空军基地	-3849
领导阶层	-3850
不利	-3851
威治	-3852
巨星	-3853
所为	-3854
摆脱	-3855
游客	-3856
肯定	-3857
▁其他	-3858
以上的	-3859
新政府	-3860
普拉斯	-3861
维也纳	-3862
二十八日	-3863
三菱	-3864
仍将	-3865
传播	-3866
太多	-3867
旅馆	-3868
暴风	-3869
结合	-3870
防治	-3871
归咎于	-3872
心脏病	-3873
所以我	-3874
的建议	-3875
波士尼亚	-3876
赛普勒斯	-3877
▁布希总统	-3878
一艘	-3879
一路	-3880
刑事	-3881
到的	-3882
布朗	-3883
建造	-3884
所致	-3885
显得	-3886
曼说	-3887
负债	-3888
▁包括	-3889
为首的	-3890
在过去	-3891
奥运会	-3892
今天下午	-3893
▁国际货币基金会	-3894
人是	-3895
喷射	-3896
战后	-3897
摘下	-3898
温和	-3899
财产	-3900
车的	-3901
陪同	-3902
北部的	-3903
报记者	-3904
炭疽热	-3905
英国的	-3906
世界卫生组织	-3907
若望保禄二世	-3908
争夺	-3909
信任	-3910
启程	-3911
周六	-3912
洋基	-3913
消除	-3914
▁稍早	-3915
很高兴	-3916
过程中	-3917
空中巴士	-3918
高层官员	-3919
▁葛	-3920
一片	-3921
不太	-3922
就有	-3923
录音	-3924
战中	-3925
朱镕	-3926
正是	-3927
派的	-3928
派系	-3929
着名	-3930
短暂	-3931
达佛	-3932
频道	-3933
▁新华	-3934
一九四	-3935
副总理	-3936
国家主席	-3937
先进	-3938
好好	-3939
小型	-3940
开火	-3941
扩张	-3942
氏症	-3943
移植	-3944
细菌	-3945
运送	-3946
不同的	-3947
六十八	-3948
具名的	-3949
历史性	-3950
大学的	-3951
普莉提	-3952
朱镕基	-3953
访问时	-3954
费德瑞	-3955
重大的	-3956
阿巴斯	-3957
十个	-3958
房间	-3959
三十一	-3960
在国际	-3961
数以千	-3962
有一些	-3963
的一些	-3964
目的是	-3965
反恐战争	-3966
山普拉斯	-3967
在声明中说	-3968
新闻社报导	-3969
▁索	-3970
丧命	-3971
到二	-3972
历经	-3973
叶门	-3974
局势	-3975
智能	-3976
正面	-3977
滑落	-3978
痛苦	-3979
维和	-3980
和中国	-3981
的北韩	-3982
的风险	-3983
▁土耳其	-3984
葛林斯潘	-3985
16	-3986
下落	-3987
免费	-3988
关心	-3989
奋斗	-3990
尼泊	-3991
待遇	-3992
我在	-3993
时机	-3994
模式	-3995
任总统	-3996
各地的	-3997
后表示	-3998
尼泊尔	-3999
的最大	-4000
今天稍早	-4001
格林威治	-4002
五百万美元	-4003
▁库	-4004
三次	-4005
不管	-4006
坚定	-4007
据称	-4008
有史	-4009
舞台	-4010
马丁	-4011
使用的	-4012
享有	-4013
出发	-4014
势必	-4015
平台	-4016
抱怨	-4017
福利	-4018
管道	-4019
年轻人	-4020
乌兹别克	-4021
百分之四	-4022
九名	-4023
伤势	-4024
判处	-4025
带动	-4026
海上	-4027
犯下	-4028
▁伦敦	-4029
▁夏隆	-4030
▁越南	-4031
召开的	-4032
我们对	-4033
有很多	-4034
目前在	-4035
问题上	-4036
一百二十	-4037
沙丹胡笙	-4038
没有任何	-4039
百分之八	-4040
上课	-4041
冬季	-4042
国土	-4043
斯克	-4044
机密	-4045
永远	-4046
注射	-4047
的艾	-4048
万四千	-4049
发布的	-4050
的成绩	-4051
▁包润石	-4052
成千上万	-4053
数以千计	-4054
联邦准备理事会	-4055
▁王	-4056
不在	-4057
丧失	-4058
丰田	-4059
初期	-4060
成的	-4061
数周	-4062
男女	-4063
询问	-4064
和日本	-4065
我们会	-4066
该地区	-4067
路易斯	-4068
世界纪录	-4069
也说	-4070
出庭	-4071
很大	-4072
执法	-4073
教科	-4074
构想	-4075
洛克	-4076
矢言	-4077
练习	-4078
记忆	-4079
采访	-4080
里面	-4081
饱受	-4082
制造业	-4083
发生后	-4084
已经在	-4085
的法国	-4086
基因改造	-4087
欧布莱特	-4088
联合国安理会	-4089
▁穆	-4090
介入	-4091
前夕	-4092
堕胎	-4093
是为	-4094
理想	-4095
终场	-4096
适合	-4097
在这项	-4098
并要求	-4099
引发的	-4100
马拉松	-4101
▁据报导	-4102
急性呼吸道	-4103
25	-4104
▁波	-4105
上一	-4106
东北	-4107
可夫	-4108
外相	-4109
得分	-4110
近来	-4111
▁全球	-4112
发现的	-4113
可能的	-4114
行动的	-4115
二十四小时	-4116
上任	-4117
借由	-4118
封王	-4119
敌人	-4120
站在	-4121
绑匪	-4122
首轮	-4123
▁经济	-4124
多年来	-4125
18	-4126
不应	-4127
但仍	-4128
加油	-4129
合理	-4130
婚姻	-4131
整合	-4132
村庄	-4133
此外	-4134
滑雪	-4135
神社	-4136
联赛	-4137
规划	-4138
银牌	-4139
▁政府	-4140
兵工厂	-4141
在全球	-4142
布希的	-4143
最新的	-4144
的美军	-4145
高尔夫	-4146
▁在美国	-4147
另一方面	-4148
和平进程	-4149
▁北	-4150
之处	-4151
债权	-4152
原来	-4153
很有	-4154
捐赠	-4155
理论	-4156
联络	-4157
决赛中	-4158
投票所	-4159
英国首相布莱尔	-4160
▁美	-4161
交流	-4162
他不	-4163
以国	-4164
伤者	-4165
就像	-4166
巨大	-4167
巴尔	-4168
惩罚	-4169
教士	-4170
旗下	-4171
比二	-4172
率先	-4173
盟国	-4174
韩曼	-4175
四十三	-4176
由美国	-4177
的内容	-4178
红十字	-4179
特种部队	-4180
的支持者	-4181
▁声明中说	-4182
▁欧洲联盟	-4183
不变	-4184
以四	-4185
卡赛	-4186
后果	-4187
完整	-4188
审理	-4189
小的	-4190
并称	-4191
我会	-4192
携带	-4193
缓慢	-4194
裁判	-4195
西斯	-4196
诺斯	-4197
阻碍	-4198
▁在此	-4199
反应炉	-4200
外务省	-4201
屯垦区	-4202
指挥部	-4203
以色列的	-4204
有关当局	-4205
17	-4206
业绩	-4207
劫机	-4208
同性	-4209
广东	-4210
快乐	-4211
打出	-4212
搜集	-4213
植物	-4214
海域	-4215
特尔	-4216
生态	-4217
礼拜	-4218
考验	-4219
语言	-4220
长久	-4221
不景气	-4222
五十六	-4223
就可以	-4224
系统的	-4225
足球赛	-4226
百分之九	-4227
这项计划	-4228
与巴勒斯坦	-4229
严重急性呼吸道	-4230
石油输出国家组织	-4231
乃迪	-4232
前锋	-4233
射杀	-4234
尝试	-4235
展示	-4236
成交	-4237
戒备	-4238
是对	-4239
海洋	-4240
的心	-4241
绿色	-4242
队伍	-4243
马利	-4244
交易商	-4245
一千三百	-4246
暴力事件	-4247
不了	-4248
侦讯	-4249
动员	-4250
原定	-4251
含有	-4252
现金	-4253
瑞罗	-4254
肯亚	-4255
进驻	-4256
▁此项	-4257
▁莱斯	-4258
五十七	-4259
具尸体	-4260
影响力	-4261
的活动	-4262
有史以来	-4263
总统席哈克	-4264
月二十八日	-4265
澳洲公开赛	-4266
在一项声明中说	-4267
不当	-4268
又有	-4269
想到	-4270
海地	-4271
的中	-4272
真实	-4273
走上	-4274
追求	-4275
造访	-4276
甘乃迪	-4277
的需求	-4278
财政部	-4279
重量级	-4280
美国公开赛	-4281
一下	-4282
合资	-4283
带着	-4284
度的	-4285
教师	-4286
检测	-4287
社说	-4288
网络	-4289
观点	-4290
谈到	-4291
首脑	-4292
亿韩元	-4293
克罗埃	-4294
本周末	-4295
的选举	-4296
目击者说	-4297
格林威治时间	-4298
严重急性呼吸道症候群	-4299
下挫	-4300
几周	-4301
哈里	-4302
增强	-4303
审团	-4304
搜索	-4305
灾情	-4306
缔造	-4307
联准	-4308
载运	-4309
我们正	-4310
的生活	-4311
资讯科技	-4312
重要的是	-4313
克罗埃西亚	-4314
传闻	-4315
出局	-4316
坚决	-4317
学童	-4318
拉丁	-4319
描述	-4320
日产	-4321
申科	-4322
蛋白	-4323
辛巴	-4324
顾客	-4325
六十四	-4326
个人电脑	-4327
内政部长	-4328
民调显示	-4329
不及	-4330
以期	-4331
唐纳	-4332
常常	-4333
是不	-4334
瓦巴	-4335
马克	-4336
万英镑	-4337
总奖金	-4338
有些人	-4339
的看法	-4340
第四季	-4341
警察局	-4342
月二十四日	-4343
义务	-4344
五人	-4345
今晨	-4346
失误	-4347
布雷	-4348
挽救	-4349
接到	-4350
早在	-4351
有点	-4352
未经	-4353
机员	-4354
每股	-4355
环球	-4356
罢黜	-4357
藏匿	-4358
订单	-4359
象牙	-4360
逐步	-4361
六十三	-4362
自由车	-4363
▁官员说	-4364
展开调查	-4365
救难人员	-4366
阿布杜拉	-4367
有线电视新闻网	-4368
哈利	-4369
喇嘛	-4370
席次	-4371
幕后	-4372
毫不	-4373
沟通	-4374
炸药	-4375
生育	-4376
的好	-4377
直落	-4378
耶夫	-4379
都没有	-4380
百分之十	-4381
一九八九年	-4382
▁七	-4383
以防	-4384
侵略	-4385
免疫	-4386
圣地	-4387
外汇	-4388
契尔	-4389
百姓	-4390
知识	-4391
短缺	-4392
老将	-4393
薪资	-4394
迎接	-4395
违法	-4396
金山	-4397
靠近	-4398
▁教宗	-4399
▁这起	-4400
亿七千	-4401
出现在	-4402
四十一	-4403
四十九	-4404
的纪录	-4405
真正的	-4406
竞争力	-4407
到目前为止	-4408
月二十七日	-4409
事先	-4410
使馆	-4411
品牌	-4412
在野	-4413
将被	-4414
将领	-4415
当前	-4416
悲剧	-4417
步骤	-4418
留下	-4419
谘商	-4420
▁专家	-4421
不得不	-4422
大约有	-4423
支持的	-4424
的其他	-4425
之道	-4426
作物	-4427
俱乐	-4428
司令	-4429
地下	-4430
纺织	-4431
芝加	-4432
隆纳	-4433
首位	-4434
高于	-4435
行动中	-4436
决定是否	-4437
在华盛顿	-4438
一九九一年	-4439
借此	-4440
度假	-4441
意愿	-4442
教室	-4443
海峡	-4444
缩减	-4445
走向	-4446
万七千	-4447
的发展	-4448
第一季	-4449
芝加哥	-4450
辛巴威	-4451
发表谈话	-4452
人队	-4453
十天	-4454
卸任	-4455
曾与	-4456
满足	-4457
潜艇	-4458
的确	-4459
真主	-4460
邻居	-4461
重伤	-4462
我相信	-4463
不愿透露	-4464
发言人包润石	-4465
▁也	-4466
▁华	-4467
▁萨	-4468
国外	-4469
夏威	-4470
家园	-4471
封信	-4472
已向	-4473
希拉	-4474
开打	-4475
拉纳	-4476
撤销	-4477
氧化	-4478
洛夫	-4479
深入	-4480
试射	-4481
五十四	-4482
的会议	-4483
为一	-4484
作证	-4485
信用	-4486
午夜	-4487
哀悼	-4488
商界	-4489
数月	-4490
期货	-4491
诊断	-4492
将面临	-4493
瓦巴依	-4494
的能力	-4495
安全理事会	-4496
克拉	-4497
大力	-4498
房企	-4499
比尔	-4500
派出	-4501
生意	-4502
的热	-4503
这艘	-4504
靖国	-4505
已决定	-4506
并呼吁	-4507
强大的	-4508
旧金山	-4509
的任何	-4510
亚洲国家	-4511
我们可以	-4512
竞争对手	-4513
这项协议	-4514
▁报导指出	-4515
联合国秘书长安南	-4516
▁将	-4517
▁普	-4518
世锦	-4519
业界	-4520
六方	-4521
包围	-4522
各自	-4523
圣战	-4524
就此	-4525
意志	-4526
拳王	-4527
是他	-4528
是很	-4529
病的	-4530
着手	-4531
荣誉	-4532
转变	-4533
迄未	-4534
这批	-4535
▁一个	-4536
五十八	-4537
克拉克	-4538
公司说	-4539
增加了	-4540
希望在	-4541
当地的	-4542
聚集在	-4543
这也是	-4544
这件事	-4545
成立一个	-4546
靖国神社	-4547
月二十五日	-4548
以色列总理夏隆	-4549
世卫	-4550
之旅	-4551
场所	-4552
多年	-4553
挥出	-4554
迎战	-4555
阴影	-4556
阿里	-4557
二十年	-4558
五百名	-4559
亿四千	-4560
党领袖	-4561
农业部	-4562
的承诺	-4563
卡普莉提	-4564
▁你	-4565
▁因	-4566
一十	-4567
人都	-4568
债券	-4569
升空	-4570
孤立	-4571
小心	-4572
按照	-4573
支撑	-4574
权的	-4575
潜在	-4576
百货	-4577
给我	-4578
佛莱谢	-4579
另一名	-4580
和他的	-4581
夏威夷	-4582
官员们	-4583
并不是	-4584
的任务	-4585
裴瑞斯	-4586
以六比四	-4587
传奇	-4588
但未	-4589
做法	-4590
全体	-4591
只会	-4592
将其	-4593
敌对	-4594
数目	-4595
无线	-4596
经合	-4597
而被	-4598
行列	-4599
谨慎	-4600
它们的	-4601
希克罗	-4602
意味着	-4603
机器人	-4604
欧元区	-4605
演说中	-4606
的希望	-4607
着名的	-4608
耶诞节	-4609
欧洲国家	-4610
大西洋公约	-4611
▁是	-4612
▁金	-4613
之事	-4614
出动	-4615
印象	-4616
密集	-4617
居住	-4618
库德	-4619
我也	-4620
所能	-4621
永久	-4622
纳斯	-4623
营养	-4624
议程	-4625
为什么	-4626
在伦敦	-4627
将不会	-4628
已经有	-4629
今天早上	-4630
声明指出	-4631
的阿富汗	-4632
高峰会的	-4633
交手	-4634
始终	-4635
并于	-4636
搜狐	-4637
收益	-4638
杜尼	-4639
的水	-4640
秩序	-4641
订定	-4642
送到	-4643
上半年	-4644
也可能	-4645
但我们	-4646
接着说	-4647
还包括	-4648
免于	-4649
兹说	-4650
击炮	-4651
参选	-4652
回升	-4653
将他	-4654
得知	-4655
疗法	-4656
真是	-4657
视察	-4658
▁双方	-4659
▁第二	-4660
的东西	-4661
自卫队	-4662
被发现	-4663
的一部分	-4664
九一一事件	-4665
危害	-4666
救灾	-4667
是我	-4668
最初	-4669
牛只	-4670
背景	-4671
译音	-4672
踢进	-4673
追踪	-4674
途径	-4675
▁他的	-4676
一年前	-4677
也可以	-4678
会谈中	-4679
国集团	-4680
孟加拉	-4681
情况下	-4682
所谓的	-4683
政府将	-4684
的所有	-4685
雷马拉	-4686
一九九二年	-4687
▁西	-4688
举动	-4689
傍晚	-4690
安达	-4691
对我	-4692
小姐	-4693
战事	-4694
核能	-4695
研讨	-4696
考试	-4697
过于	-4698
驳回	-4699
波士顿	-4700
的人民	-4701
第一轮	-4702
以六比三	-4703
司法部长	-4704
官员指出	-4705
月二十二日	-4706
法国公开赛	-4707
▁沙	-4708
三周	-4709
上班	-4710
不振	-4711
人工	-4712
处决	-4713
女星	-4714
密的	-4715
强制	-4716
强力	-4717
得很	-4718
战犯	-4719
捷运	-4720
最快	-4721
此时	-4722
皇马	-4723
能否	-4724
萎缩	-4725
落在	-4726
▁安南	-4727
六十二	-4728
是否会	-4729
莉丝摩	-4730
观察家	-4731
北约组织	-4732
▁美国政府	-4733
国际原子能总署	-4734
▁麦	-4735
反而	-4736
开心	-4737
来访	-4738
法令	-4739
火灾	-4740
上周五	-4741
对北韩	-4742
的情报	-4743
的角色	-4744
种子的	-4745
总统选举	-4746
报导指出	-4747
14	-4748
24	-4749
互相	-4750
依照	-4751
在该	-4752
尔德	-4753
并购	-4754
新力	-4755
港口	-4756
特赦	-4757
牺牲	-4758
皮诺	-4759
监管	-4760
股份	-4761
铜牌	-4762
十年来	-4763
对这项	-4764
是否有	-4765
管理局	-4766
和俄罗斯	-4767
象牙海岸	-4768
去年十一月	-4769
▁于	-4770
▁苏	-4771
享受	-4772
信徒	-4773
参拜	-4774
在场	-4775
好像	-4776
安娜	-4777
实质	-4778
尔登	-4779
投掷	-4780
晤士	-4781
许可	-4782
降至	-4783
他认为	-4784
在一起	-4785
对日本	-4786
期徒刑	-4787
每一个	-4788
的事件	-4789
委员会的	-4790
对阿富汗	-4791
一九九三年	-4792
和巴勒斯坦	-4793
80	-4794
上有	-4795
也都	-4796
例行	-4797
刚果	-4798
哈地	-4799
提早	-4800
斡旋	-4801
无意	-4802
智慧	-4803
毕业	-4804
的四	-4805
等候	-4806
罗纳	-4807
肆虐	-4808
脆弱	-4809
航班	-4810
花了	-4811
达克	-4812
阳性	-4813
风景	-4814
前苏联	-4815
名人赛	-4816
庞大的	-4817
第三轮	-4818
迫击炮	-4819
中国政府	-4820
公司表示	-4821
统计数字	-4822
茉莉丝摩	-4823
不治	-4824
内特	-4825
周围	-4826
困扰	-4827
恩隆	-4828
想像	-4829
捐款	-4830
消失	-4831
灾区	-4832
灾民	-4833
烟草	-4834
燃烧	-4835
竞赛	-4836
署长	-4837
重回	-4838
万三千	-4839
亿六千	-4840
的速度	-4841
董事会	-4842
雪梨奥运	-4843
克莉丝特丝	-4844
自杀炸弹攻击	-4845
▁东	-4846
会长	-4847
在大	-4848
夺走	-4849
案子	-4850
球王	-4851
签约	-4852
行销	-4853
都很	-4854
▁瑞典	-4855
一定会	-4856
于今年	-4857
杜尼查	-4858
中东地区	-4859
证据显示	-4860
不受	-4861
专利	-4862
之意	-4863
克劳	-4864
出去	-4865
拉波	-4866
放宽	-4867
新任	-4868
格勒	-4869
获致	-4870
过渡	-4871
队长	-4872
阿米	-4873
七十一	-4874
两小时	-4875
事务的	-4876
众议员	-4877
在巴黎	-4878
大工业	-4879
必要的	-4880
一千六百	-4881
我们相信	-4882
经济合作	-4883
美国海军	-4884
▁法	-4885
不够	-4886
家乡	-4887
所属	-4888
枪击	-4889
气温	-4890
深感	-4891
滑冰	-4892
登陆	-4893
言论	-4894
过关	-4895
产品的	-4896
和南韩	-4897
在世界	-4898
经济的	-4899
警方说	-4900
霍华德	-4901
一千四百	-4902
发表评论	-4903
雅典奥运	-4904
▁五角大厦	-4905
为此	-4906
分歧	-4907
唱片	-4908
多个	-4909
拦截	-4910
拿到	-4911
渔船	-4912
监视	-4913
第十	-4914
胜选	-4915
芮氏	-4916
认定	-4917
送交	-4918
陷于	-4919
二二年	-4920
五十名	-4921
以确保	-4922
公里处	-4923
是一项	-4924
联盟的	-4925
▁阿拉法特	-4926
东南亚国家	-4927
比去年同期	-4928
不多	-4929
两家	-4930
他和	-4931
但却	-4932
作家	-4933
华纳	-4934
原告	-4935
各大	-4936
启动	-4937
小学	-4938
打开	-4939
显着	-4940
曝光	-4941
本书	-4942
杀人	-4943
看好	-4944
究竟	-4945
量的	-4946
面积	-4947
骇客	-4948
▁官方	-4949
▁随着	-4950
个月的	-4951
带来的	-4952
戴克辛	-4953
炭疽菌	-4954
约一百	-4955
这些人	-4956
访问时表示	-4957
▁上	-4958
主演	-4959
人为	-4960
列车	-4961
则说	-4962
哈托	-4963
巴国	-4964
并对	-4965
暴徒	-4966
气体	-4967
汇价	-4968
血管	-4969
设置	-4970
黄金	-4971
传染病	-4972
投资者	-4973
亚太经合	-4974
的话报导	-4975
▁莫	-4976
五天	-4977
低迷	-4978
体重	-4979
倒塌	-4980
公寓	-4981
出一	-4982
届满	-4983
已遭	-4984
新华	-4985
曾说	-4986
渡假	-4987
经纪	-4988
队友	-4989
卡斯楚	-4990
当局已	-4991
斯杜尼查	-4992
美国人民	-4993
▁纽约时报	-4994
自由贸易协定	-4995
两韩	-4996
军警	-4997
出面	-4998
右翼	-4999
听取	-5000
器官	-5001
图书	-5002
官司	-5003
情事	-5004
担忧	-5005
排行	-5006
更大	-5007
民国	-5008
温室	-5009
濒临	-5010
爸爸	-5011
的马	-5012
纳粹	-5013
请求	-5014
里说	-5015
七十四	-5016
会议上	-5017
则表示	-5018
去年的	-5019
政府在	-5020
办事	-5021
帐户	-5022
应用	-5023
德华	-5024
所说	-5025
搜救	-5026
未曾	-5027
▁公司	-5028
▁记者	-5029
五十万	-5030
人员说	-5031
他们已	-5032
原因是	-5033
可以在	-5034
在亚洲	-5035
女士说	-5036
成功的	-5037
最好的	-5038
让我们	-5039
众多	-5040
便宜	-5041
夏季	-5042
头号	-5043
安德	-5044
官邸	-5045
工党	-5046
平息	-5047
战的	-5048
执照	-5049
男孩	-5050
联手	-5051
自我	-5052
过世	-5053
▁负责	-5054
在明年	-5055
将持续	-5056
得票率	-5057
政策的	-5058
的社会	-5059
路线图	-5060
边会谈	-5061
2000	-5062
数据显示	-5063
▁马来西亚	-5064
13	-5065
一同	-5066
久的	-5067
出炉	-5068
及时	-5069
外面	-5070
妮可	-5071
德黑	-5072
慈善	-5073
皮肤	-5074
相比	-5075
省长	-5076
迈进	-5077
里克	-5078
▁全国	-5079
亿三千	-5080
俱乐部	-5081
塞隆纳	-5082
网站上	-5083
莱斯勒	-5084
今天清晨	-5085
红十字会	-5086
西方国家	-5087
▁就	-5088
▁狄	-5089
代理	-5090
会场	-5091
停车	-5092
利雅	-5093
安门	-5094
引渡	-5095
泰勒	-5096
维茨	-5097
综合	-5098
豪雨	-5099
边的	-5100
交易所	-5101
台北市	-5102
在东京	-5103
德国的	-5104
非正式	-5105
汽车炸弹	-5106
金融时报	-5107
美国国务卿鲍尔	-5108
亲王	-5109
农村	-5110
同以	-5111
塔斯	-5112
有权	-5113
特定	-5114
福斯	-5115
郊区	-5116
重挫	-5117
▁有关	-5118
七十六	-5119
万六千	-5120
二三年	-5121
可能有	-5122
德黑兰	-5123
法国的	-5124
看起来	-5125
陪审团	-5126
野生动物	-5127
也对	-5128
仍不	-5129
借以	-5130
基尔	-5131
循环	-5132
总计	-5133
披索	-5134
振兴	-5135
晤谈	-5136
榴弹	-5137
残骸	-5138
补助	-5139
转播	-5140
阿诺	-5141
黑人	-5142
▁它说	-5143
▁巴西	-5144
副总裁	-5145
线城市	-5146
进行调查	-5147
盖达恐怖组织	-5148
大西洋公约组织	-5149
▁四	-5150
三度	-5151
为其	-5152
动荡	-5153
压倒	-5154
反击	-5155
女单	-5156
审查	-5157
布兰	-5158
强的	-5159
影像	-5160
感冒	-5161
成了	-5162
朝日	-5163
的那	-5164
筹备	-5165
莎白	-5166
虐待	-5167
我们要	-5168
是一种	-5169
架飞机	-5170
的指控	-5171
皮诺契	-5172
维持在	-5173
美元兑	-5174
陈水扁	-5175
国际机场	-5176
通过一项	-5177
▁不	-5178
▁吴	-5179
万科	-5180
上限	-5181
任职	-5182
依赖	-5183
博士	-5184
商人	-5185
回忆	-5186
外籍	-5187
平方	-5188
控诉	-5189
无辜	-5190
查证	-5191
职员	-5192
趋缓	-5193
配额	-5194
零一	-5195
▁第一	-5196
冠军杯	-5197
因为他	-5198
报引述	-5199
新德里	-5200
有一名	-5201
的理由	-5202
集中在	-5203
去年十月	-5204
在巴格达	-5205
工作机会	-5206
联合政府	-5207
▁比	-5208
亚军	-5209
发电	-5210
多国	-5211
富士	-5212
度过	-5213
梅尔	-5214
爱国	-5215
百万	-5216
要是	-5217
阁员	-5218
食用	-5219
同性恋	-5220
和平奖	-5221
在这次	-5222
尤申科	-5223
爆发的	-5224
的照片	-5225
类似的	-5226
联准会	-5227
进行了	-5228
部长级	-5229
▁阿根廷	-5230
分离主义	-5231
号太空梭	-5232
拉丁美洲	-5233
竞选活动	-5234
达赖喇嘛	-5235
预算赤字	-5236
七时	-5237
为他	-5238
二时	-5239
克莱	-5240
公务	-5241
大多	-5242
将把	-5243
应付	-5244
意识	-5245
播放	-5246
某种	-5247
档案	-5248
比七	-5249
沃佛	-5250
特斯	-5251
诸多	-5252
跟我	-5253
还未	-5254
都市	-5255
一直是	-5256
上周在	-5257
巴拉克	-5258
▁英国首相布莱尔	-5259
七个	-5260
也很	-5261
作了	-5262
即可	-5263
原料	-5264
女孩	-5265
尼说	-5266
指导	-5267
效力	-5268
杜哈	-5269
转往	-5270
配备	-5271
事件的	-5272
疾病的	-5273
罗迪克	-5274
▁分析师	-5275
弹道飞弹	-5276
伊拉克总统	-5277
全年	-5278
凸显	-5279
少女	-5280
就任	-5281
极力	-5282
深夜	-5283
的这	-5284
起的	-5285
轮值	-5286
道德	-5287
雇用	-5288
两年前	-5289
九月份	-5290
会谈后	-5291
国民党	-5292
姓名的	-5293
新闻说	-5294
国会大选	-5295
恐怖活动	-5296
这项计画	-5297
的巴勒斯坦	-5298
一半	-5299
为由	-5300
五时	-5301
但也	-5302
依旧	-5303
回来	-5304
护照	-5305
混合	-5306
草拟	-5307
返国	-5308
布莱恩	-5309
通过的	-5310
石油输出国	-5311
上下	-5312
加尔	-5313
吁请	-5314
向前	-5315
和谈	-5316
头衔	-5317
影展	-5318
扣押	-5319
沙漠	-5320
福田	-5321
药厂	-5322
辛苦	-5323
之一的	-5324
五十三	-5325
教科书	-5326
澳洲的	-5327
停火协议	-5328
克莱斯勒	-5329
选举结果	-5330
▁八	-5331
之路	-5332
也已	-5333
占有	-5334
号的	-5335
季后	-5336
寻获	-5337
广大	-5338
未获	-5339
法规	-5340
田中	-5341
网坛	-5342
罚款	-5343
马国	-5344
▁当地	-5345
天安门	-5346
姆斯壮	-5347
安全的	-5348
摄影机	-5349
电视网	-5350
病毒的	-5351
的市场	-5352
罗马尼亚	-5353
美国公民	-5354
调查报告	-5355
亿五千万美元	-5356
26	-5357
三位	-5358
中间	-5359
创新	-5360
各个	-5361
带领	-5362
行事	-5363
遏阻	-5364
饮食	-5365
业巨擘	-5366
二十名	-5367
希拉蕊	-5368
斯坦堡	-5369
的现象	-5370
的选票	-5371
协商会议	-5372
接受治疗	-5373
倾向	-5374
制定	-5375
加斯	-5376
史密	-5377
听说	-5378
对峙	-5379
市区	-5380
新年	-5381
无可	-5382
暂居	-5383
查获	-5384
瘫痪	-5385
红色	-5386
维夫	-5387
▁所以	-5388
东北部	-5389
而不是	-5390
致命的	-5391
驱逐舰	-5392
抗议活动	-5393
最重要的	-5394
▁日	-5395
▁维	-5396
作成	-5397
回收	-5398
妥协	-5399
尔瓦	-5400
早先	-5401
汇市	-5402
程式	-5403
被问	-5404
轮胎	-5405
办事处	-5406
发球局	-5407
这么做	-5408
并未说明	-5409
所提出的	-5410
本周稍早	-5411
百分之六	-5412
贸易代表	-5413
一分	-5414
主场	-5415
人被	-5416
奖牌	-5417
岛屿	-5418
已获	-5419
恐怕	-5420
我对	-5421
此间	-5422
病情	-5423
监禁	-5424
等到	-5425
蒙古	-5426
追捕	-5427
重创	-5428
金钱	-5429
院长	-5430
▁正当	-5431
生还者	-5432
的迹象	-5433
网路上	-5434
沃佛维茨	-5435
激进份子	-5436
石油部长	-5437
这项研究	-5438
军售	-5439
则以	-5440
剩下	-5441
十万	-5442
噪音	-5443
坐在	-5444
奥林	-5445
姆林	-5446
官房	-5447
投下	-5448
是因	-5449
本地	-5450
样的	-5451
歌曲	-5452
波特	-5453
物资	-5454
突袭	-5455
融资	-5456
装甲	-5457
让步	-5458
送往	-5459
阿国	-5460
图书馆	-5461
1999	-5462
▁雅罗育	-5463
在联合国	-5464
月二十三日	-5465
阿拉伯国家	-5466
体制	-5467
利润	-5468
前后	-5469
前途	-5470
单一	-5471
名称	-5472
大卫	-5473
尽力	-5474
巴人	-5475
建华	-5476
形式	-5477
歹徒	-5478
答复	-5479
纳入	-5480
罗拉	-5481
脑部	-5482
金属	-5483
今天以	-5484
六比一	-5485
印度洋	-5486
尼可夫	-5487
是世界	-5488
今天警告	-5489
六方会谈	-5490
通货紧缩	-5491
▁报导中说	-5492
总统金大中	-5493
较去年同期	-5494
不必	-5495
事发	-5496
八时	-5497
分配	-5498
前年	-5499
天文	-5500
太太	-5501
姓名	-5502
将来	-5503
搭档	-5504
暴行	-5505
本土	-5506
次于	-5507
看看	-5508
继承	-5509
缩小	-5510
而使	-5511
而定	-5512
调高	-5513
转型	-5514
这支	-5515
迫切	-5516
麻烦	-5517
世锦赛	-5518
使用者	-5519
公司在	-5520
出现了	-5521
在首都	-5522
威尔斯	-5523
每个人	-5524
第二盘	-5525
苏哈托	-5526
▁科学家	-5527
今天稍后	-5528
各国领袖	-5529
百分之一	-5530
▁林	-5531
三星	-5532
家的	-5533
已达	-5534
幕僚	-5535
报道	-5536
搭载	-5537
浪费	-5538
读卖	-5539
跑道	-5540
近期	-5541
顺差	-5542
▁东京	-5543
▁瑞士	-5544
五十九	-5545
亚齐省	-5546
奥林匹	-5547
浓缩铀	-5548
的证据	-5549
经常帐	-5550
解放军	-5551
遭到攻击	-5552
▁美国官员	-5553
89	-5554
三国	-5555
写道	-5556
别人	-5557
到达	-5558
哈拉	-5559
大气	-5560
学员	-5561
承受	-5562
抱持	-5563
政坛	-5564
海南	-5565
的美	-5566
芬兰	-5567
解散	-5568
马上	-5569
▁此次	-5570
▁针对	-5571
五百万	-5572
危险的	-5573
很大的	-5574
我们也	-5575
界人士	-5576
的一种	-5577
的总统	-5578
统计局	-5579
航空暨	-5580
的一部份	-5581
示威群众	-5582
这项法案	-5583
阳性反应	-5584
国家安全顾问	-5585
▁鲁	-5586
一件	-5587
一群	-5588
中毒	-5589
公顷	-5590
创办	-5591
增进	-5592
并以	-5593
开战	-5594
开罗	-5595
当场	-5596
意思	-5597
无疑	-5598
机械	-5599
条款	-5600
梦想	-5601
片面	-5602
牲畜	-5603
礼物	-5604
离婚	-5605
糖尿	-5606
过了	-5607
选战	-5608
▁中共	-5609
▁微软	-5610
听证会	-5611
在德国	-5612
机构的	-5613
欧尼尔	-5614
泰内特	-5615
的人士	-5616
的男子	-5617
世界银行	-5618
以及其他	-5619
内阁官房	-5620
武器检查	-5621
与巴基斯坦	-5622
百分之二十	-5623
一边	-5624
三时	-5625
上场	-5626
优惠	-5627
佳绩	-5628
党魁	-5629
告知	-5630
声望	-5631
影星	-5632
成年	-5633
早盘	-5634
梵蒂	-5635
瓦砾	-5636
空难	-5637
结盟	-5638
负面	-5639
边缘	-5640
高中	-5641
人失踪	-5642
医院的	-5643
十五个	-5644
斯洛伐	-5645
梵蒂冈	-5646
与以色列	-5647
全国各地	-5648
去年九月	-5649
巴塞隆纳	-5650
支持美国	-5651
研究中心	-5652
经济衰退	-5653
老虎伍兹	-5654
记者表示	-5655
▁美国国防部	-5656
22	-5657
何种	-5658
全场	-5659
卡尔	-5660
可靠	-5661
多伦	-5662
太子	-5663
强势	-5664
心的	-5665
数名	-5666
男单	-5667
疲软	-5668
相反	-5669
给他	-5670
起火	-5671
销毁	-5672
锁定	-5673
镇暴	-5674
一千名	-5675
兆日圆	-5676
十二名	-5677
将前往	-5678
的尸体	-5679
的规定	-5680
三分之一	-5681
维和部队	-5682
皇家马德里	-5683
40	-5684
▁古	-5685
▁夏	-5686
主题	-5687
使他	-5688
六时	-5689
制止	-5690
前进	-5691
匈牙	-5692
单打	-5693
却是	-5694
双打	-5695
增产	-5696
布伦	-5697
正义	-5698
此地	-5699
汉堡	-5700
物品	-5701
王储	-5702
鼓舞	-5703
▁而且	-5704
他将在	-5705
匈牙利	-5706
和一名	-5707
官员在	-5708
政府与	-5709
最高的	-5710
的一场	-5711
逮捕了	-5712
总部设在	-5713
柯林顿总统	-5714
航空暨太空总署	-5715
▁约	-5716
严密	-5717
伊国	-5718
先后	-5719
刚刚	-5720
北海	-5721
国旗	-5722
审讯	-5723
就要	-5724
成熟	-5725
房价	-5726
摩托	-5727
汶莱	-5728
深圳	-5729
炸毁	-5730
界的	-5731
肥胖	-5732
设定	-5733
▁阿布	-5734
七十八	-5735
三年的	-5736
仅次于	-5737
今天对	-5738
任何人	-5739
保守派	-5740
副主席	-5741
在一个	-5742
影响到	-5743
的汽车	-5744
面金牌	-5745
一百三十	-5746
暂时并列	-5747
波音公司	-5748
51	-5749
▁纳	-5750
传达	-5751
分割	-5752
受审	-5753
大奖	-5754
女生	-5755
岛的	-5756
拘禁	-5757
提交	-5758
本案	-5759
潜水	-5760
省份	-5761
简短	-5762
警讯	-5763
默德	-5764
因为我	-5765
我们有	-5766
的第三	-5767
董建华	-5768
谈判的	-5769
近年来	-5770
最后一次	-5771
纽约时报	-5772
▁日本政府	-5773
▁日本首相小泉纯一郎	-5774
▁还	-5775
一所	-5776
下月	-5777
专门	-5778
两大	-5779
公分	-5780
十时	-5781
在西	-5782
室内	-5783
寮国	-5784
抽烟	-5785
最有	-5786
来临	-5787
枪手	-5788
环法	-5789
疲弱	-5790
聊天	-5791
载有	-5792
逆转	-5793
飞航	-5794
首要	-5795
高涨	-5796
亿九千	-5797
他们对	-5798
国际间	-5799
投票率	-5800
更大的	-5801
犹太人	-5802
伊斯兰马	-5803
发表上述	-5804
这场比赛	-5805
打击恐怖主义	-5806
▁再	-5807
一套	-5808
一期	-5809
上台	-5810
伍德	-5811
利说	-5812
升值	-5813
声浪	-5814
强暴	-5815
投降	-5816
撤回	-5817
教会	-5818
普通	-5819
河内	-5820
泰森	-5821
相撞	-5822
破裂	-5823
致词	-5824
都能	-5825
七十三	-5826
局局长	-5827
工程师	-5828
结束时	-5829
第二回合	-5830
维持和平	-5831
执行委员会	-5832
▁刘	-5833
与他	-5834
交货	-5835
享年	-5836
他曾	-5837
保健	-5838
军舰	-5839
台币	-5840
困在	-5841
志愿	-5842
持股	-5843
接任	-5844
摄氏	-5845
摇滚	-5846
整顿	-5847
汽油	-5848
的手	-5849
竭尽	-5850
艾宁	-5851
贬值	-5852
阵亡	-5853
▁位于	-5854
向美国	-5855
时代的	-5856
昨天说	-5857
的成长	-5858
一千两百	-5859
今天引述	-5860
建立一个	-5861
27	-5862
▁德	-5863
中旬	-5864
人事	-5865
人命	-5866
付出	-5867
六人	-5868
判断	-5869
卡罗	-5870
友谊	-5871
开启	-5872
恐慌	-5873
挫折	-5874
澄清	-5875
生化	-5876
的有	-5877
纷争	-5878
警力	-5879
赛前	-5880
超出	-5881
越战	-5882
车子	-5883
▁南非	-5884
危机的	-5885
的最佳	-5886
相关的	-5887
观察员	-5888
足球队	-5889
预料将	-5890
▁声明说	-5891
与美国的	-5892
所造成的	-5893
亚太经合会	-5894
▁贝	-5895
不如	-5896
之内	-5897
信托	-5898
做好	-5899
动机	-5900
它在	-5901
家里	-5902
左派	-5903
开票	-5904
扭转	-5905
操作	-5906
热烈	-5907
而这	-5908
警觉	-5909
豪华	-5910
下半年	-5911
以美国	-5912
分之二	-5913
在昨天	-5914
的人口	-5915
的人权	-5916
的父亲	-5917
蛋白质	-5918
访问的	-5919
亚太地区	-5920
发生爆炸	-5921
好战分子	-5922
调查显示	-5923
九时	-5924
人与	-5925
从来	-5926
动武	-5927
危及	-5928
受灾	-5929
合唱	-5930
塑胶	-5931
大增	-5932
家禽	-5933
已使	-5934
强迫	-5935
恶劣	-5936
挫败	-5937
有两	-5938
电池	-5939
的亲	-5940
累计	-5941
观念	-5942
诈欺	-5943
说是	-5944
迈阿	-5945
迫害	-5946
降息	-5947
为美国	-5948
也不会	-5949
当选人	-5950
的妇女	-5951
的访问	-5952
费瑞罗	-5953
中国当局	-5954
今天抵达	-5955
以六比二	-5956
可能导致	-5957
奥林匹克	-5958
当地时间	-5959
西班牙的	-5960
轮值主席	-5961
记者会上说	-5962
▁艾斯特拉达	-5963
日本首相小泉纯一郎	-5964
书面	-5965
以南	-5966
公主	-5967
存款	-5968
尔本	-5969
尼克	-5970
已故	-5971
年纪	-5972
拘押	-5973
改组	-5974
枪战	-5975
英军	-5976
访谈	-5977
身的	-5978
进攻	-5979
闭幕	-5980
万八千	-5981
大地震	-5982
总共有	-5983
第二名	-5984
世界经济	-5985
今天呼吁	-5986
伊斯坦堡	-5987
国土安全	-5988
特拉维夫	-5989
皮诺契特	-5990
总理施若德	-5991
▁南	-5992
三项	-5993
上个	-5994
中被	-5995
乡村	-5996
仔细	-5997
位在	-5998
减轻	-5999
加勒	-6000
团的	-6001
恩说	-6002
才是	-6003
无数	-6004
样本	-6005
神秘	-6006
联网	-6007
航太	-6008
虐囚	-6009
通往	-6010
▁亚洲	-6011
七十七	-6012
亚特兰	-6013
公司将	-6014
利雅德	-6015
吉尼亚	-6016
和英国	-6017
尤克斯	-6018
已要求	-6019
的贸易	-6020
这将是	-6021
▁鲍尔说	-6022
报告中说	-6023
芮氏规模	-6024
解除武装	-6025
这项行动	-6026
▁美国国防部长伦斯斐	-6027
▁韩	-6028
不准	-6029
东方	-6030
头的	-6031
季节	-6032
尼黑	-6033
惊人	-6034
教徒	-6035
款项	-6036
用途	-6037
的性	-6038
真相	-6039
送医	-6040
企业的	-6041
准备在	-6042
十一时	-6043
发现了	-6044
在华府	-6045
在香港	-6046
姆林宫	-6047
慕尼黑	-6048
最近的	-6049
的机率	-6050
研究员	-6051
英特尔	-6052
工业生产	-6053
颁奖典礼	-6054
▁在此之前	-6055
经济成长率	-6056
▁雷	-6057
交谈	-6058
他会	-6059
包含	-6060
固醇	-6061
学会	-6062
它是	-6063
完美	-6064
提斯	-6065
温度	-6066
疏散	-6067
社论	-6068
较为	-6069
采行	-6070
限期	-6071
高出	-6072
即将于	-6073
另一项	-6074
四个月	-6075
据报导	-6076
的一份	-6077
的战争	-6078
第二天	-6079
等问题	-6080
经济复苏	-6081
这项决定	-6082
伊拉克人民	-6083
总统雅罗育	-6084
禽流感病毒	-6085
吉斯	-6086
商讨	-6087
型的	-6088
惊讶	-6089
成人	-6090
手的	-6091
抗争	-6092
挹注	-6093
控股	-6094
殖民	-6095
每月	-6096
玻璃	-6097
白色	-6098
航线	-6099
铺路	-6100
阻挠	-6101
兑美元	-6102
受欢迎	-6103
巴尔干	-6104
是中国	-6105
中央通信	-6106
发生冲突	-6107
和华盛顿	-6108
国际奥会	-6109
基金会的	-6110
我们已经	-6111
这个地区	-6112
▁与此同时	-6113
▁报导引述	-6114
利物	-6115
后说	-6116
售价	-6117
奋战	-6118
对决	-6119
打得	-6120
拉瓦	-6121
校园	-6122
的二	-6123
纠纷	-6124
自称	-6125
花莲	-6126
表面	-6127
车站	-6128
都被	-6129
零年	-6130
首映	-6131
一开始	-6132
被判处	-6133
达成的	-6134
飞行员	-6135
今天公布	-6136
以来一直	-6137
以色列人	-6138
行政长官	-6139
表示欢迎	-6140
遭到逮捕	-6141
万个	-6142
不知	-6143
人大	-6144
南德	-6145
博蒂	-6146
可惜	-6147
团聚	-6148
札夸	-6149
来得	-6150
枪杀	-6151
物的	-6152
甚么	-6153
皇室	-6154
罗门	-6155
蒙蒂	-6156
诺曼	-6157
走势	-6158
辛赫	-6159
迪士	-6160
追缉	-6161
零零	-6162
出来的	-6163
子公司	-6164
对我们	-6165
排行榜	-6166
演唱会	-6167
相同的	-6168
第三名	-6169
纺织品	-6170
网球赛	-6171
的俄罗斯	-6172
高尔夫球	-6173
盖达组织的	-6174
美国国务院	-6175
业已	-6176
前任	-6177
唯有	-6178
地铁	-6179
好几	-6180
并与	-6181
幸福	-6182
打败	-6183
抵抗	-6184
搭机	-6185
期盼	-6186
柏忌	-6187
歧视	-6188
油管	-6189
特勒	-6190
现有	-6191
生存	-6192
等人	-6193
老年	-6194
船员	-6195
透明	-6196
他们是	-6197
八十二	-6198
利物浦	-6199
宣布将	-6200
有两名	-6201
汽车的	-6202
没办法	-6203
爱德华	-6204
被指控	-6205
西北部	-6206
三千五百	-6207
安全措施	-6208
本月稍早	-6209
的受访者	-6210
紧急状态	-6211
联合国的	-6212
麦可杰克森	-6213
外交部发言人	-6214
一球	-6215
一面	-6216
之虞	-6217
前所	-6218
史蒂	-6219
备忘	-6220
开车	-6221
心情	-6222
我是	-6223
明尼	-6224
有其	-6225
有时	-6226
枢机	-6227
检视	-6228
的遗	-6229
精彩	-6230
苏尔	-6231
课征	-6232
谋求	-6233
负起	-6234
贿赂	-6235
辞去	-6236
送给	-6237
飙涨	-6238
▁声明	-6239
一定要	-6240
全球化	-6241
对他的	-6242
札夸威	-6243
欧洲的	-6244
油价格	-6245
的程度	-6246
贝尔格勒	-6247
不愿具名的	-6248
不起	-6249
中将	-6250
也未	-6251
但因	-6252
制的	-6253
区内	-6254
右派	-6255
夫特	-6256
女童	-6257
幸运	-6258
微博	-6259
拟议	-6260
效率	-6261
救济	-6262
新增	-6263
早期	-6264
村落	-6265
游说	-6266
眼睛	-6267
等等	-6268
纳说	-6269
观看	-6270
额外	-6271
高雄	-6272
不过他	-6273
以避免	-6274
和北韩	-6275
墨尔本	-6276
备忘录	-6277
小时后	-6278
库尔登	-6279
的地点	-6280
的基础	-6281
的欧洲	-6282
里斯提	-6283
预算案	-6284
三百五十	-6285
卫生部长	-6286
双边关系	-6287
地方法院	-6288
这名男子	-6289
月二十一日	-6290
-3	-6291
▁除	-6292
临床	-6293
克曼	-6294
公正	-6295
史卓	-6296
回报	-6297
富豪	-6298
拟定	-6299
提起	-6300
欧玛	-6301
维拉	-6302
艾尔	-6303
蒙哥	-6304
蓄意	-6305
规则	-6306
财富	-6307
适应	-6308
那是	-6309
部落	-6310
雅虎	-6311
分别是	-6312
多伦多	-6313
本月初	-6314
电台说	-6315
真主党	-6316
▁民主党	-6317
美国国会	-6318
美国选手	-6319
金融市场	-6320
伊斯兰马巴德	-6321
一批	-6322
不出	-6323
中场	-6324
主动	-6325
停滞	-6326
出场	-6327
出境	-6328
击落	-6329
咸信	-6330
夏天	-6331
存活	-6332
安装	-6333
就能	-6334
弥撒	-6335
撞击	-6336
最为	-6337
沿岸	-6338
消耗	-6339
等于	-6340
编辑	-6341
萨克	-6342
贩售	-6343
边境	-6344
选务	-6345
今天将	-6346
六十一	-6347
冲突中	-6348
副部长	-6349
发电厂	-6350
大家都	-6351
岁生日	-6352
引起的	-6353
强硬派	-6354
指的是	-6355
独裁者	-6356
的责任	-6357
世界冠军	-6358
对以色列	-6359
时代华纳	-6360
辩护律师	-6361
这个国家	-6362
阿姆斯壮	-6363
▁国	-6364
信仰	-6365
倒闭	-6366
历时	-6367
在新	-6368
级的	-6369
组合	-6370
肿瘤	-6371
舞弊	-6372
辞呈	-6373
连锁	-6374
零件	-6375
面前	-6376
▁但他	-6377
八十五	-6378
劳工党	-6379
左里克	-6380
暴风雨	-6381
泰晤士	-6382
的权利	-6383
的环境	-6384
的重大	-6385
▁报告说	-6386
世卫组织	-6387
告诉媒体	-6388
新闻社引述	-6389
柯斯杜尼查	-6390
国家广播公司	-6391
北大西洋公约组织	-6392
教宗若望保禄二世	-6393
▁下	-6394
▁梅	-6395
之战	-6396
乔丹	-6397
侦测	-6398
在第	-6399
天后	-6400
太过	-6401
安定	-6402
宣读	-6403
揣测	-6404
替代	-6405
现正	-6406
球的	-6407
空前	-6408
费雪	-6409
露面	-6410
韩战	-6411
▁经过	-6412
不确定	-6413
副食品	-6414
在澳洲	-6415
威廉斯	-6416
已获得	-6417
推出的	-6418
攻击者	-6419
生产的	-6420
迪士尼	-6421
一万五千	-6422
第二种子	-6423
这些国家	-6424
驻联合国	-6425
▁发言人说	-6426
查尔斯王子	-6427
世界杯足球赛	-6428
一张	-6429
三分	-6430
也被	-6431
侵害	-6432
刊出	-6433
巩固	-6434
干旱	-6435
延伸	-6436
材料	-6437
玛丹	-6438
说话	-6439
酒吧	-6440
▁大会	-6441
产油国	-6442
市政府	-6443
并警告	-6444
很可能	-6445
有能力	-6446
独立的	-6447
的事实	-6448
的声明	-6449
部长官	-6450
一百四十	-6451
今年三月	-6452
他们认为	-6453
第一回合	-6454
第三种子	-6455
副总统钱尼	-6456
报今天报导	-6457
▁华盛顿邮报	-6458
诺贝尔和平奖	-6459
▁吉	-6460
一部	-6461
乌拉	-6462
保安	-6463
剧院	-6464
友好	-6465
塞特	-6466
将自	-6467
建国	-6468
我就	-6469
更新	-6470
柯瑞	-6471
瑕疵	-6472
的外	-6473
萤幕	-6474
记得	-6475
邪恶	-6476
都要	-6477
雅子	-6478
为基础	-6479
了这项	-6480
以协助	-6481
数十名	-6482
日本人	-6483
的城市	-6484
的改革	-6485
自由化	-6486
迈阿密	-6487
▁席哈克	-6488
卫生官员	-6489
将在未来	-6490
继续进行	-6491
▁另一方面	-6492
禽流感疫情	-6493
内阁官房长官	-6494
国家主席江泽民	-6495
一只	-6496
可怕	-6497
处境	-6498
头部	-6499
寻常	-6500
将不	-6501
差异	-6502
废除	-6503
惨重	-6504
戏剧	-6505
攸关	-6506
暖化	-6507
暴露	-6508
机的	-6509
柯尔	-6510
注册	-6511
热门	-6512
现身	-6513
落网	-6514
警报	-6515
赛车	-6516
重演	-6517
镇的	-6518
一千零	-6519
十三名	-6520
十月份	-6521
压倒性	-6522
我知道	-6523
是非常	-6524
的核子	-6525
目前仍	-6526
▁发言人	-6527
一千七百	-6528
其他地区	-6529
大幅增加	-6530
海珊政权	-6531
穆巴拉克	-6532
被认为是	-6533
警方表示	-6534
▁白	-6535
▁米	-6536
万吨	-6537
中所	-6538
也要	-6539
伟大	-6540
住民	-6541
公告	-6542
到处	-6543
周边	-6544
往往	-6545
承担	-6546
有四	-6547
比零	-6548
灾害	-6549
炸死	-6550
穆罕	-6551
肌肉	-6552
补给	-6553
询及	-6554
雷达	-6555
鲁特	-6556
市场上	-6557
斯表示	-6558
的澳洲	-6559
的部分	-6560
民主联盟	-6561
示威抗议	-6562
维吉尼亚	-6563
镇暴警察	-6564
六月三十日	-6565
在约旦河西岸	-6566
▁奥	-6567
中最	-6568
休士	-6569
制药	-6570
友人	-6571
啤酒	-6572
固定	-6573
廉价	-6574
异常	-6575
弥补	-6576
扫荡	-6577
投手	-6578
换取	-6579
推测	-6580
无关	-6581
无力	-6582
昨日	-6583
机师	-6584
楼市	-6585
欢呼	-6586
海滩	-6587
清理	-6588
现已	-6589
罗伯	-6590
致敬	-6591
花式	-6592
萨德	-6593
认可	-6594
详情	-6595
退伍	-6596
闯入	-6597
高阶	-6598
万人口	-6599
两周前	-6600
代表队	-6601
加利亚	-6602
发展的	-6603
可能使	-6604
对他们	-6605
我可以	-6606
法兰克	-6607
的一千	-6608
的法律	-6609
的讯息	-6610
美国队	-6611
一千二百	-6612
就业机会	-6613
解决方案	-6614
助理国务卿	-6615
首都喀布尔	-6616
人力	-6617
作者	-6618
保住	-6619
凶手	-6620
处罚	-6621
姿态	-6622
开赛	-6623
教廷	-6624
法拉	-6625
现实	-6626
球星	-6627
瑞兹	-6628
石块	-6629
绝不	-6630
而遭	-6631
肺炎	-6632
表态	-6633
西尼	-6634
议案	-6635
诞生	-6636
辩称	-6637
进军	-6638
里昂	-6639
顶尖	-6640
发出的	-6641
台维斯	-6642
在最后	-6643
在这里	-6644
并指出	-6645
总成绩	-6646
氧化碳	-6647
黛安娜	-6648
职业生涯	-6649
▁报告中说	-6650
电视台报导	-6651
伯尔	-6652
先发	-6653
冒险	-6654
哥斯	-6655
地中	-6656
多彩	-6657
多边	-6658
女网	-6659
对待	-6660
年终	-6661
得多	-6662
总是	-6663
捕鲸	-6664
核准	-6665
英美	-6666
落败	-6667
走路	-6668
遇到	-6669
骑士	-6670
黑色	-6671
也指出	-6672
南韩的	-6673
可能性	-6674
巴西兰	-6675
广泛的	-6676
海南岛	-6677
的一座	-6678
的关键	-6679
正在调查	-6680
研究显示	-6681
英国政府	-6682
以色列部队	-6683
和巴基斯坦	-6684
英国广播公司	-6685
俄罗斯总统蒲亭	-6686
▁各	-6687
▁已	-6688
▁达	-6689
出院	-6690
审议	-6691
尽速	-6692
捍卫	-6693
排队	-6694
摩根	-6695
权益	-6696
法塔	-6697
泰莉	-6698
激励	-6699
破发	-6700
累积	-6701
葬礼	-6702
西北	-6703
饮料	-6704
首日	-6705
▁凯瑞	-6706
七十九	-6707
可能对	-6708
支持率	-6709
时间表	-6710
第二个	-6711
叛乱份子	-6712
寻求庇护	-6713
小威廉丝	-6714
的联合国	-6715
第四种子	-6716
蒙哥马利	-6717
警察首长	-6718
走上街头	-6719
▁目击者说	-6720
自杀炸弹客	-6721
一号	-6722
一带	-6723
以致	-6724
保有	-6725
停电	-6726
公报	-6727
华裔	-6728
库克	-6729
开庭	-6730
弹性	-6731
推行	-6732
携手	-6733
时事	-6734
物理	-6735
特区	-6736
瓦解	-6737
症的	-6738
野心	-6739
▁还有	-6740
产生的	-6741
八十四	-6742
北韩人	-6743
的一家	-6744
的德国	-6745
获得的	-6746
销售额	-6747
今天指出	-6748
台维斯杯	-6749
因为他们	-6750
研究小组	-6751
示威活动	-6752
这项报导	-6753
调查委员会	-6754
高级官员说	-6755
29	-6756
▁加	-6757
▁朱	-6758
专注	-6759
人才	-6760
像是	-6761
射击	-6762
局的	-6763
斐济	-6764
更好	-6765
申办	-6766
的老	-6767
约束	-6768
色情	-6769
葛拉	-6770
雅图	-6771
雷诺	-6772
三千名	-6773
九日在	-6774
也呼吁	-6775
合并案	-6776
我们所	-6777
接下来	-6778
的全球	-6779
的大约	-6780
的局面	-6781
的挑战	-6782
目标是	-6783
福田康	-6784
那就是	-6785
部署在	-6786
采取的	-6787
两千五百	-6788
今年一月	-6789
回教祈祷	-6790
解放阵线	-6791
美国大使馆	-6792
总统穆夏拉夫	-6793
石油输出国组织	-6794
一大	-6795
七人	-6796
下次	-6797
体内	-6798
克雷	-6799
具名	-6800
回国	-6801
在对	-6802
塔拉	-6803
多家	-6804
大举	-6805
奖杯	-6806
旗帜	-6807
机组	-6808
约诺	-6809
联席	-6810
评等	-6811
该党	-6812
财长	-6813
赛程	-6814
越过	-6815
转向	-6816
进球	-6817
风格	-6818
饲料	-6819
▁前述	-6820
▁荷兰	-6821
但他们	-6822
团体的	-6823
小时内	-6824
的电影	-6825
的网路	-6826
研究院	-6827
纪录的	-6828
莎莉丝	-6829
▁他们说	-6830
保加利亚	-6831
外交关系	-6832
消息来源	-6833
驻伊拉克	-6834
反恐怖主义	-6835
截至目前为止	-6836
▁五	-6837
不适	-6838
丧礼	-6839
候选	-6840
入口	-6841
只好	-6842
召集	-6843
地说	-6844
场合	-6845
如同	-6846
尽量	-6847
工资	-6848
强生	-6849
彼得	-6850
托莫	-6851
接管	-6852
推广	-6853
攻打	-6854
斯顿	-6855
正与	-6856
派兵	-6857
被指	-6858
该队	-6859
货车	-6860
车厢	-6861
进而	-6862
阳光	-6863
集结	-6864
一系列	-6865
伟大的	-6866
已证实	-6867
布希在	-6868
录音带	-6869
手榴弹	-6870
的基本	-6871
的妻子	-6872
的未来	-6873
而遭到	-6874
▁英格兰	-6875
举行大选	-6876
公民投票	-6877
卫生当局	-6878
我不认为	-6879
最大规模	-6880
武检人员	-6881
武装部队	-6882
温室效应	-6883
美军部队	-6884
▁世界排名	-6885
麦克雷兰说	-6886
加入世界贸易组织	-6887
▁联合国秘书长安南	-6888
▁杨	-6889
不下	-6890
不顾	-6891
九人	-6892
二号	-6893
偏远	-6894
储存	-6895
四分	-6896
在上	-6897
天候	-6898
家宝	-6899
左翼	-6900
帕拉	-6901
很少	-6902
愉快	-6903
我将	-6904
挑衅	-6905
新兴	-6906
有三	-6907
标语	-6908
此类	-6909
殴打	-6910
目睹	-6911
艰难	-6912
调停	-6913
赌博	-6914
选为	-6915
▁可是	-6916
之所以	-6917
亿八千	-6918
仪式中	-6919
八强赛	-6920
圣地牙	-6921
执政的	-6922
播出的	-6923
是全球	-6924
有信心	-6925
温家宝	-6926
的石油	-6927
的部队	-6928
二次大战	-6929
打电话给	-6930
激进分子	-6931
阿米塔吉	-6932
▁哥伦比亚	-6933
▁让	-6934
万辆	-6935
交所	-6936
作收	-6937
做到	-6938
发给	-6939
女婴	-6940
委托	-6941
安置	-6942
席位	-6943
思考	-6944
故障	-6945
有了	-6946
格斯	-6947
眼镜	-6948
观赏	-6949
调升	-6950
连接	-6951
追查	-6952
释出	-6953
零二	-6954
▁伍兹	-6955
不公平	-6956
与法国	-6957
其他的	-6958
即将在	-6959
四年的	-6960
季后赛	-6961
展开的	-6962
执政团	-6963
旗下的	-6964
激烈的	-6965
的反应	-6966
贾西亚	-6967
▁我觉得	-6968
国会选举	-6969
大工业国	-6970
总理夏隆	-6971
明年一月	-6972
经济改革	-6973
在中国大陆	-6974
对抗恐怖主义	-6975
之差	-6976
件事	-6977
保罗	-6978
偿还	-6979
八个	-6980
军力	-6981
制片	-6982
加紧	-6983
原订	-6984
可在	-6985
同僚	-6986
姊妹	-6987
尔蒙	-6988
层楼	-6989
截止	-6990
拯救	-6991
景象	-6992
最早	-6993
每次	-6994
潜力	-6995
的说	-6996
药检	-6997
轿车	-6998
还将	-6999
震央	-7000
与国际	-7001
五美元	-7002
休士顿	-7003
公尺的	-7004
官方的	-7005
数百万	-7006
明显的	-7007
武器的	-7008
胡托莫	-7009
运动会	-7010
一百六十	-7011
伊拉克人	-7012
加入欧盟	-7013
宣誓就职	-7014
枢机主教	-7015
▁这项研究	-7016
反弹道飞弹	-7017
官员今天表示	-7018
联合国安全理事会	-7019
亚运	-7020
交战	-7021
伯利	-7022
克林	-7023
创作	-7024
判定	-7025
助长	-7026
南省	-7027
变动	-7028
口号	-7029
太大	-7030
好处	-7031
展览	-7032
巨人	-7033
干净	-7034
收费	-7035
早晨	-7036
比海	-7037
治安	-7038
清除	-7039
的重	-7040
相继	-7041
离去	-7042
种种	-7043
称赞	-7044
财经	-7045
跌幅	-7046
轻易	-7047
部会	-7048
酒店	-7049
▁她在	-7050
▁如今	-7051
二年的	-7052
和欧洲	-7053
或其他	-7054
▁国防部	-7055
圣地牙哥	-7056
已经开始	-7057
报讯记者	-7058
第一种子	-7059
高级专员	-7060
举行高峰会	-7061
▁六	-7062
上校	-7063
上说	-7064
不用	-7065
两党	-7066
两起	-7067
中方	-7068
产能	-7069
则为	-7070
勒说	-7071
发的	-7072
同事	-7073
垮台	-7074
大为	-7075
大门	-7076
必然	-7077
恐惧	-7078
提振	-7079
涉案	-7080
球赛	-7081
电器	-7082
确信	-7083
票对	-7084
笼罩	-7085
约为	-7086
终点	-7087
职棒	-7088
西南	-7089
逼近	-7090
队和	-7091
历史上	-7092
告诉我	-7093
大屠杀	-7094
尔瓦多	-7095
已开发	-7096
巴拉迪	-7097
所作的	-7098
是我们	-7099
的投资	-7100
谈判桌	-7101
▁马其顿	-7102
与伊拉克	-7103
丰富多彩	-7104
加勒比海	-7105
十八个月	-7106
各国政府	-7107
有期徒刑	-7108
的办公室	-7109
▁穆夏拉夫	-7110
选举委员会	-7111
21	-7112
争论	-7113
党员	-7114
医药	-7115
占据	-7116
味道	-7117
地主	-7118
外资	-7119
奖项	-7120
对策	-7121
尤多	-7122
已知	-7123
年初	-7124
强风	-7125
忘记	-7126
拜会	-7127
效忠	-7128
无效	-7129
早就	-7130
有多	-7131
法的	-7132
淡化	-7133
理念	-7134
萨雷	-7135
课程	-7136
过后	-7137
那摩	-7138
邮政	-7139
陶宛	-7140
▁受到	-7141
▁有些	-7142
一方面	-7143
丽莎白	-7144
他相信	-7145
和平与	-7146
在印度	-7147
在台湾	-7148
正确的	-7149
火车站	-7150
的领袖	-7151
亚里斯提	-7152
今年四月	-7153
军事演习	-7154
庆祝活动	-7155
艾希克罗	-7156
一九七二年	-7157
以色列和巴勒斯坦	-7158
中情	-7159
五万	-7160
四次	-7161
塞德	-7162
夜市	-7163
大致	-7164
奋力	-7165
奖的	-7166
巴克	-7167
干员	-7168
打球	-7169
拨款	-7170
施加	-7171
族群	-7172
日增	-7173
欣赏	-7174
渴望	-7175
现行	-7176
的国	-7177
相机	-7178
行径	-7179
谘询	-7180
走出	-7181
防空	-7182
霍乱	-7183
▁联合	-7184
与欧洲	-7185
与英国	-7186
修正案	-7187
刊出的	-7188
新台币	-7189
是日本	-7190
玛丹娜	-7191
的两名	-7192
的价格	-7193
的制裁	-7194
的忧虑	-7195
财务省	-7196
这两名	-7197
预定在	-7198
马哈地	-7199
一千八百	-7200
举行会议	-7201
参加这项	-7202
密切注意	-7203
尤多约诺	-7204
我们正在	-7205
克里姆林宫	-7206
发表声明指出	-7207
感染爱滋病毒	-7208
书记	-7209
低点	-7210
军机	-7211
利夫	-7212
力图	-7213
厄瓜	-7214
变迁	-7215
夏姆	-7216
女人	-7217
安纳	-7218
废弃	-7219
延续	-7220
战时	-7221
打了	-7222
时速	-7223
是从	-7224
概念	-7225
的阿	-7226
行驶	-7227
豪宅	-7228
软禁	-7229
锡克	-7230
▁新闻	-7231
▁每日	-7232
一年的	-7233
了一项	-7234
作准备	-7235
八十七	-7236
协会的	-7237
发动的	-7238
和德国	-7239
正面临	-7240
比去年	-7241
海珊的	-7242
索拉纳	-7243
足够的	-7244
二百五十	-7245
同时也是	-7246
这个世界	-7247
华尔街日报	-7248
华盛顿邮报	-7249
世界贸易中心	-7250
研究报告指出	-7251
世足	-7252
中风	-7253
取缔	-7254
将达	-7255
已就	-7256
平安	-7257
惨遭	-7258
我跟	-7259
挖掘	-7260
收取	-7261
日的	-7262
昂贵	-7263
查出	-7264
比耶	-7265
汤普	-7266
玛丽	-7267
疑问	-7268
的双	-7269
盟军	-7270
罗宾	-7271
逃亡	-7272
那种	-7273
金森	-7274
高等	-7275
▁当局	-7276
▁结果	-7277
其中有	-7278
反映出	-7279
名员工	-7280
库德族	-7281
每小时	-7282
特原油	-7283
的最高	-7284
社会党	-7285
立陶宛	-7286
第三大	-7287
两百五十	-7288
拒绝透露	-7289
消防人员	-7290
的大规模	-7291
七比六七比	-7292
28	-7293
60	-7294
一栋	-7295
不见	-7296
使其	-7297
先行	-7298
办理	-7299
加德	-7300
十足	-7301
单独	-7302
受创	-7303
在地	-7304
坏帐	-7305
天花	-7306
夫妻	-7307
已由	-7308
幸存	-7309
抵制	-7310
探视	-7311
救护	-7312
数天	-7313
新生	-7314
日渐	-7315
桥梁	-7316
琉球	-7317
疟疾	-7318
继任	-7319
艾佛	-7320
英语	-7321
行星	-7322
补偿	-7323
询以	-7324
都未	-7325
限于	-7326
预警	-7327
▁正在	-7328
伯利恒	-7329
八十六	-7330
前总理	-7331
及美国	-7332
因为在	-7333
将讨论	-7334
政府已	-7335
洋基队	-7336
的焦点	-7337
军事攻击	-7338
受到影响	-7339
异议人士	-7340
▁于此同时	-7341
▁在此同时	-7342
▁警方表示	-7343
半岛电视台	-7344
▁日本经济新闻	-7345
一如	-7346
不想	-7347
个别	-7348
之久	-7349
之以	-7350
乐团	-7351
交锋	-7352
修订	-7353
做了	-7354
入会	-7355
公吨	-7356
午餐	-7357
和其	-7358
复出	-7359
害怕	-7360
岛上	-7361
延误	-7362
手下	-7363
歌迷	-7364
死伤	-7365
版本	-7366
票数	-7367
策动	-7368
类的	-7369
谈论	-7370
赚钱	-7371
▁军方	-7372
两天的	-7373
传统的	-7374
八十一	-7375
巡回赛	-7376
的一年	-7377
的抗议	-7378
第三次	-7379
第二度	-7380
贝鲁特	-7381
阿拉威	-7382
一千一百	-7383
对记者说	-7384
流血冲突	-7385
的重要性	-7386
赛冠军的	-7387
金融危机	-7388
▁国际传真	-7389
通货膨胀率	-7390
记者会上表示	-7391
遭到恐怖攻击	-7392
入狱	-7393
几位	-7394
培养	-7395
塔米	-7396
复兴	-7397
夫在	-7398
小说	-7399
康复	-7400
所幸	-7401
打到	-7402
拖延	-7403
有罪	-7404
杀手	-7405
洗钱	-7406
流通	-7407
炮火	-7408
私下	-7409
这段	-7410
追加	-7411
隆坡	-7412
顾虑	-7413
▁国会	-7414
乌拉圭	-7415
分钟后	-7416
十二个	-7417
大选中	-7418
广东省	-7419
是一位	-7420
有多少	-7421
死亡率	-7422
死亡的	-7423
的严重	-7424
的民主	-7425
第十一	-7426
该集团	-7427
▁佛莱谢	-7428
今天凌晨	-7429
农业部长	-7430
强烈地震	-7431
达成一项	-7432
自由贸易区	-7433
采取军事行动	-7434
美国总统柯林顿	-7435
▁芮	-7436
不大	-7437
两架	-7438
九个	-7439
亦即	-7440
任内	-7441
住家	-7442
关达	-7443
出兵	-7444
合格	-7445
和他	-7446
喀拉	-7447
外泄	-7448
大麻	-7449
已从	-7450
席尔	-7451
当劳	-7452
撤退	-7453
收受	-7454
救出	-7455
服装	-7456
沉没	-7457
澳元	-7458
球后	-7459
生病	-7460
纵火	-7461
线索	-7462
进场	-7463
连胜	-7464
遭人	-7465
▁联邦	-7466
也希望	-7467
保守党	-7468
农产品	-7469
十五分	-7470
受影响	-7471
吉隆坡	-7472
商务部	-7473
坦米尔	-7474
将提供	-7475
彻斯特	-7476
特表示	-7477
的历史	-7478
的条件	-7479
迈尔斯	-7480
问题是	-7481
世界各地	-7482
人丧生和	-7483
今年六月	-7484
关达那摩	-7485
贸易伙伴	-7486
资料显示	-7487
对巴勒斯坦	-7488
西班牙选手	-7489
一八	-7490
交往	-7491
人因	-7492
但我	-7493
保育	-7494
偶像	-7495
兵力	-7496
具备	-7497
喜剧	-7498
容忍	-7499
巡赛	-7500
并向	-7501
急救	-7502
更有	-7503
玛拉	-7504
电动	-7505
登场	-7506
的非	-7507
脚步	-7508
被人	-7509
设于	-7510
▁随后	-7511
三年前	-7512
专家说	-7513
事件中	-7514
但是在	-7515
八月份	-7516
前所未	-7517
双方的	-7518
感染的	-7519
收盘价	-7520
生产力	-7521
的代表	-7522
的因素	-7523
的情势	-7524
的罪名	-7525
公共卫生	-7526
反对美国	-7527
和伊拉克	-7528
法兰克福	-7529
绿色和平	-7530
记者会中	-7531
阿尔及利亚	-7532
▁这名官员说	-7533
不愿透露姓名的	-7534
上了	-7535
下载	-7536
中亚	-7537
仲裁	-7538
会商	-7539
军火	-7540
大有	-7541
小将	-7542
干达	-7543
得奖	-7544
性质	-7545
战火	-7546
打捞	-7547
拆除	-7548
招致	-7549
指派	-7550
接掌	-7551
无罪	-7552
森堡	-7553
汤姆	-7554
注入	-7555
泽西	-7556
涌入	-7557
用在	-7558
的头	-7559
竟然	-7560
证人	-7561
诉求	-7562
赋予	-7563
里兹	-7564
▁一项	-7565
▁钱尼	-7566
他已经	-7567
和法国	-7568
斯达克	-7569
民众的	-7570
的南韩	-7571
的飞机	-7572
范围内	-7573
车队的	-7574
边界的	-7575
那时候	-7576
北韩核子	-7577
启程前往	-7578
将有助于	-7579
经济发展	-7580
杆暂时并列	-7581
领袖金正日	-7582
▁京	-7583
▁希	-7584
二五	-7585
亚努	-7586
交付	-7587
仅仅	-7588
住房	-7589
侵入	-7590
允诺	-7591
决选	-7592
双双	-7593
姚明	-7594
性命	-7595
揭露	-7596
普尔	-7597
燃油	-7598
爵士	-7599
简直	-7600
联队	-7601
萨斯	-7602
蹂躏	-7603
达尔	-7604
这条	-7605
连霸	-7606
▁两人	-7607
不愿意	-7608
两千年	-7609
乌干达	-7610
发生了	-7611
在南韩	-7612
巨大的	-7613
成立的	-7614
最后的	-7615
有一天	-7616
理事国	-7617
的技术	-7618
的武器	-7619
的经验	-7620
直落二	-7621
第一盘	-7622
糖尿病	-7623
罗纳度	-7624
保险公司	-7625
历史性的	-7626
发射升空	-7627
安全人员	-7628
救援人员	-7629
反对党领袖	-7630
国务卿莱斯	-7631
▁到	-7632
▁要	-7633
两院	-7634
传递	-7635
作栋	-7636
公关	-7637
前线	-7638
发明	-7639
哈斯	-7640
失利	-7641
姆勒	-7642
宇宙	-7643
富裕	-7644
常任	-7645
平常	-7646
废气	-7647
引进	-7648
总长	-7649
摩尔	-7650
斯德	-7651
旁边	-7652
是有	-7653
热带	-7654
王妃	-7655
的五	-7656
的长	-7657
睡觉	-7658
税收	-7659
篮球	-7660
获救	-7661
跌至	-7662
里约	-7663
门票	-7664
▁华府	-7665
▁市场	-7666
与欧盟	-7667
两人的	-7668
互联网	-7669
六月份	-7670
可能已	-7671
喀拉蚩	-7672
地中海	-7673
基本上	-7674
对这些	-7675
的相关	-7676
行政院	-7677
高比耶	-7678
▁他告诉	-7679
中华民国	-7680
会员国的	-7681
政治人物	-7682
签署一项	-7683
的经济成长	-7684
35	-7685
▁霍	-7686
一倍	-7687
三大	-7688
两盘	-7689
亥俄	-7690
关卡	-7691
去看	-7692
可归	-7693
同情	-7694
地雷	-7695
场地	-7696
增幅	-7697
并为	-7698
开支	-7699
收藏	-7700
文学	-7701
期刊	-7702
棕榈	-7703
洛斯	-7704
海底	-7705
获悉	-7706
菁英	-7707
财报	-7708
越界	-7709
较高	-7710
违规	-7711
验票	-7712
麦卡	-7713
一美元	-7714
俄亥俄	-7715
八十三	-7716
原住民	-7717
反抗军	-7718
发生于	-7719
在此地	-7720
塔吉克	-7721
已表示	-7722
的疑虑	-7723
的精神	-7724
科维奇	-7725
官员今天	-7726
激进团体	-7727
穆罕默德	-7728
联席会议	-7729
贫穷国家	-7730
▁包润石说	-7731
▁美国国家	-7732
民主党总统候选人	-7733
一波	-7734
不已	-7735
世人	-7736
伏击	-7737
写着	-7738
刻意	-7739
南极	-7740
卡纳	-7741
土石	-7742
地带	-7743
嫌疑	-7744
层面	-7745
帝国	-7746
帮忙	-7747
悲观	-7748
感受	-7749
教学	-7750
曼提	-7751
校长	-7752
此刻	-7753
残障	-7754
毛派	-7755
理解	-7756
病逝	-7757
确切	-7758
而出	-7759
观测	-7760
议长	-7761
较低	-7762
还说	-7763
阿兹	-7764
▁即使	-7765
▁国营	-7766
▁高尔	-7767
不清楚	-7768
伯利亚	-7769
卢森堡	-7770
合唱团	-7771
名单中	-7772
在白宫	-7773
城市的	-7774
如果你	-7775
居住在	-7776
布莱克	-7777
是一名	-7778
是他们	-7779
的基因	-7780
的学生	-7781
自去年	-7782
进行中	-7783
▁不过他	-7784
北爱尔兰	-7785
十亿美元	-7786
所领导的	-7787
电台报导	-7788
联邦政府	-7789
▁分析家说	-7790
以色列军队	-7791
华盛顿当局	-7792
▁凯	-7793
▁塞	-7794
仰赖	-7795
但它	-7796
入围	-7797
六国	-7798
写下	-7799
冷静	-7800
出人	-7801
卖出	-7802
可见	-7803
各位	-7804
围墙	-7805
容许	-7806
密西	-7807
平等	-7808
并有	-7809
当作	-7810
手持	-7811
拉底	-7812
拉德	-7813
拿马	-7814
杀伤	-7815
正值	-7816
比数	-7817
油轮	-7818
渡轮	-7819
片中	-7820
猜测	-7821
皇后	-7822
维修	-7823
罗夫	-7824
者在	-7825
胜出	-7826
臭味	-7827
萝拉	-7828
西非	-7829
计程	-7830
较大	-7831
里布	-7832
▁他也	-7833
▁巴黎	-7834
▁最后	-7835
▁气象	-7836
与德国	-7837
世界的	-7838
九十五	-7839
五日在	-7840
全球的	-7841
占有率	-7842
厄瓜多	-7843
另一位	-7844
可望在	-7845
条人命	-7846
民营化	-7847
的唯一	-7848
的外交	-7849
致力于	-7850
都可以	-7851
长时间	-7852
龚萨雷	-7853
一段时间	-7854
三分之二	-7855
伊丽莎白	-7856
伙伴关系	-7857
在俄罗斯	-7858
朝日新闻	-7859
这种疾病	-7860
非法移民	-7861
▁根据美国	-7862
伊拉克境内	-7863
首相森喜朗	-7864
中央银行总裁	-7865
反弹道飞弹条约	-7866
国务卿欧布莱特	-7867
巴勒斯坦自治政府	-7868
▁又	-7869
东欧	-7870
两万	-7871
事后	-7872
五分	-7873
住进	-7874
健全	-7875
则有	-7876
刷新	-7877
勇敢	-7878
参考	-7879
史瓦	-7880
吃饭	-7881
基亚	-7882
多久	-7883
大道	-7884
战俘	-7885
指定	-7886
接种	-7887
推杆	-7888
斗争	-7889
杜拜	-7890
棘手	-7891
榜首	-7892
滥用	-7893
生素	-7894
疯狂	-7895
要到	-7896
身穿	-7897
队以	-7898
饮水	-7899
▁而在	-7900
人员的	-7901
会谈时	-7902
可能被	-7903
的健康	-7904
的出口	-7905
的国会	-7906
的日子	-7907
的趋势	-7908
蒙蒂西	-7909
2001	-7910
▁巴瑞克	-7911
二十四名	-7912
正式宣布	-7913
自杀攻击	-7914
货币政策	-7915
这份报告	-7916
非洲国家	-7917
▁诺	-7918
之用	-7919
也因	-7920
事项	-7921
信贷	-7922
出血	-7923
加快	-7924
哲宁	-7925
四时	-7926
处分	-7927
奖额	-7928
宠物	-7929
富有	-7930
已因	-7931
慢慢	-7932
极度	-7933
火势	-7934
煤炭	-7935
离职	-7936
而未	-7937
耗费	-7938
致死	-7939
让她	-7940
贫困	-7941
▁这部	-7942
。89	-7943
与印度	-7944
亿两千	-7945
今年初	-7946
会议后	-7947
八十八	-7948
已进入	-7949
的企业	-7950
第二的	-7951
签署的	-7952
老百姓	-7953
马利亚	-7954
一九九年	-7955
世界各国	-7956
举行选举	-7957
在菲律宾	-7958
我们不会	-7959
极端份子	-7960
特别会议	-7961
表决通过	-7962
调查结果	-7963
通用汽车	-7964
百分之八十	-7965
百分之十五	-7966
▁康	-7967
▁菲	-7968
东南	-7969
为人	-7970
出国	-7971
削弱	-7972
口气	-7973
处以	-7974
夜间	-7975
女友	-7976
好了	-7977
它已	-7978
宣判	-7979
尔摩	-7980
干扰	-7981
张贴	-7982
总监	-7983
所获	-7984
拥抱	-7985
挥舞	-7986
早日	-7987
有力	-7988
本来	-7989
油田	-7990
清洁	-7991
病房	-7992
的卡	-7993
看见	-7994
移交	-7995
组的	-7996
自愿	-7997
药剂	-7998
莫亚	-7999
薪水	-8000
警局	-8001
认同	-8002
九十九	-8003
二四年	-8004
供应商	-8005
共产党	-8006
出生的	-8007
动物园	-8008
很好的	-8009
服务业	-8010
民众对	-8011
负责任	-8012
二千五百	-8013
军事基地	-8014
回教国家	-8015
多人受伤	-8016
日报报导	-8017
民族主义	-8018
电视台说	-8019
的支持率	-8020
绝大多数	-8021
法轮功学员	-8022
联合国大会	-8023
消息人士表示	-8024
▁白宫发言人佛莱谢	-8025
▁总	-8026
两种	-8027
严肃	-8028
互动	-8029
优秀	-8030
做的	-8031
克逊	-8032
十人	-8033
后勤	-8034
向来	-8035
吓阻	-8036
哈特	-8037
囊括	-8038
在前	-8039
坠机	-8040
复原	-8041
天堂	-8042
对立	-8043
思想	-8044
揭开	-8045
撰写	-8046
施政	-8047
无家	-8048
有机	-8049
玉米	-8050
税务	-8051
结核	-8052
花园	-8053
荣获	-8054
葛兰	-8055
贩卖	-8056
路上	-8057
车上	-8058
轻伤	-8059
隧道	-8060
驱散	-8061
高喊	-8062
三十名	-8063
二十万	-8064
住宅区	-8065
反恐怖	-8066
史密斯	-8067
因为它	-8068
妮可娃	-8069
强烈的	-8070
曼德拉	-8071
正准备	-8072
瓦砾堆	-8073
的产品	-8074
的判决	-8075
阿布贾	-8076
一般认为	-8077
以六比一	-8078
北京当局	-8079
原油价格	-8080
发言人艾	-8081
史高比耶	-8082
基础设施	-8083
大规模的	-8084
日益升高	-8085
进行表决	-8086
金融机构	-8087
一九八八年	-8088
▁以色列军方	-8089
▁美国官员说	-8090
九月十一日美国	-8091
之多	-8092
也能	-8093
会使	-8094
倡议	-8095
原始	-8096
小鸟	-8097
德在	-8098
惠普	-8099
掩饰	-8100
普斯	-8101
男人	-8102
监控	-8103
祝福	-8104
罪犯	-8105
营救	-8106
蒙罗	-8107
蜜拉	-8108
这套	-8109
那加	-8110
阵地	-8111
饰演	-8112
▁先前	-8113
今天向	-8114
他是否	-8115
提供了	-8116
是根据	-8117
现有的	-8118
的命运	-8119
经纪人	-8120
被送往	-8121
六边会谈	-8122
四百五十	-8123
夏姆锡克	-8124
将于明天	-8125
蒙罗维亚	-8126
访问行程	-8127
本会计年度	-8128
维吉尼亚州	-8129
主席葛林斯潘	-8130
内阁官房长官福田康	-8131
▁最	-8132
下达	-8133
不动	-8134
不敢	-8135
之地	-8136
亲人	-8137
克瑞	-8138
党内	-8139
入主	-8140
全民	-8141
八人	-8142
多半	-8143
完善	-8144
往来	-8145
拉巴	-8146
挺进	-8147
接下	-8148
撞上	-8149
生气	-8150
用品	-8151
登辉	-8152
的巴	-8153
研拟	-8154
策画	-8155
维多	-8156
而来	-8157
聆听	-8158
艰困	-8159
西欧	-8160
货物	-8161
贪渎	-8162
足总	-8163
跟你	-8164
辛尼	-8165
辛格	-8166
那不	-8167
金斯	-8168
驻军	-8169
▁预料	-8170
三月底	-8171
九十三	-8172
他们也	-8173
十一个	-8174
卫冕的	-8175
去年在	-8176
发生时	-8177
和印度	-8178
国家党	-8179
将他们	-8180
所需的	-8181
超级杯	-8182
还可以	-8183
零点五	-8184
一百八十	-8185
在十一月	-8186
在此之前	-8187
感到非常	-8188
无家可归	-8189
第一夫人	-8190
▁美国总统	-8191
声明中指出	-8192
法新社记者	-8193
万一	-8194
两座	-8195
乳癌	-8196
交火	-8197
会对	-8198
伯拉	-8199
出租	-8200
出身	-8201
力道	-8202
反驳	-8203
均未	-8204
大厂	-8205
天空	-8206
导向	-8207
层级	-8208
引人	-8209
惨剧	-8210
成分	-8211
我有	-8212
据说	-8213
改选	-8214
故意	-8215
杰辛	-8216
森严	-8217
母舰	-8218
毗邻	-8219
水域	-8220
消灭	-8221
涨幅	-8222
热情	-8223
瓦伦	-8224
省会	-8225
矛盾	-8226
纾困	-8227
缔结	-8228
美丽	-8229
耗资	-8230
该项	-8231
贵宾	-8232
赞同	-8233
跑步	-8234
重重	-8235
长程	-8236
闯进	-8237
100	-8238
▁此间	-8239
七月份	-8240
九十二	-8241
创办人	-8242
十四名	-8243
哥尔摩	-8244
布希与	-8245
有效的	-8246
的人道	-8247
的销售	-8248
领先的	-8249
万五千人	-8250
两国关系	-8251
加拿大的	-8252
圣战组织	-8253
外交官说	-8254
宾拉登的	-8255
强烈反对	-8256
我们需要	-8257
攻击目标	-8258
曼彻斯特	-8259
花式滑冰	-8260
警告指出	-8261
斯德哥尔摩	-8262
领导人金正日	-8263
▁俄罗斯总统蒲亭	-8264
▁说	-8265
下个	-8266
买下	-8267
会后	-8268
全垒	-8269
兽医	-8270
利浦	-8271
呆帐	-8272
外科	-8273
姐妹	-8274
尊严	-8275
已与	-8276
得要	-8277
新型	-8278
日常	-8279
时曾	-8280
显现	-8281
杰出	-8282
此前	-8283
民进	-8284
海关	-8285
深信	-8286
祖国	-8287
穿越	-8288
等地	-8289
红土	-8290
网上	-8291
美的	-8292
蕴藏	-8293
衣索	-8294
诈骗	-8295
过境	-8296
选区	-8297
那样	-8298
邻邦	-8299
隐私	-8300
驻扎	-8301
▁媒体	-8302
▁广州	-8303
▁未来	-8304
▁部分	-8305
不稳定	-8306
今天也	-8307
企业界	-8308
北京的	-8309
尼西亚	-8310
战争的	-8311
所面临	-8312
显然是	-8313
的一切	-8314
的一处	-8315
的一大	-8316
的一篇	-8317
第一名	-8318
纪念日	-8319
计程车	-8320
通讯社	-8321
▁塔利班	-8322
▁施若德	-8323
▁比利时	-8324
一千九百	-8325
下落不明	-8326
反对阵营	-8327
恢复正常	-8328
斯洛伐克	-8329
的美国人	-8330
航空母舰	-8331
这项会议	-8332
退伍军人	-8333
重要角色	-8334
以色列士兵	-8335
回教祈祷团	-8336
消费者支出	-8337
▁使	-8338
上映	-8339
不只	-8340
与前	-8341
严峻	-8342
中期	-8343
从而	-8344
伊利	-8345
传输	-8346
克鲁	-8347
创立	-8348
卷入	-8349
反美	-8350
后卫	-8351
周遭	-8352
场上	-8353
大概	-8354
大雨	-8355
奋进	-8356
妹妹	-8357
子弹	-8358
实行	-8359
已是	-8360
布罗	-8361
开展	-8362
弃权	-8363
态势	-8364
据报	-8365
接力	-8366
暂列	-8367
波顿	-8368
激增	-8369
申报	-8370
的安	-8371
禁赛	-8372
血压	-8373
费特	-8374
遏制	-8375
道琼	-8376
遗传	-8377
遣返	-8378
里亚	-8379
高手	-8380
▁搜狐	-8381
不信任	-8382
他可能	-8383
内加尔	-8384
出现的	-8385
利安尼	-8386
哈萨克	-8387
外交通	-8388
女主角	-8389
我们都	-8390
昨晚在	-8391
波音七	-8392
现代化	-8393
的官员	-8394
的生产	-8395
的股权	-8396
良好的	-8397
赖夫特	-8398
零年代	-8399
▁美国驻	-8400
上市公司	-8401
伤势严重	-8402
南韩政府	-8403
可能造成	-8404
地面部队	-8405
微软公司	-8406
民主党的	-8407
▁他接着说	-8408
一九八六年	-8409
消费者信心	-8410
国家安全顾问莱斯	-8411
自杀炸弹攻击事件	-8412
23	-8413
一举	-8414
一间	-8415
仰光	-8416
促销	-8417
停顿	-8418
劲敌	-8419
十亿	-8420
坠落	-8421
她是	-8422
它对	-8423
定期	-8424
并使	-8425
手臂	-8426
披头	-8427
捐助	-8428
掀起	-8429
日后	-8430
曾任	-8431
来袭	-8432
极大	-8433
此役	-8434
海牙	-8435
煤矿	-8436
琪克	-8437
篮板	-8438
舒服	-8439
轻微	-8440
重振	-8441
阵容	-8442
频频	-8443
骚扰	-8444
▁两名	-8445
在当地	-8446
大气层	-8447
年来的	-8448
必须要	-8449
政府和	-8450
的细节	-8451
的选手	-8452
西雅图	-8453
▁瓦希德	-8454
世贸中心	-8455
亚洲地区	-8456
十二日在	-8457
和平解决	-8458
执政联盟	-8459
提出一项	-8460
至少造成	-8461
▁中国大陆	-8462
达成的协议	-8463
遭恐怖攻击	-8464
中东和平进程	-8465
发表上述谈话	-8466
消息人士的话说	-8467
以色列与巴勒斯坦	-8468
▁皮	-8469
不实	-8470
两场	-8471
个性	-8472
为例	-8473
二度	-8474
会外	-8475
传送	-8476
副手	-8477
功课	-8478
国籍	-8479
圣伯	-8480
多元	-8481
多月	-8482
审核	-8483
引导	-8484
忽视	-8485
感动	-8486
扩增	-8487
拍照	-8488
擦撞	-8489
收容	-8490
放松	-8491
教义	-8492
更具	-8493
每一	-8494
流动	-8495
熟悉	-8496
的总	-8497
稍晚	-8498
肇事	-8499
警员	-8500
难过	-8501
零七	-8502
龙头	-8503
▁关于	-8504
一百名	-8505
两千名	-8506
全垒打	-8507
分钟的	-8508
增加至	-8509
将进行	-8510
差不多	-8511
开发商	-8512
时指出	-8513
的作品	-8514
的名字	-8515
的资料	-8516
让美国	-8517
▁纽西兰	-8518
▁雅加达	-8519
共和国的	-8520
吉尔吉斯	-8521
四千五百	-8522
多人丧生	-8523
所进行的	-8524
明白表示	-8525
昨天表示	-8526
武器禁运	-8527
目前尚未	-8528
第五种子	-8529
调查发现	-8530
▁主办单位	-8531
▁报告指出	-8532
欧盟执委会	-8533
..	-8534
▁桑	-8535
不住	-8536
书中	-8537
产油	-8538
人生	-8539
保存	-8540
出台	-8541
到访	-8542
力促	-8543
升至	-8544
却在	-8545
后才	-8546
哥罗	-8547
四度	-8548
场面	-8549
外销	-8550
好友	-8551
将向	-8552
布亚	-8553
所知	-8554
护士	-8555
文字	-8556
普曼	-8557
更高	-8558
曾对	-8559
最具	-8560
服刑	-8561
森在	-8562
植入	-8563
深刻	-8564
爪哇	-8565
税前	-8566
缉捕	-8567
翻译	-8568
胞胎	-8569
自二	-8570
苏门	-8571
蓝侬	-8572
还没	-8573
迪亚	-8574
隶属	-8575
黎明	-8576
▁共同	-8577
▁欧元	-8578
一点三	-8579
七月间	-8580
不需要	-8581
中央社	-8582
主导的	-8583
了许多	-8584
他们会	-8585
但没有	-8586
十七名	-8587
因涉嫌	-8588
大学生	-8589
戴维斯	-8590
排放量	-8591
遭绑架	-8592
队教练	-8593
非政府	-8594
麦当劳	-8595
▁另一位	-8596
▁她表示	-8597
▁检察官	-8598
与华盛顿	-8599
个百分点	-8600
亚特兰大	-8601
以及美国	-8602
决议草案	-8603
和美国的	-8604
最后期限	-8605
爆发冲突	-8606
石油出口	-8607
贸易部长	-8608
这是一个	-8609
军事执政团	-8610
世界排名第一的	-8611
▁即	-8612
一对	-8613
亮相	-8614
他为	-8615
全都	-8616
回复	-8617
回归	-8618
因于	-8619
弹头	-8620
归还	-8621
拉米	-8622
拟订	-8623
晚餐	-8624
曾因	-8625
条例	-8626
格达	-8627
次长	-8628
步调	-8629
沿海	-8630
炼油	-8631
的史	-8632
种植	-8633
签名	-8634
胜负	-8635
致函	-8636
莉亚	-8637
藏在	-8638
证词	-8639
赶上	-8640
转换	-8641
长途	-8642
马尔	-8643
▁要求	-8644
三百名	-8645
不希望	-8646
两百名	-8647
个月来	-8648
九年的	-8649
事务所	-8650
五年的	-8651
以及在	-8652
会造成	-8653
但并未	-8654
十五名	-8655
唯一的	-8656
将会晤	-8657
日本在	-8658
最多的	-8659
注意力	-8660
的感觉	-8661
研讨会	-8662
第十二	-8663
第四轮	-8664
索罗门	-8665
资格赛	-8666
部门的	-8667
▁江泽民	-8668
不断增加	-8669
二氧化碳	-8670
今年稍早	-8671
准备工作	-8672
在义大利	-8673
平壤当局	-8674
抗议行动	-8675
新闻社说	-8676
欧洲央行	-8677
要求美国	-8678
调查小组	-8679
▁官员表示	-8680
发表的一项	-8681
罹难者家属	-8682
美国国防部	-8683
事务高级专员	-8684
时三十分台北时间	-8685
▁国务院发言人包润石	-8686
一二	-8687
不一	-8688
不法	-8689
买卖	-8690
于是	-8691
优胜	-8692
催泪	-8693
出色	-8694
劲旅	-8695
后天	-8696
圣诞	-8697
增援	-8698
声势	-8699
天王	-8700
奇异	-8701
小儿	-8702
年仅	-8703
建交	-8704
开盘	-8705
意料	-8706
抢七	-8707
抢救	-8708
挑选	-8709
接见	-8710
施行	-8711
来了	-8712
步兵	-8713
的多	-8714
监测	-8715
盛会	-8716
答案	-8717
纾解	-8718
缩短	-8719
船上	-8720
落入	-8721
诉诸	-8722
请辞	-8723
较前	-8724
这枚	-8725
逃过	-8726
部说	-8727
魅力	-8728
鲸鱼	-8729
一九三	-8730
三十年	-8731
不理会	-8732
主持人	-8733
九十一	-8734
四十名	-8735
国内的	-8736
总奖额	-8737
有时候	-8738
的大选	-8739
荷尔蒙	-8740
轰炸机	-8741
▁金大中	-8742
国际传真	-8743
国际油价	-8744
官方媒体	-8745
小泉首相	-8746
拒绝接受	-8747
消费者的	-8748
电子商务	-8749
石油市场	-8750
精神领袖	-8751
紧张关系	-8752
西伯利亚	-8753
读卖新闻	-8754
重新计票	-8755
高峰会中	-8756
▁他补充说	-8757
▁美国军方	-8758
消费者物价	-8759
▁沙乌地阿拉伯	-8760
-1	-8761
▁黄	-8762
之为	-8763
亮丽	-8764
他并	-8765
传言	-8766
公债	-8767
军营	-8768
刊载	-8769
前面	-8770
北极	-8771
可行	-8772
大城	-8773
崩溃	-8774
市内	-8775
市郊	-8776
延期	-8777
延至	-8778
弟弟	-8779
患有	-8780
手法	-8781
扩展	-8782
拍下	-8783
收回	-8784
改良	-8785
改进	-8786
教派	-8787
无异	-8788
机车	-8789
松下	-8790
正好	-8791
洛娃	-8792
盖兹	-8793
看过	-8794
考古	-8795
艾拉	-8796
跨越	-8797
▁一些	-8798
▁但在	-8799
一个人	-8800
一百万	-8801
与他的	-8802
与伊朗	-8803
为止的	-8804
九十八	-8805
其他人	-8806
内哥罗	-8807
减少了	-8808
十一名	-8809
在一份	-8810
将在二	-8811
将遭遇	-8812
布雷默	-8813
很多人	-8814
成员的	-8815
有力的	-8816
没想到	-8817
的成员	-8818
的议题	-8819
第三盘	-8820
茶拉底	-8821
被问到	-8822
过去的	-8823
陪同下	-8824
▁阿格西	-8825
今年二月	-8826
因为我们	-8827
在莫斯科	-8828
构成威胁	-8829
消防队员	-8830
的一连串	-8831
采取措施	-8832
高速公路	-8833
▁美国国会	-8834
三百万美元	-8835
儿童基金会	-8836
二次世界大战	-8837
东芝	-8838
佛教	-8839
利信	-8840
千年	-8841
半球	-8842
南京	-8843
占了	-8844
台中	-8845
含量	-8846
呼声	-8847
基准	-8848
士气	-8849
大胜	-8850
大马	-8851
太郎	-8852
如愿	-8853
小幅	-8854
帽子	-8855
执导	-8856
指向	-8857
探讨	-8858
接连	-8859
推荐	-8860
教训	-8861
散布	-8862
新网	-8863
是被	-8864
曾是	-8865
气球	-8866
琼丝	-8867
答腊	-8868
线的	-8869
舰队	-8870
视窗	-8871
跨国	-8872
路口	-8873
连结	-8874
追随	-8875
鸡只	-8876
一起去	-8877
三月份	-8878
下半场	-8879
五十一	-8880
任命为	-8881
但美国	-8882
再加上	-8883
和平号	-8884
和平的	-8885
四年前	-8886
战争中	-8887
控制权	-8888
提出了	-8889
有一人	-8890
狂牛病	-8891
的一天	-8892
的病例	-8893
绝不会	-8894
辆汽车	-8895
与联合国	-8896
今天证实	-8897
参谋首长	-8898
我不知道	-8899
最后决定	-8900
百货公司	-8901
贸易顺差	-8902
达成共识	-8903
的攻击行动	-8904
航空公司的	-8905
蒙特内哥罗	-8906
阿拉法特的	-8907
百分之二十五	-8908
全国飞弹防御系统	-8909
▁值	-8910
▁和	-8911
▁尼	-8912
▁柏	-8913
不堪	-8914
不时	-8915
中美	-8916
以五	-8917
何以	-8918
促请	-8919
别墅	-8920
合力	-8921
多万	-8922
多了	-8923
定罪	-8924
寄望	-8925
巨额	-8926
布瑞	-8927
把握	-8928
攻下	-8929
新低	-8930
波及	-8931
漫步	-8932
申诉	-8933
看着	-8934
稻米	-8935
缺席	-8936
话说	-8937
购房	-8938
迫降	-8939
逊尼	-8940
逐出	-8941
通牒	-8942
锐减	-8943
防守	-8944
预备	-8945
颜色	-8946
▁加州	-8947
一小时	-8948
三年内	-8949
下一个	-8950
不一样	-8951
与经济	-8952
中国在	-8953
五年来	-8954
仍无法	-8955
匿名的	-8956
双方在	-8957
学校的	-8958
我们能	-8959
救护车	-8960
易利信	-8961
的意见	-8962
的新闻	-8963
美军的	-8964
计划在	-8965
诺维奇	-8966
调查的	-8967
▁共和党	-8968
可能会在	-8969
巴西兰岛	-8970
死亡病例	-8971
研究机构	-8972
菲尼可夫	-8973
表示支持	-8974
中央指挥部	-8975
在伊拉克的	-8976
巴勒斯坦人的	-8977
十二月二十六日	-8978
▁拜	-8979
不休	-8980
不停	-8981
不致	-8982
专辑	-8983
乃是	-8984
介于	-8985
低调	-8986
作此	-8987
依法	-8988
六点	-8989
初选	-8990
动议	-8991
压制	-8992
大公	-8993
奠定	-8994
子宫	-8995
定位	-8996
封闭	-8997
展出	-8998
扑灭	-8999
曾向	-9000
桥本	-9001
法郎	-9002
波动	-9003
环绕	-9004
琳娜	-9005
畅销	-9006
的爱	-9007
米勒	-9008
萨姆	-9009
过早	-9010
迟迟	-9011
麻痹	-9012
▁甚至	-9013
一点五	-9014
东部的	-9015
争议性	-9016
亿二千	-9017
以因应	-9018
但是他	-9019
十六名	-9020
在电视	-9021
所造成	-9022
抗议者	-9023
控制的	-9024
摩苏尔	-9025
更好的	-9026
有关连	-9027
的前景	-9028
的时刻	-9029
郝尔德	-9030
▁乌克兰	-9031
意外事件	-9032
提出这项	-9033
时代杂志	-9034
非常重要	-9035
37	-9036
47	-9037
▁谢	-9038
一职	-9039
主嫌	-9040
仅是	-9041
以对	-9042
供给	-9043
充电	-9044
公众	-9045
六周	-9046
内亚	-9047
力克	-9048
加比	-9049
包裹	-9050
匿名	-9051
存货	-9052
安打	-9053
实习	-9054
带给	-9055
库贾	-9056
感情	-9057
战乱	-9058
战役	-9059
收集	-9060
放置	-9061
标志	-9062
没收	-9063
琼斯	-9064
电玩	-9065
白人	-9066
筹组	-9067
纳尔	-9068
考特	-9069
葛洛	-9070
该区	-9071
货轮	-9072
骄傲	-9073
▁作为	-9074
▁表示	-9075
七日在	-9076
不断的	-9077
个人的	-9078
健康的	-9079
因为这	-9080
在他的	-9081
安卡拉	-9082
已宣布	-9083
德表示	-9084
怎么样	-9085
拥有的	-9086
新总统	-9087
显示器	-9088
民进党	-9089
的对手	-9090
的数字	-9091
的银行	-9092
都认为	-9093
一九八年	-9094
一百公尺	-9095
世界第一	-9096
哈利波特	-9097
在以色列	-9098
情报机构	-9099
我们不能	-9100
我们没有	-9101
接受美国	-9102
最新一期	-9103
环境保护	-9104
经济专家	-9105
萨尔瓦多	-9106
该公司的	-9107
这架飞机	-9108
长久以来	-9109
高等法院	-9110
在巴基斯坦	-9111
阿布贾里布	-9112
东南亚国家协会	-9113
▁美国联邦准备理事会	-9114
45	-9115
▁同	-9116
为之	-9117
亲友	-9118
他命	-9119
以使	-9120
何处	-9121
养殖	-9122
切尔	-9123
各造	-9124
告别	-9125
哥拉	-9126
哪里	-9127
复盖	-9128
大大	-9129
大涨	-9130
尔文	-9131
尚无	-9132
尽早	-9133
当初	-9134
成效	-9135
打入	-9136
拥挤	-9137
揭晓	-9138
暴增	-9139
有助	-9140
望远	-9141
杯葛	-9142
查拉	-9143
查明	-9144
比三	-9145
漏洞	-9146
直言	-9147
神父	-9148
窗户	-9149
笃定	-9150
置评	-9151
耐心	-9152
职责	-9153
跟进	-9154
身边	-9155
钢琴	-9156
阅读	-9157
飞越	-9158
一日起	-9159
三十万	-9160
中发现	-9161
克表示	-9162
日报说	-9163
明天将	-9164
望远镜	-9165
法拉利	-9166
湖人队	-9167
的亚洲	-9168
的信心	-9169
的电脑	-9170
的电视	-9171
的选民	-9172
结束了	-9173
西南部	-9174
西尼罗	-9175
都必须	-9176
两家公司	-9177
今天举行	-9178
他们已经	-9179
他们希望	-9180
和平协议	-9181
对美国的	-9182
开发银行	-9183
提出警告	-9184
更进一步	-9185
活跃人士	-9186
白俄罗斯	-9187
联合声明	-9188
表示关切	-9189
姆勒克莱斯勒	-9190
哥伦比亚广播公司	-9191
人对	-9192
伪造	-9193
信函	-9194
假日	-9195
储备	-9196
六万	-9197
兹在	-9198
击退	-9199
切断	-9200
包商	-9201
厚生	-9202
史诺	-9203
号码	-9204
大肆	-9205
安理	-9206
寿命	-9207
应邀	-9208
扣留	-9209
拘捕	-9210
接班	-9211
新秀	-9212
浓烟	-9213
海默	-9214
淹没	-9215
烧毁	-9216
的精	-9217
盗版	-9218
索普	-9219
获颁	-9220
譬如	-9221
赵明	-9222
▁北约	-9223
▁布朗	-9224
三日在	-9225
业集团	-9226
中情局	-9227
八日在	-9228
公务员	-9229
十五年	-9230
和经济	-9231
富士通	-9232
将包括	-9233
所做的	-9234
披头四	-9235
拉波娃	-9236
无限期	-9237
有一点	-9238
有超过	-9239
有问题	-9240
札希尔	-9241
格达费	-9242
的母亲	-9243
第三度	-9244
而这些	-9245
设计师	-9246
邻近的	-9247
▁卫生部	-9248
▁这也是	-9249
他们两人	-9250
在新加坡	-9251
太空中心	-9252
奥运金牌	-9253
科学杂志	-9254
美国军方	-9255
举行的一项	-9256
亚努科维奇	-9257
人权委员会	-9258
发布声明说	-9259
天安门广场	-9260
举世	-9261
交由	-9262
余震	-9263
便是	-9264
克尔	-9265
入市	-9266
关连	-9267
冲刺	-9268
卖给	-9269
可乐	-9270
哥哥	-9271
士革	-9272
好转	-9273
屋顶	-9274
山的	-9275
帮我	-9276
推崇	-9277
曾有	-9278
特色	-9279
玩笑	-9280
用以	-9281
看待	-9282
系于	-9283
经贸	-9284
节省	-9285
费尔	-9286
遭逢	-9287
陪伴	-9288
▁回教	-9289
也要求	-9290
二十分	-9291
体育场	-9292
制造的	-9293
受伤的	-9294
只剩下	-9295
大联盟	-9296
巴拿马	-9297
感受到	-9298
然后再	-9299
电话中	-9300
立法院	-9301
第三个	-9302
美国已	-9303
英国协	-9304
选举人	-9305
金额为	-9306
防卫厅	-9307
2002	-9308
▁二零一	-9309
两百公尺	-9310
发出警告	-9311
可能成为	-9312
昨天晚间	-9313
此一问题	-9314
特别是在	-9315
警察局长	-9316
贸易赤字	-9317
四百万美元	-9318
官员的话说	-9319
于一九九九年	-9320
告诉法新社记者说	-9321
▁驻	-9322
不远	-9323
世银	-9324
例子	-9325
健保	-9326
则将	-9327
医护	-9328
因伤	-9329
在我	-9330
培拉	-9331
屈服	-9332
应为	-9333
应当	-9334
恩斯	-9335
惊慌	-9336
意的	-9337
才在	-9338
找寻	-9339
收在	-9340
攻进	-9341
格罗	-9342
检疫	-9343
歧异	-9344
比如	-9345
潜舰	-9346
激怒	-9347
热闹	-9348
的后	-9349
的第	-9350
看守	-9351
紧绷	-9352
绝种	-9353
膝盖	-9354
获奖	-9355
蓬勃	-9356
讯号	-9357
财团	-9358
费城	-9359
赶快	-9360
逃避	-9361
那边	-9362
金汉	-9363
金的	-9364
销量	-9365
隐瞒	-9366
高龄	-9367
▁俄国	-9368
一点二	-9369
了美国	-9370
以两个	-9371
以来最	-9372
半小时	-9373
历史的	-9374
四月份	-9375
将会在	-9376
平均每	-9377
德意志	-9378
总冠军	-9379
成长的	-9380
攻击后	-9381
的危机	-9382
西部的	-9383
这本书	-9384
部部长	-9385
预期的	-9386
▁他并说	-9387
▁我们的	-9388
一百七十	-9389
与阿富汗	-9390
俄亥俄州	-9391
商业银行	-9392
库妮可娃	-9393
提出上诉	-9394
疾病管制	-9395
能源部长	-9396
苏门答腊	-9397
为首的联军	-9398
二十一世纪	-9399
巴尔干半岛	-9400
▁欧盟执委会	-9401
炸弹攻击事件	-9402
皇家马德里队	-9403
▁九	-9404
▁反	-9405
▁可	-9406
▁席	-9407
一生	-9408
上面	-9409
不让	-9410
专心	-9411
中小	-9412
伺服	-9413
健身	-9414
利马	-9415
募款	-9416
华人	-9417
受困	-9418
售出	-9419
嘉柏	-9420
四处	-9421
复活	-9422
大阪	-9423
失控	-9424
完工	-9425
实况	-9426
封后	-9427
底前	-9428
护送	-9429
挂钩	-9430
接待	-9431
握手	-9432
散播	-9433
末期	-9434
柴油	-9435
步枪	-9436
沮丧	-9437
沿着	-9438
猖獗	-9439
男友	-9440
约占	-9441
终身	-9442
致胜	-9443
节节	-9444
藏身	-9445
该报	-9446
诺娃	-9447
败在	-9448
赢家	-9449
跟着	-9450
远离	-9451
连系	-9452
险胜	-9453
饥荒	-9454
马可	-9455
▁人权	-9456
▁面对	-9457
万日圆	-9458
不寻常	-9459
严格的	-9460
五年内	-9461
人员在	-9462
他们说	-9463
他们都	-9464
在我们	-9465
在泰国	-9466
委员长	-9467
实施的	-9468
将导致	-9469
已下令	-9470
明年初	-9471
曾发生	-9472
未说明	-9473
男主角	-9474
的外国	-9475
的裁决	-9476
科罗拉	-9477
肺结核	-9478
适当的	-9479
需要的	-9480
三千六百	-9481
今年五月	-9482
兵工厂队	-9483
动荡不安	-9484
北美票房	-9485
和以色列	-9486
在一九九	-9487
地方政府	-9488
报告显示	-9489
排名第三	-9490
最后决赛	-9491
美国线上	-9492
解决之道	-9493
这种病毒	-9494
这项比赛	-9495
造成一名	-9496
一百万美元	-9497
华尔街股市	-9498
百分之六十	-9499
美国官员说	-9500
以色列总理巴瑞克	-9501
参谋首长联席会议	-9502
▁依	-9503
七点	-9504
下了	-9505
两者	-9506
之举	-9507
了他	-9508
他就	-9509
付诸	-9510
但对	-9511
佛利	-9512
冲撞	-9513
化石	-9514
垄断	-9515
境外	-9516
处置	-9517
大亨	-9518
宾州	-9519
密码	-9520
峰会	-9521
庆典	-9522
座位	-9523
延缓	-9524
悲惨	-9525
打造	-9526
探险	-9527
有五	-9528
未再	-9529
格森	-9530
汤米	-9531
波拉	-9532
活力	-9533
火力	-9534
炮弹	-9535
特纳	-9536
狮子	-9537
登革	-9538
站的	-9539
考察	-9540
谈及	-9541
趋于	-9542
避难	-9543
重组	-9544
领空	-9545
高瞻	-9546
▁然后	-9547
上周六	-9548
下周一	-9549
东南部	-9550
也将在	-9551
人员和	-9552
以保护	-9553
任务的	-9554
向国会	-9555
和政府	-9556
在此间	-9557
坎培拉	-9558
奖得主	-9559
密契尔	-9560
数以百	-9561
数千人	-9562
新病例	-9563
服务的	-9564
澳洲人	-9565
登革热	-9566
的警告	-9567
纽约市	-9568
组织说	-9569
美军在	-9570
警方在	-9571
香港的	-9572
▁洛杉矶	-9573
代表大会	-9574
卷录影带	-9575
合作关系	-9576
在二零零	-9577
如果美国	-9578
已经成为	-9579
并不知道	-9580
广播电台	-9581
恩隆公司	-9582
科罗拉多	-9583
许多国家	-9584
一九七九年	-9585
与盖达组织	-9586
法国总统席哈克	-9587
▁赫	-9588
▁近	-9589
七五	-9590
不然	-9591
两倍	-9592
两枚	-9593
伦丝	-9594
但她	-9595
但这	-9596
党派	-9597
军用	-9598
制服	-9599
化妆	-9600
召回	-9601
合同	-9602
喜爱	-9603
坎城	-9604
大国	-9605
戴着	-9606
放射	-9607
文明	-9608
星球	-9609
本国	-9610
水手	-9611
爆裂	-9612
犯人	-9613
珍妮	-9614
紧密	-9615
而后	-9616
而知	-9617
聪明	-9618
舒马	-9619
落幕	-9620
路障	-9621
驶往	-9622
▁他是	-9623
▁就在	-9624
▁希望	-9625
▁所有	-9626
▁研究	-9627
上星期	-9628
下一轮	-9629
不排除	-9630
与台湾	-9631
业者的	-9632
伺服器	-9633
其核子	-9634
加强对	-9635
十九名	-9636
基督徒	-9637
当时的	-9638
支持度	-9639
政府对	-9640
明年的	-9641
有兴趣	-9642
核电厂	-9643
的冲突	-9644
的球员	-9645
的自由	-9646
选举的	-9647
1998	-9648
刚果民主	-9649
和平谈判	-9650
大宇汽车	-9651
情报单位	-9652
正在进行	-9653
气候变迁	-9654
第六种子	-9655
声明中表示	-9656
环法自由车	-9657
的恐怖攻击	-9658
33	-9659
:「	-9660
▁全	-9661
▁基	-9662
▁若	-9663
也可	-9664
会徽	-9665
信件	-9666
其次	-9667
养老	-9668
到期	-9669
印地	-9670
印第	-9671
吸收	-9672
声中	-9673
失所	-9674
小威	-9675
屠宰	-9676
巴瑞	-9677
带走	-9678
开销	-9679
德培	-9680
急速	-9681
时所	-9682
智库	-9683
有毒	-9684
末点	-9685
杀死	-9686
格撒	-9687
欣慰	-9688
治理	-9689
渡过	-9690
留任	-9691
疼痛	-9692
登山	-9693
的名	-9694
码头	-9695
等国	-9696
算是	-9697
美籍	-9698
肉品	-9699
自身	-9700
节奏	-9701
莫洛	-9702
街上	-9703
衡量	-9704
警车	-9705
请你	-9706
辨识	-9707
防护	-9708
首盘	-9709
▁医院	-9710
▁希腊	-9711
▁阿尔	-9712
不应该	-9713
九十七	-9714
作以上	-9715
信用卡	-9716
决定将	-9717
卢安达	-9718
嘉柏皋	-9719
学教授	-9720
小朋友	-9721
我非常	-9722
抗生素	-9723
精神病	-9724
运动的	-9725
▁该报说	-9726
一名男子	-9727
今天发生	-9728
其中一人	-9729
历史新高	-9730
大满贯赛	-9731
官员们说	-9732
法国选手	-9733
美国当局	-9734
获得证实	-9735
警戒状态	-9736
调降利率	-9737
▁伊凡诺夫	-9738
呈阳性反应	-9739
▁联邦调查局	-9740
进入紧急状态	-9741
伊拉克总统海珊	-9742
70	-9743
▁更	-9744
▁魏	-9745
亦将	-9746
亲密	-9747
体验	-9748
作风	-9749
减弱	-9750
剩余	-9751
印巴	-9752
及早	-9753
发烧	-9754
可信	-9755
向下	-9756
圣城	-9757
处在	-9758
她将	-9759
宽频	-9760
少民	-9761
年会	-9762
德森	-9763
手表	-9764
托雷	-9765
搜查	-9766
攻占	-9767
日方	-9768
晚宴	-9769
普及	-9770
普拉	-9771
普林	-9772
曾被	-9773
标题	-9774
案中	-9775
民选	-9776
水果	-9777
水的	-9778
沦为	-9779
演奏	-9780
特在	-9781
眼前	-9782
瞩目	-9783
短跑	-9784
矿工	-9785
管辖	-9786
精英	-9787
萨里	-9788
贫民	-9789
辨认	-9790
通话	-9791
那时	-9792
间接	-9793
驾车	-9794
▁与会	-9795
▁代表	-9796
▁我国	-9797
▁环保	-9798
▁设在	-9799
▁这架	-9800
不喜欢	-9801
与布希	-9802
了一些	-9803
体育馆	-9804
公司和	-9805
十年前	-9806
向记者	-9807
告诉他	-9808
回答说	-9809
年底前	-9810
提名的	-9811
正试图	-9812
的印尼	-9813
的声音	-9814
的居民	-9815
的状况	-9816
要求他	-9817
规定的	-9818
调查中	-9819
运输机	-9820
这是他	-9821
▁好莱坞	-9822
万五千名	-9823
丰田汽车	-9824
以二比一	-9825
发展核武	-9826
外交通商	-9827
我很高兴	-9828
日本银行	-9829
美国可能	-9830
详细说明	-9831
▁总部设在	-9832
一九八五年	-9833
一千万美元	-9834
中国大陆的	-9835
举行记者会	-9836
波斯湾战争	-9837
美国与北韩	-9838
药物管理局	-9839
证券交易所	-9840
前总统柯林顿	-9841
不对	-9842
亲戚	-9843
以西	-9844
侨民	-9845
偷渡	-9846
光碟	-9847
共进	-9848
出于	-9849
号召	-9850
四项	-9851
国协	-9852
图片	-9853
如期	-9854
妨碍	-9855
并肩	-9856
废料	-9857
我已	-9858
战术	-9859
技巧	-9860
报名	-9861
挥落	-9862
政局	-9863
斩首	-9864
新航	-9865
时尚	-9866
更换	-9867
有害	-9868
朝圣	-9869
杰士	-9870
极具	-9871
沉默	-9872
活着	-9873
激战	-9874
爱媛	-9875
生长	-9876
甫于	-9877
疆界	-9878
等的	-9879
罕见	-9880
艺人	-9881
覆盖	-9882
跌破	-9883
跳舞	-9884
身材	-9885
迈入	-9886
连体	-9887
追悼	-9888
釜山	-9889
镜头	-9890
门口	-9891
马逊	-9892
▁三星	-9893
▁人民	-9894
▁埃及	-9895
▁这艘	-9896
一年来	-9897
不会再	-9898
不会有	-9899
之前的	-9900
伦丝坦	-9901
但由于	-9902
六日在	-9903
切尔西	-9904
卫冕者	-9905
印度的	-9906
号种子	-9907
在那里	-9908
巴斯克	-9909
巴斯拉	-9910
帕金森	-9911
明确的	-9912
未透露	-9913
杜琪克	-9914
的网站	-9915
联赛的	-9916
自治区	-9917
蒙特娄	-9918
设计的	-9919
错误的	-9920
今天再度	-9921
以七比五	-9922
包括一名	-9923
双边贸易	-9924
团结一致	-9925
国际货币	-9926
大幅减少	-9927
晋级八强	-9928
暴力行动	-9929
最后一个	-9930
电信公司	-9931
赢得冠军	-9932
进行谈判	-9933
中央通信社	-9934
六比三击败	-9935
前往伊拉克	-9936
报告中指出	-9937
数十亿美元	-9938
汽车制造商	-9939
百分之七十	-9940
在一九九九年	-9941
▁以色列总理夏隆	-9942
▁美国国务院发言人包润石	-9943
▁原	-9944
▁每	-9945
一记	-9946
下雨	-9947
九点	-9948
五位	-9949
低估	-9950
公元	-9951
关节	-9952
则由	-9953
加工	-9954
反战	-9955
周期	-9956
大都	-9957
夸大	-9958
奉命	-9959
富比	-9960
居留	-9961
工商	-9962
带有	-9963
平手	-9964
延迟	-9965
开出	-9966
开设	-9967
很久	-9968
心里	-9969
恐吓	-9970
接纳	-9971
提炼	-9972
时被	-9973
明仁	-9974
春节	-9975
服役	-9976
比起	-9977
测验	-9978
清单	-9979
澳币	-9980
牙买	-9981
瑞德	-9982
病变	-9983
立委	-9984
签下	-9985
美英	-9986
老兵	-9987
行李	-9988
被关	-9989
迪斯	-9990
面上	-9991
驻守	-9992
▁这座	-9993
二日在	-9994
五月份	-9995
其中一	-9996
十分钟	-9997
十年内	-9998
取得的	-9999
名单上	-10000
在医院	-10001
在十月	-10002
对这个	-10003
工业化	-10004
已超过	-10005
曼提娃	-10006
正考虑	-10007
理由是	-10008
的音乐	-10009
继续在	-10010
警方已	-10011
锡尔文	-10012
非军事	-10013
驾驶员	-10014
交换意见	-10015
使用武力	-10016
全世界的	-10017
即将卸任	-10018
四十五分	-10019
国会通过	-10020
如果我们	-10021
安全警戒	-10022
布里克斯	-10023
当地居民	-10024
投票结果	-10025
抗议人士	-10026
爱滋病的	-10027
的危险性	-10028
越来越多	-10029
部分地区	-10030
▁油国组织	-10031
八百万美元	-10032
前南斯拉夫	-10033
核子反应炉	-10034
部长级会议	-10035
统计数字显示	-10036
阿布贾里布监狱	-10037
三军	-10038
三角	-10039
世上	-10040
之争	-10041
之列	-10042
乘坐	-10043
们的	-10044
充当	-10045
入选	-10046
公署	-10047
典型	-10048
厂的	-10049
发作	-10050
史托	-10051
同步	-10052
唐家	-10053
国庆	-10054
多禄	-10055
头痛	-10056
岛国	-10057
已为	-10058
年中	-10059
废墟	-10060
引用	-10061
持枪	-10062
搁置	-10063
救助	-10064
昏迷	-10065
普利	-10066
极其	-10067
棒球	-10068
比克	-10069
比斯	-10070
民防	-10071
流入	-10072
焚烧	-10073
玩具	-10074
瓜地	-10075
监会	-10076
碰到	-10077
竹中	-10078
笑容	-10079
艰苦	-10080
萧条	-10081
西省	-10082
见过	-10083
评价	-10084
诺瓦	-10085
购并	-10086
连络	-10087
逝世	-10088
遇刺	-10089
金像	-10090
铃木	-10091
难得	-10092
难题	-10093
齐聚	-10094
▁官员	-10095
▁法官	-10096
▁波兰	-10097
▁现代	-10098
▁秘鲁	-10099
▁这一	-10100
事件后	-10101
但表示	-10102
几内亚	-10103
到美国	-10104
医生说	-10105
双胞胎	-10106
可能与	-10107
唐家璇	-10108
在五月	-10109
在印尼	-10110
大都会	-10111
太阳能	-10112
好消息	-10113
尽可能	-10114
并不会	-10115
手术后	-10116
斯洛温	-10117
来台湾	-10118
牙买加	-10119
的正式	-10120
训练营	-10121
远超过	-10122
令人担心	-10123
催泪瓦斯	-10124
副国务卿	-10125
十七日在	-10126
在美国的	-10127
天主教徒	-10128
已经同意	-10129
有限公司	-10130
生化武器	-10131
美军基地	-10132
讨论如何	-10133
狂牛症病例	-10134
巴勒斯坦当局	-10135
的经济成长率	-10136
▁周	-10137
」。	-10138
一至	-10139
之赐	-10140
从此	-10141
俘虏	-10142
充斥	-10143
公交	-10144
公款	-10145
军备	-10146
升级	-10147
可谓	-10148
史坦	-10149
叶尔	-10150
向他	-10151
启用	-10152
四七	-10153
回去	-10154
国泰	-10155
在本	-10156
型态	-10157
外来	-10158
多起	-10159
对台	-10160
射程	-10161
居高	-10162
愿望	-10163
战场	-10164
投机	-10165
提拨	-10166
握有	-10167
摩纳	-10168
数度	-10169
无缘	-10170
留意	-10171
称的	-10172
移转	-10173
稳健	-10174
答应	-10175
纳州	-10176
维克	-10177
编列	-10178
背后	-10179
胡志	-10180
节约	-10181
葛瑞	-10182
讯问	-10183
谢谢	-10184
转而	-10185
输掉	-10186
返家	-10187
酒精	-10188
阶级	-10189
阿卡	-10190
零五	-10191
魔戒	-10192
▁万科	-10193
▁两位	-10194
▁参院	-10195
▁这对	-10196
一千人	-10197
万九千	-10198
下一场	-10199
九十四	-10200
二五年	-10201
众两院	-10202
俄国的	-10203
停车场	-10204
八年的	-10205
卡蜜拉	-10206
号人物	-10207
合作的	-10208
增加的	-10209
宜诺斯	-10210
我真的	-10211
改革派	-10212
教育部	-10213
机场的	-10214
极大的	-10215
格拉斯	-10216
的全国	-10217
的比率	-10218
穆加比	-10219
经济和	-10220
艾尔斯	-10221
营业额	-10222
这不是	-10223
进口的	-10224
选委会	-10225
金汉宫	-10226
▁阿拉伯	-10227
上诉法院	-10228
下午二时	-10229
人士表示	-10230
全球贸易	-10231
告诉美国	-10232
国家元首	-10233
圣伯多禄	-10234
安理会的	-10235
我们应该	-10236
战犯法庭	-10237
日报引述	-10238
澳洲选手	-10239
特赦组织	-10240
管理阶层	-10241
绝大部分	-10242
一九七三年	-10243
三十亿美元	-10244
二十亿美元	-10245
斯洛温尼亚	-10246
新华社报导	-10247
重量级拳王	-10248
▁一九九九年	-10249
维持和平部队	-10250
驻联合国大使	-10251
▁威	-10252
▁杰	-10253
▁温	-10254
一级	-10255
一阵	-10256
三家	-10257
会说	-10258
修复	-10259
关头	-10260
到来	-10261
刺杀	-10262
加剧	-10263
勇气	-10264
募集	-10265
包装	-10266
后面	-10267
向上	-10268
吸毒	-10269
契马	-10270
女排	-10271
姆贝	-10272
巴马	-10273
强权	-10274
忧郁	-10275
情人	-10276
折衷	-10277
拉曼	-10278
振奋	-10279
搜捕	-10280
无比	-10281
毕竟	-10282
液晶	-10283
满载	-10284
物种	-10285
瑞尔	-10286
肇星	-10287
致使	-10288
评审	-10289
赢球	-10290
起了	-10291
轻取	-10292
过多	-10293
追平	-10294
那天	-10295
长老	-10296
▁之前	-10297
三年来	-10298
也必须	-10299
交易中	-10300
卡罗来	-10301
同样的	-10302
国会的	-10303
土石流	-10304
在汉城	-10305
将无法	-10306
已经被	-10307
曾要求	-10308
有更多	-10309
正常化	-10310
瑞典的	-10311
瑟琳娜	-10312
的冠军	-10313
的印度	-10314
的女性	-10315
的损失	-10316
继承人	-10317
网站的	-10318
老布希	-10319
而受到	-10320
轻原油	-10321
这项新	-10322
里斯本	-10323
▁交易商	-10324
▁他强调	-10325
▁美国的	-10326
以来首度	-10327
以来首次	-10328
内阁会议	-10329
安全问题	-10330
影响力的	-10331
标准普尔	-10332
此一事件	-10333
瓜地马拉	-10334
疑似病例	-10335
经济部长	-10336
这项协定	-10337
▁这项法案	-10338
二十四岁的	-10339
六比四击败	-10340
总理朱镕基	-10341
欧洲冠军杯	-10342
▁消息人士说	-10343
亚太经济合作	-10344
首席谈判代表	-10345
-2	-10346
▁盖	-10347
▁辛	-10348
上加	-10349
上风	-10350
之虎	-10351
乐园	-10352
伴侣	-10353
冷却	-10354
加国	-10355
助益	-10356
又在	-10357
受难	-10358
国人	-10359
土木	-10360
地质	-10361
大声	-10362
大笔	-10363
尔顿	-10364
就可	-10365
川口	-10366
希米	-10367
带到	-10368
延烧	-10369
抢劫	-10370
推销	-10371
方的	-10372
浙江	-10373
煽动	-10374
犯案	-10375
球技	-10376
的金	-10377
短短	-10378
竞标	-10379
节制	-10380
订购	-10381
试爆	-10382
谅解	-10383
谣言	-10384
货柜	-10385
赛季	-10386
运转	-10387
这篇	-10388
追逐	-10389
遗产	-10390
那州	-10391
门将	-10392
阻挡	-10393
马里	-10394
▁大约	-10395
▁询以	-10396
七年的	-10397
创下的	-10398
利维亚	-10399
副主任	-10400
十年的	-10401
奥委会	-10402
如果不	-10403
将采取	-10404
必须先	-10405
总统卡	-10406
批评者	-10407
据估计	-10408
改革的	-10409
李登辉	-10410
的传统	-10411
的儿童	-10412
的故事	-10413
的疾病	-10414
给我们	-10415
维杰辛	-10416
艾利斯	-10417
这封信	-10418
1997	-10419
▁我希望	-10420
▁报告中	-10421
▁莫斯科	-10422
▁贝克汉	-10423
与会代表	-10424
严重影响	-10425
二十岁的	-10426
其他地方	-10427
国会大厦	-10428
塞内加尔	-10429
大威廉丝	-10430
安全官员	-10431
开票结果	-10432
感到失望	-10433
成为全球	-10434
我们无法	-10435
智慧财产	-10436
淘汰出局	-10437
爆炸案的	-10438
的比赛中	-10439
突尼西亚	-10440
副总统高尔	-10441
时报讯记者	-10442
有关伊拉克	-10443
爱尔兰共和	-10444
百分之十二	-10445
武器检查人员	-10446
记者会中表示	-10447
世界贸易组织的	-10448
▁尤	-10449
▁英	-10450
中校	-10451
也以	-10452
元素	-10453
八点	-10454
刑期	-10455
勋章	-10456
十点	-10457
千万	-10458
只说	-10459
多夫	-10460
好事	-10461
妥善	-10462
定案	-10463
宪政	-10464
屈居	-10465
山庄	-10466
带头	-10467
序幕	-10468
弹药	-10469
强震	-10470
形势	-10471
德曼	-10472
整天	-10473
既然	-10474
是于	-10475
有过	-10476
本营	-10477
欠佳	-10478
次卿	-10479
渗透	-10480
演艺	-10481
点燃	-10482
瓦纳	-10483
的黑	-10484
盐川	-10485
维勒	-10486
而富	-10487
舆论	-10488
艾斯	-10489
苏里	-10490
菲德	-10491
言之	-10492
诊所	-10493
误导	-10494
读书	-10495
载客	-10496
这回	-10497
违宪	-10498
铲除	-10499
长大	-10500
青睐	-10501
预订	-10502
饮酒	-10503
▁后来	-10504
▁截至	-10505
一周前	-10506
与一名	-10507
中国队	-10508
主办权	-10509
争取到	-10510
五个月	-10511
五千名	-10512
他不会	-10513
参加了	-10514
和国际	-10515
四年来	-10516
四日在	-10517
四比六	-10518
密西根	-10519
布拉格	-10520
我已经	-10521
摩托车	-10522
新泽西	-10523
是否要	-10524
段时间	-10525
民主的	-10526
的主题	-10527
的对象	-10528
第四名	-10529
米兰队	-10530
访问说	-10531
都是在	-10532
集会的	-10533
项目中	-10534
▁上个月	-10535
▁戴克辛	-10536
▁柬埔寨	-10537
上个星期	-10538
人丧生的	-10539
其中之一	-10540
兼执行长	-10541
可能发生	-10542
大赛冠军	-10543
委员会说	-10544
对中国的	-10545
市中心的	-10546
是全世界	-10547
油价上涨	-10548
法新社说	-10549
研究结果	-10550
衣索比亚	-10551
调查工作	-10552
预定明天	-10553
▁世卫组织	-10554
▁美国联邦	-10555
之间的关系	-10556
六百万美元	-10557
白宫发言人	-10558
蒙蒂西诺斯	-10559
▁圣	-10560
上半	-10561
也为	-10562
他以	-10563
休闲	-10564
伯斯	-10565
体的	-10566
侵占	-10567
利的	-10568
升息	-10569
受惠	-10570
只在	-10571
后在	-10572
后将	-10573
夏尔	-10574
宝贵	-10575
宣导	-10576
就医	-10577
山崩	-10578
巴契	-10579
探索	-10580
教导	-10581
数个	-10582
料将	-10583
早餐	-10584
有如	-10585
派对	-10586
深受	-10587
町村	-10588
祝贺	-10589
神圣	-10590
票的	-10591
罢免	-10592
美日	-10593
而其	-10594
肖像	-10595
营造	-10596
读者	-10597
调动	-10598
跟他	-10599
这桩	-10600
选情	-10601
通行	-10602
钻石	-10603
降到	-10604
风波	-10605
▁另有	-10606
▁外交	-10607
▁我想	-10608
三比六	-10609
丰富的	-10610
二月份	-10611
以防止	-10612
会发生	-10613
但目前	-10614
南美洲	-10615
发展出	-10616
发行的	-10617
取消了	-10618
四十分	-10619
困难的	-10620
在六月	-10621
在本月	-10622
已展开	-10623
巴席尔	-10624
广大的	-10625
很容易	-10626
最喜欢	-10627
有意思	-10628
欧盟的	-10629
的人物	-10630
的目的	-10631
通电话	-10632
遭杀害	-10633
领袖的	-10634
▁他们的	-10635
三千七百	-10636
今天开始	-10637
十三日在	-10638
古茶拉底	-10639
四分之一	-10640
大马士革	-10641
女发言人	-10642
尤其是在	-10643
库贾氏症	-10644
第三回合	-10645
网球名将	-10646
赢得胜利	-10647
重建工作	-10648
阿拉伯人	-10649
陆战队员	-10650
陷入僵局	-10651
非洲联盟	-10652
▁梅嘉娃蒂	-10653
二十一岁的	-10654
卡菲尼可夫	-10655
总理戴克辛	-10656
电视新闻网	-10657
百分之九十	-10658
社会民主党	-10659
▁这位官员说	-10660
总统穆巴拉克	-10661
九一一攻击事件	-10662
▁美国总统布希今天	-10663
三倍	-10664
上帝	-10665
两艘	-10666
他有	-10667
他被	-10668
以北	-10669
会被	-10670
信中	-10671
内幕	-10672
别的	-10673
千禧	-10674
受阻	-10675
古老	-10676
司长	-10677
各式	-10678
后再	-10679
囚禁	-10680
大明	-10681
安静	-10682
定义	-10683
宣示	-10684
岁时	-10685
故宫	-10686
数日	-10687
是谁	-10688
晚会	-10689
本田	-10690
样子	-10691
流氓	-10692
渐渐	-10693
热的	-10694
爱司	-10695
珍珠	-10696
百米	-10697
纳税	-10698
老牌	-10699
耗乏	-10700
蒙受	-10701
该省	-10702
辅导	-10703
逃逸	-10704
里程	-10705
陈述	-10706
零六	-10707
雷射	-10708
饥饿	-10709
饲养	-10710
鱼类	-10711
▁古巴	-10712
▁它们	-10713
▁身为	-10714
与华府	-10715
九十六	-10716
也显示	-10717
了很多	-10718
克里斯	-10719
八十九	-10720
哥斯大	-10721
四月间	-10722
在全国	-10723
在海外	-10724
太阳报	-10725
对全球	-10726
已准备	-10727
年轻的	-10728
库斯克	-10729
找不到	-10730
欧元的	-10731
的三名	-10732
的人选	-10733
的比例	-10734
短期内	-10735
第十三	-10736
第十四	-10737
经济与	-10738
赵明禄	-10739
部队在	-10740
万桶原油	-10741
下午五时	-10742
不得而知	-10743
专家表示	-10744
人员伤亡	-10745
以巴双方	-10746
和平协定	-10747
太空漫步	-10748
将在明天	-10749
少数民族	-10750
恐怖行动	-10751
无法接受	-10752
最后一天	-10753
未来几天	-10754
百分之百	-10755
种子球员	-10756
购物中心	-10757
造成重大	-10758
飞弹攻击	-10759
▁今天稍早	-10760
▁奈及利亚	-10761
六比二击败	-10762
▁美国贸易代表	-10763
司法部长艾希克罗	-10764
▁多	-10765
▁文	-10766
▁的	-10767
不上	-10768
主谋	-10769
人心	-10770
今夏	-10771
付费	-10772
倒是	-10773
借口	-10774
准将	-10775
分组	-10776
判刑	-10777
制品	-10778
动摇	-10779
劳务	-10780
北欧	-10781
华早	-10782
受挫	-10783
国有	-10784
培兹	-10785
大胆	-10786
宣扬	-10787
少子	-10788
急遽	-10789
成一	-10790
撤换	-10791
故乡	-10792
斥资	-10793
族裔	-10794
日军	-10795
权威	-10796
查理	-10797
欺骗	-10798
永续	-10799
泛滥	-10800
洞穴	-10801
消毒	-10802
特曼	-10803
瓦里	-10804
电报	-10805
皮尔	-10806
称霸	-10807
精锐	-10808
繁殖	-10809
纪子	-10810
胜一	-10811
舰艇	-10812
获取	-10813
访美	-10814
贝多	-10815
走软	-10816
踊跃	-10817
踪迹	-10818
达卡	-10819
这将	-10820
远东	-10821
迪克	-10822
避孕	-10823
重启	-10824
靠着	-10825
魔术	-10826
黎加	-10827
▁本月	-10828
▁藤森	-10829
一日在	-10830
不同意	-10831
世足赛	-10832
两年来	-10833
了他的	-10834
亲爱的	-10835
人民党	-10836
他又说	-10837
八个月	-10838
冲突的	-10839
决定不	-10840
分公司	-10841
副作用	-10842
加萨市	-10843
十日在	-10844
协助下	-10845
在经过	-10846
大赛的	-10847
姆贝基	-10848
安德鲁	-10849
岁男童	-10850
惨重的	-10851
扬言要	-10852
拥有一	-10853
时期的	-10854
是否能	-10855
汤普森	-10856
流行性	-10857
的群众	-10858
目标的	-10859
结束前	-10860
胆固醇	-10861
誓言要	-10862
▁中新网	-10863
▁目击者	-10864
一百一十	-10865
今日美国	-10866
分析家说	-10867
喷射客机	-10868
四百公尺	-10869
国务次卿	-10870
很快就会	-10871
我们尚未	-10872
我们知道	-10873
报复行动	-10874
拟议中的	-10875
数以百计	-10876
晋级决赛	-10877
朱利安尼	-10878
核子扩散	-10879
正在考虑	-10880
竭尽所能	-10881
索马利亚	-10882
艾巴拉迪	-10883
进行会谈	-10884
哥斯大黎加	-10885
常任理事国	-10886
总理瓦巴依	-10887
最重要的是	-10888
难民事务高级专员	-10889
67	-10890
▁孙	-10891
▁特	-10892
▁福	-10893
一五	-10894
不容	-10895
业余	-10896
他要	-10897
代的	-10898
优异	-10899
保卫	-10900
卢比	-10901
可达	-10902
台上	-10903
吸入	-10904
在中	-10905
培育	-10906
基层	-10907
大跌	-10908
夫的	-10909
客车	-10910
对她	-10911
彻夜	-10912
待命	-10913
急于	-10914
恐龙	-10915
打工	-10916
抑或	-10917
拖累	-10918
放缓	-10919
政见	-10920
最少	-10921
服饰	-10922
渔业	-10923
激动	-10924
筹办	-10925
组件	-10926
美中	-10927
菲立	-10928
计时	-10929
讲话	-10930
辞世	-10931
迟缓	-10932
道的	-10933
钜子	-10934
附加	-10935
音速	-10936
颁发	-10937
颇为	-10938
鲁亚	-10939
黛妃	-10940
▁京华	-10941
▁检方	-10942
万二千	-10943
不只是	-10944
与平壤	-10945
两人在	-10946
主义的	-10947
以下的	-10948
保险套	-10949
势必会	-10950
四百名	-10951
在上周	-10952
在国内	-10953
在这场	-10954
多年的	-10955
将参加	-10956
小组的	-10957
尔表示	-10958
帕拉朵	-10959
我们就	-10960
拉斯维	-10961
方程式	-10962
污染的	-10963
注意到	-10964
的最低	-10965
知名的	-10966
耗乏铀	-10967
英国人	-10968
观光业	-10969
证交所	-10970
这是我	-10971
▁另一名	-10972
三十岁的	-10973
今天告诉	-10974
全球各地	-10975
制裁措施	-10976
可能面临	-10977
史瓦辛格	-10978
在日内瓦	-10979
密切合作	-10980
将在今年	-10981
当局表示	-10982
我们现在	-10983
新闻记者	-10984
民调结果	-10985
目前已经	-10986
石油供应	-10987
空袭行动	-10988
美国民众	-10989
足球总会	-10990
这些问题	-10991
这部电影	-10992
那斯达克	-10993
▁一般预料	-10994
▁研究报告	-10995
一九四五年	-10996
已开发国家	-10997
恐怖组织的	-10998
的主要原因	-10999
与美国总统布希	-11000
32	-11001
▁如	-11002
下院	-11003
不具	-11004
不分	-11005
两队	-11006
举措	-11007
争端	-11008
亚当	-11009
亲信	-11010
今早	-11011
休养	-11012
会期	-11013
体力	-11014
倒数	-11015
共享	-11016
冲绳	-11017
出访	-11018
创业	-11019
别无	-11020
勒索	-11021
化为	-11022
半个	-11023
单纯	-11024
厉害	-11025
喝酒	-11026
国情	-11027
在家	-11028
坚强	-11029
基辅	-11030
堪称	-11031
多出	-11032
太后	-11033
头版	-11034
奇怪	-11035
宿舍	-11036
尊敬	-11037
就已	-11038
市值	-11039
市府	-11040
并由	-11041
幼稚	-11042
应对	-11043
底特	-11044
感恩	-11045
托沃	-11046
扳回	-11047
拓展	-11048
持久	-11049
收拾	-11050
改为	-11051
新片	-11052
朝向	-11053
杀虫	-11054
梦幻	-11055
死因	-11056
民权	-11057
潜伏	-11058
犯规	-11059
疫区	-11060
祸首	-11061
禁烟	-11062
离散	-11063
窃取	-11064
纳西	-11065
能让	-11066
节日	-11067
蜜丝	-11068
载人	-11069
辉煌	-11070
重复	-11071
错失	-11072
门槛	-11073
隐藏	-11074
零星	-11075
雷德	-11076
预言	-11077
餐馆	-11078
▁苹果	-11079
▁韩国	-11080
中国人	-11081
人质的	-11082
亿而富	-11083
今天与	-11084
今年前	-11085
加德满	-11086
回忆录	-11087
塞斯基	-11088
如今已	-11089
宣布的	-11090
将出现	-11091
工厂的	-11092
开始的	-11093
感染了	-11094
投票中	-11095
提供给	-11096
特别的	-11097
电讯报	-11098
的个人	-11099
的动作	-11100
的地震	-11101
的进展	-11102
科学院	-11103
第二位	-11104
约二十	-11105
经营的	-11106
结束的	-11107
罗德里	-11108
被捕的	-11109
飞弹的	-11110
▁宾拉登	-11111
▁新华社	-11112
一个国家	-11113
两千两百	-11114
人员表示	-11115
入主白宫	-11116
共同努力	-11117
十九日在	-11118
和西班牙	-11119
天文学家	-11120
持续进行	-11121
政治领袖	-11122
瓦伦西亚	-11123
示威游行	-11124
竞选连任	-11125
紧急会议	-11126
继续推动	-11127
▁伦斯斐说	-11128
▁南斯拉夫	-11129
▁葛林斯潘	-11130
世贸组织的	-11131
入侵伊拉克	-11132
历史教科书	-11133
国营电视台	-11134
的安全措施	-11135
非政府组织	-11136
靖国神社参拜	-11137
欧萨玛宾拉登的	-11138
一具	-11139
三七	-11140
不像	-11141
不稳	-11142
为时	-11143
乃至	-11144
五次	-11145
产值	-11146
从中	-11147
便利	-11148
兰德	-11149
关联	-11150
写信	-11151
出刊	-11152
剥夺	-11153
加深	-11154
去了	-11155
只剩	-11156
合伙	-11157
吨的	-11158
和谐	-11159
和鲁	-11160
四川	-11161
外出	-11162
威斯	-11163
安慰	-11164
将就	-11165
尔的	-11166
巴林	-11167
应讯	-11168
急剧	-11169
慢性	-11170
操纵	-11171
方针	-11172
曼哈	-11173
月的	-11174
民答	-11175
海边	-11176
温暖	-11177
的家	-11178
篮网	-11179
系由	-11180
纳德	-11181
经典	-11182
美俄	-11183
致意	-11184
色彩	-11185
西元	-11186
说过	-11187
还击	-11188
这栋	-11189
逆差	-11190
逛街	-11191
避开	-11192
那峨	-11193
重镇	-11194
随之	-11195
雕像	-11196
领军	-11197
驻在	-11198
骚动	-11199
骨折	-11200
齐娜	-11201
500	-11202
▁此举	-11203
也无法	-11204
了大约	-11205
于本月	-11206
人死于	-11207
人类的	-11208
他指出	-11209
以两百	-11210
以确定	-11211
会出现	-11212
克劳福	-11213
分钟内	-11214
包括在	-11215
十六强	-11216
可望于	-11217
吴作栋	-11218
大教堂	-11219
底特律	-11220
攻击中	-11221
昨天的	-11222
有两个	-11223
此之外	-11224
电影院	-11225
的人类	-11226
的关切	-11227
的冲击	-11228
目前是	-11229
第十七	-11230
绳之以	-11231
联合党	-11232
胡志明	-11233
自由党	-11234
街道上	-11235
要求不	-11236
诺基亚	-11237
非常好	-11238
▁朱镕基	-11239
▁欧尼尔	-11240
一个星期	-11241
一致认为	-11242
世界通讯	-11243
冬季奥运	-11244
准决赛中	-11245
化学武器	-11246
十四日在	-11247
去年六月	-11248
召开会议	-11249
名列第二	-11250
在洛杉矶	-11251
多人死亡	-11252
失业人口	-11253
意外事故	-11254
排名世界	-11255
控股公司	-11256
政府表示	-11257
数十年来	-11258
架直升机	-11259
民主奋斗	-11260
民答那峨	-11261
网路公司	-11262
那不鲁斯	-11263
▁艾希克罗	-11264
犹太屯垦区	-11265
第二次世界大战	-11266
3,	-11267
▁无	-11268
他还	-11269
伯格	-11270
倾销	-11271
决胜	-11272
出不	-11273
刑求	-11274
利桑	-11275
同声	-11276
后续	-11277
土壤	-11278
在三	-11279
塞拉	-11280
多处	-11281
大脑	-11282
巴尼	-11283
币值	-11284
应变	-11285
当事	-11286
德勒	-11287
忘了	-11288
抱走	-11289
拉卡	-11290
拿着	-11291
挤满	-11292
接收	-11293
敌意	-11294
数学	-11295
断然	-11296
次日	-11297
正规	-11298
水源	-11299
波昂	-11300
渔民	-11301
港府	-11302
玫瑰	-11303
碎片	-11304
祖文	-11305
糟糕	-11306
腐败	-11307
臆测	-11308
艾塔	-11309
营利	-11310
融合	-11311
迁移	-11312
过来	-11313
连连	-11314
造势	-11315
重庆	-11316
阿曼	-11317
雇主	-11318
饮用	-11319
首季	-11320
马汀	-11321
▁挪威	-11322
▁新力	-11323
▁比赛	-11324
▁这篇	-11325
三百万	-11326
上一次	-11327
不容易	-11328
不得了	-11329
举办的	-11330
五月间	-11331
今天起	-11332
以解决	-11333
你可以	-11334
北京市	-11335
十三个	-11336
压力下	-11337
去年底	-11338
在野党	-11339
威胁的	-11340
将会有	-11341
已出现	-11342
据信是	-11343
最后以	-11344
爆炸声	-11345
的作用	-11346
的文件	-11347
自由与	-11348
要求的	-11349
访问中	-11350
高球赛	-11351
▁声明中	-11352
▁辛吉丝	-11353
十八日在	-11354
十六日在	-11355
发动战争	-11356
可能需要	-11357
和阿富汗	-11358
国家公园	-11359
国际法庭	-11360
布宜诺斯	-11361
感染病例	-11362
提高警觉	-11363
新闻媒体	-11364
明年元月	-11365
狄曼提娃	-11366
生物武器	-11367
第七种子	-11368
联合大公	-11369
认为这是	-11370
这次选举	-11371
这项会谈	-11372
的发言人说	-11373
美元兑日圆	-11374
亿七千万美元	-11375
一番	-11376
不慎	-11377
不懂	-11378
不易	-11379
之苦	-11380
了三	-11381
二手	-11382
人群	-11383
令他	-11384
们说	-11385
伸出	-11386
余名	-11387
佛兰	-11388
减肥	-11389
加盟	-11390
华沙	-11391
协和	-11392
卫队	-11393
危急	-11394
卷土	-11395
商标	-11396
四点	-11397
夜晚	-11398
天内	-11399
将再	-11400
就读	-11401
希夏	-11402
并发	-11403
忍受	-11404
拉法	-11405
据传	-11406
时装	-11407
暗中	-11408
李察	-11409
沈阳	-11410
波罗	-11411
济兹	-11412
灭绝	-11413
盘旋	-11414
看出	-11415
看得	-11416
着陆	-11417
睡眠	-11418
研商	-11419
秋天	-11420
老旧	-11421
航运	-11422
要务	-11423
规避	-11424
豁免	-11425
较少	-11426
输给	-11427
运营	-11428
这波	-11429
迪说	-11430
送至	-11431
逃生	-11432
闻名	-11433
零九	-11434
鞋子	-11435
预赛	-11436
▁另一	-11437
▁曾经	-11438
三月间	-11439
下台的	-11440
为主的	-11441
五年前	-11442
以一分	-11443
佛塞特	-11444
克里特	-11445
全国性	-11446
共造成	-11447
决策者	-11448
分钟就	-11449
卷土重	-11450
合理的	-11451
在平壤	-11452
在机场	-11453
对经济	-11454
将举行	-11455
将达到	-11456
幼稚园	-11457
引爆炸	-11458
引起了	-11459
我现在	-11460
教室里	-11461
枚炸弹	-11462
比较好	-11463
爱国者	-11464
的利益	-11465
的助理	-11466
的数量	-11467
葛洛尚	-11468
记忆体	-11469
还有一	-11470
里兰州	-11471
预估的	-11472
▁小布希	-11473
▁森喜朗	-11474
▁鲍尔在	-11475
七月一日	-11476
令人感到	-11477
作业系统	-11478
十一日在	-11479
十八岁的	-11480
国会议长	-11481
基本教义	-11482
工会领袖	-11483
投掷石块	-11484
控制中心	-11485
玻利维亚	-11486
电力公司	-11487
的影响力	-11488
的报导说	-11489
绳之以法	-11490
蜜丝齐娜	-11491
设立一个	-11492
访问中国	-11493
这家公司	-11494
这起事件	-11495
连续第二	-11496
▁斯里兰卡	-11497
主要是因为	-11498
四十亿美元	-11499
这项决议案	-11500
▁新华社报导	-11501
在一九九八年	-11502
南韩总统金大中	-11503
▁法国总统席哈克	-11504
1,	-11505
专案	-11506
东尼	-11507
书店	-11508
亚历	-11509
伊克	-11510
保密	-11511
出价	-11512
删除	-11513
却因	-11514
双重	-11515
地理	-11516
多种	-11517
强行	-11518
摄取	-11519
数年	-11520
最受	-11521
月球	-11522
机率	-11523
查德	-11524
柯勒	-11525
民运	-11526
点的	-11527
爱好	-11528
白天	-11529
磋谈	-11530
税率	-11531
给你	-11532
脂肪	-11533
蒙上	-11534
西门	-11535
角度	-11536
越野	-11537
送回	-11538
除名	-11539
难堪	-11540
首批	-11541
高居	-11542
黄色	-11543
▁一旦	-11544
▁例如	-11545
▁其实	-11546
▁汉城	-11547
上半场	-11548
不可以	-11549
与政府	-11550
丑闻案	-11551
于十月	-11552
人罹难	-11553
什么事	-11554
以一比	-11555
以二比	-11556
企业家	-11557
军医院	-11558
医学院	-11559
十二时	-11560
十八名	-11561
双方都	-11562
只有一	-11563
国家队	-11564
少子化	-11565
就开始	-11566
巴格兰	-11567
性行为	-11568
我没有	-11569
托雷多	-11570
报导中	-11571
显示出	-11572
杀虫剂	-11573
森表示	-11574
泰托沃	-11575
田中真	-11576
的一条	-11577
的举动	-11578
的作者	-11579
的气氛	-11580
类固醇	-11581
表达了	-11582
詹姆斯	-11583
讨论了	-11584
造成了	-11585
降落在	-11586
▁墨西哥	-11587
上诉法庭	-11588
不幸丧生	-11589
二十年来	-11590
从来没有	-11591
双方关系	-11592
发生一起	-11593
国营媒体	-11594
在网路上	-11595
帕拉朵恩	-11596
并未透露	-11597
愈来愈多	-11598
提出报告	-11599
摄影记者	-11600
核武计划	-11601
生物科技	-11602
直接投资	-11603
表示遗憾	-11604
资深官员	-11605
达佛地区	-11606
这种情况	-11607
▁委内瑞拉	-11608
二十九岁的	-11609
二十二岁的	-11610
五十万美元	-11611
卫冕冠军的	-11612
高球公开赛	-11613
美国总统大选	-11614
▁受	-11615
▁身	-11616
一笔	-11617
为二	-11618
之时	-11619
乔斯	-11620
五成	-11621
仿冒	-11622
全胜	-11623
公会	-11624
创始	-11625
到场	-11626
动脉	-11627
可说	-11628
在那	-11629
增派	-11630
头发	-11631
寓所	-11632
希姆	-11633
并被	-11634
幼儿	-11635
开采	-11636
念书	-11637
手续	-11638
持平	-11639
掌权	-11640
收获	-11641
敢死	-11642
新人	-11643
显龙	-11644
格拉	-11645
比拉	-11646
澳门	-11647
猫熊	-11648
的古	-11649
花旗	-11650
解雇	-11651
请愿	-11652
诺说	-11653
调解	-11654
货运	-11655
走缓	-11656
赶到	-11657
车内	-11658
进度	-11659
退赛	-11660
遇袭	-11661
随行	-11662
露出	-11663
频繁	-11664
198	-11665
▁以及	-11666
▁参与	-11667
▁唐纳	-11668
万两千	-11669
与他们	-11670
与会者	-11671
与北京	-11672
九个月	-11673
使美国	-11674
劫机者	-11675
史上最	-11676
在上海	-11677
在八月	-11678
安全与	-11679
对伊朗	-11680
将这些	-11681
开玩笑	-11682
性侵害	-11683
惊人的	-11684
技术的	-11685
是否将	-11686
最重要	-11687
正逐渐	-11688
的两个	-11689
的做法	-11690
的审判	-11691
的必要	-11692
的朋友	-11693
的胜利	-11694
的资讯	-11695
目前有	-11696
研发出	-11697
社会的	-11698
第一批	-11699
第四次	-11700
纽约州	-11701
自由式	-11702
西费特	-11703
费南德	-11704
还需要	-11705
采取更	-11706
重要性	-11707
领袖在	-11708
麦克威	-11709
下午三时	-11710
义大利的	-11711
人道援助	-11712
十九岁的	-11713
协会主席	-11714
库斯克号	-11715
当选总统	-11716
所发表的	-11717
新闻周刊	-11718
明星球员	-11719
洛克希德	-11720
的时间表	-11721
联邦基金	-11722
预防措施	-11723
驱逐出境	-11724
七百万美元	-11725
对法新社说	-11726
局长泰内特	-11727
数百万美元	-11728
田中真纪子	-11729
民调结果显示	-11730
爱尔兰共和军	-11731
副国务卿阿米塔吉	-11732
内阁官房长官福田康夫	-11733
一列	-11734
一篇	-11735
光耀	-11736
内地	-11737
减至	-11738
出自	-11739
出轨	-11740
前例	-11741
即已	-11742
反托	-11743
口头	-11744
各类	-11745
哥国	-11746
大小	-11747
奇迹	-11748
她与	-11749
实地	-11750
对美	-11751
局说	-11752
年后	-11753
必需	-11754
忙着	-11755
成都	-11756
战舰	-11757
戴维	-11758
房舍	-11759
手枪	-11760
打完	-11761
抓下	-11762
指明	-11763
排斥	-11764
提亚	-11765
撞机	-11766
支票	-11767
改编	-11768
曾为	-11769
次数	-11770
测量	-11771
狄托	-11772
生前	-11773
界线	-11774
病菌	-11775
皮特	-11776
稍微	-11777
繁忙	-11778
艾伦	-11779
芭拉	-11780
要犯	-11781
足协	-11782
这辆	-11783
重心	-11784
阿姆	-11785
雇员	-11786
马斯	-11787
▁一家	-11788
▁卫生	-11789
▁地方	-11790
▁总统	-11791
▁现场	-11792
▁该报	-11793
▁调查	-11794
一二年	-11795
上加霜	-11796
与警方	-11797
交易的	-11798
他今天	-11799
传统上	-11800
伦敦的	-11801
保护区	-11802
六年的	-11803
制造厂	-11804
印尼的	-11805
受害人	-11806
可以让	-11807
合法性	-11808
在二月	-11809
在二次	-11810
在经济	-11811
在这些	-11812
复活节	-11813
夜总会	-11814
对未来	-11815
已发现	-11816
已引起	-11817
并希望	-11818
应该是	-11819
建设性	-11820
改变了	-11821
新闻界	-11822
是英国	-11823
杆之差	-11824
的心情	-11825
的运动	-11826
的遗体	-11827
破坏了	-11828
空前的	-11829
第一天	-11830
纽约的	-11831
统治者	-11832
表示将	-11833
解释说	-11834
零售商	-11835
领导下	-11836
▁尼泊尔	-11837
▁巴格达	-11838
▁胡锦涛	-11839
与西班牙	-11840
五月一日	-11841
再度发生	-11842
加德满都	-11843
医学杂志	-11844
十一月份	-11845
因为美国	-11846
希望能够	-11847
无法证实	-11848
明年三月	-11849
欧盟国家	-11850
民主党籍	-11851
福特汽车	-11852
解决问题	-11853
这项调查	-11854
雪上加霜	-11855
▁塞尔维亚	-11856
▁太空总署	-11857
拉斯维加斯	-11858
攻打伊拉克	-11859
百分之十一	-11860
的死亡人数	-11861
的美国选手	-11862
索罗门群岛	-11863
亿六千万美元	-11864
纽约和华盛顿	-11865
增加百分之零点	-11866
参谋首长联席会议主席	-11867
▁仅	-11868
▁施	-11869
上演	-11870
不去	-11871
丝毫	-11872
中学	-11873
也让	-11874
亚欧	-11875
亿万	-11876
任金	-11877
僵持	-11878
冷淡	-11879
史特	-11880
呼应	-11881
哨站	-11882
四位	-11883
在后	-11884
处的	-11885
奖励	-11886
存量	-11887
巫师	-11888
建构	-11889
开除	-11890
归功	-11891
很高	-11892
战车	-11893
手足	-11894
报酬	-11895
控管	-11896
掩埋	-11897
掩护	-11898
是项	-11899
格里	-11900
格雷	-11901
模特	-11902
橄榄	-11903
步入	-11904
死的	-11905
水灾	-11906
海的	-11907
瓦洛	-11908
男生	-11909
痴呆	-11910
的天	-11911
相连	-11912
瞻仰	-11913
破灭	-11914
积欠	-11915
竭力	-11916
等着	-11917
耶稣	-11918
肉类	-11919
能有	-11920
艰辛	-11921
营区	-11922
营地	-11923
认知	-11924
认罪	-11925
话题	-11926
贝特	-11927
走下	-11928
超市	-11929
身心	-11930
载着	-11931
过剩	-11932
这只	-11933
逃往	-11934
部位	-11935
雅特	-11936
颁布	-11937
预报	-11938
风速	-11939
鲨鱼	-11940
▁丹麦	-11941
▁假如	-11942
▁缅甸	-11943
▁邮报	-11944
一年内	-11945
两天前	-11946
五十人	-11947
亚洲的	-11948
今年将	-11949
分别为	-11950
原来的	-11951
审法官	-11952
就此事	-11953
尼斯堡	-11954
很重要	-11955
摩纳哥	-11956
新内阁	-11957
有鉴于	-11958
李肇星	-11959
检察长	-11960
演变成	-11961
现在是	-11962
生活的	-11963
的批评	-11964
的时机	-11965
自由的	-11966
表现出	-11967
证实了	-11968
较去年	-11969
这就是	-11970
逊尼派	-11971
金像奖	-11972
阿塞德	-11973
▁卢武铉	-11974
▁奥地利	-11975
一亿五千	-11976
一年一度	-11977
二十世纪	-11978
从伊拉克	-11979
包括美国	-11980
医护人员	-11981
回教叛军	-11982
国际足总	-11983
战争罪行	-11984
持续下去	-11985
现任总统	-11986
理事会的	-11987
票房收入	-11988
罢工行动	-11989
这件事情	-11990
这次会议	-11991
阿根廷的	-11992
领导人的	-11993
▁一般认为	-11994
▁布希政府	-11995
▁这份报告	-11996
一九八四年	-11997
二十五岁的	-11998
伊克夫斯基	-11999
十一月二日	-12000
恐怖攻击的	-12001
的暴力冲突	-12002
约翰尼斯堡	-12003
阿拉伯世界	-12004
七比六七比五	-12005
峇里岛爆炸案	-12006
扮演重要角色	-12007
德国总理施若德	-12008
亚太经济合作会议	-12009
90	-12010
▁爱	-12011
、6	-12012
一四	-12013
万至	-12014
三兆	-12015
上阵	-12016
东区	-12017
之急	-12018
仍需	-12019
仪器	-12020
传唤	-12021
债信	-12022
全数	-12023
公积	-12024
公职	-12025
六分	-12026
六天	-12027
兰多	-12028
其琛	-12029
几次	-12030
凤凰	-12031
史东	-12032
名叫	-12033
商会	-12034
在美	-12035
在被	-12036
均已	-12037
处方	-12038
夏普	-12039
外债	-12040
失火	-12041
存有	-12042
实体	-12043
尴尬	-12044
差别	-12045
总体	-12046
把他	-12047
报案	-12048
拉齐	-12049
新疆	-12050
曾以	-12051
杉山	-12052
架设	-12053
标示	-12054
横扫	-12055
毒气	-12056
民宅	-12057
水产	-12058
波多	-12059
流离	-12060
珊瑚	-12061
的年	-12062
等级	-12063
粮农	-12064
经销	-12065
而他	-12066
职篮	-12067
获选	-12068
蔬菜	-12069
译者	-12070
该市	-12071
轴心	-12072
输送	-12073
过敏	-12074
运行	-12075
长江	-12076
零三	-12077
预先	-12078
额度	-12079
▁伊塔	-12080
▁卡赛	-12081
▁平壤	-12082
▁支持	-12083
▁独立	-12084
一直被	-12085
中国和	-12086
举行了	-12087
也同意	-12088
他们所	-12089
他呼吁	-12090
元月份	-12091
内部的	-12092
前美国	-12093
十八岁	-12094
另一次	-12095
各方面	-12096
喀土木	-12097
在北韩	-12098
在本周	-12099
在此一	-12100
地点在	-12101
如果他	-12102
对此事	-12103
张选票	-12104
很喜欢	-12105
拉鲁亚	-12106
未来将	-12107
李少民	-12108
沙利夫	-12109
沙尼亚	-12110
现在的	-12111
的儿子	-12112
的员工	-12113
的呼吁	-12114
的职务	-12115
米克森	-12116
考虑到	-12117
而死亡	-12118
能源部	-12119
觉得很	-12120
认真的	-12121
▁今天的	-12122
▁克拉克	-12123
▁这将是	-12124
▁陈水扁	-12125
三十日在	-12126
为期三天	-12127
令人失望	-12128
几个小时	-12129
各国部长	-12130
向法新社	-12131
外相史卓	-12132
威廉王子	-12133
将于下周	-12134
度假胜地	-12135
抗议群众	-12136
拒绝说明	-12137
攻击美国	-12138
无期徒刑	-12139
机组人员	-12140
毫无疑问	-12141
泰晤士报	-12142
流离失所	-12143
电子产品	-12144
社会主义	-12145
祖文特斯	-12146
辞职下台	-12147
这项禁令	-12148
世界杯足球	-12149
两百万美元	-12150
二十六岁的	-12151
以色列军方	-12152
千年民主党	-12153
对抗爱滋病	-12154
总理阿拉威	-12155
数以千计的	-12156
▁日本外务省	-12157
增加了百分之	-12158
自一九九九年	-12159
这起攻击事件	-12160
总统艾斯特拉达	-12161
48	-12162
一七	-12163
不合	-12164
不该	-12165
五度	-12166
些微	-12167
人潮	-12168
体能	-12169
信守	-12170
做得	-12171
光荣	-12172
冒着	-12173
冬天	-12174
冷冻	-12175
刚好	-12176
北爱	-12177
只鸡	-12178
和我	-12179
夫婿	-12180
她也	-12181
宾士	-12182
对空	-12183
就被	-12184
布仑	-12185
年时	-12186
并已	-12187
延宕	-12188
当务	-12189
影艺	-12190
待在	-12191
恫吓	-12192
教头	-12193
斯卡	-12194
普瑞	-12195
某个	-12196
正如	-12197
残暴	-12198
残酷	-12199
沙巴	-12200
潘基	-12201
牛仔	-12202
牧场	-12203
特遣	-12204
甲级	-12205
电梯	-12206
紧追	-12207
能量	-12208
蓝图	-12209
要为	-12210
贩毒	-12211
走了	-12212
赶往	-12213
踢和	-12214
违背	-12215
通勤	-12216
郑梦	-12217
▁只要	-12218
▁担任	-12219
▁拥有	-12220
▁此时	-12221
▁菲国	-12222
三千人	-12223
三小时	-12224
中间偏	-12225
人口的	-12226
以外的	-12227
伊凡尼	-12228
六月间	-12229
出口额	-12230
前一天	-12231
勃恩斯	-12232
十二人	-12233
协议的	-12234
印地安	-12235
参谋长	-12236
圣彼得	-12237
在最近	-12238
型电脑	-12239
妇女的	-12240
尼克森	-12241
尽全力	-12242
底之前	-12243
支出的	-12244
数个月	-12245
无前例	-12246
无线电	-12247
模特儿	-12248
活动中	-12249
生涯中	-12250
的位置	-12251
的土地	-12252
的工厂	-12253
的表示	-12254
维他命	-12255
自行车	-12256
芭芭拉	-12257
装甲车	-12258
西南方	-12259
过半数	-12260
钱其琛	-12261
革命军	-12262
飞机的	-12263
▁报导中	-12264
二十五名	-12265
亚齐运动	-12266
今天发表	-12267
仍不清楚	-12268
发表这项	-12269
夏拉波娃	-12270
政治危机	-12271
昨天宣布	-12272
核武计画	-12273
检验结果	-12274
欧盟宪法	-12275
由于美国	-12276
研究所的	-12277
索伦丝坦	-12278
还不清楚	-12279
这种作法	-12280
长期以来	-12281
五十亿美元	-12282
今天报导说	-12283
伊拉克问题	-12284
国土安全部	-12285
百分之十四	-12286
的报告指出	-12287
美国领导的	-12288
▁美国大使馆	-12289
回教圣战组织	-12290
第二大经济体	-12291
刚果民主共和国	-12292
国家主席胡锦涛	-12293
总理贝鲁斯柯尼	-12294
戴姆勒克莱斯勒	-12295
纽约世界贸易中心	-12296
▁菲律宾总统雅罗育	-12297
2,	-12298
▁瓦	-12299
▁范	-12300
七分	-12301
七项	-12302
不定	-12303
两分	-12304
两只	-12305
人人	-12306
人气	-12307
仇恨	-12308
佛瑞	-12309
你要	-12310
修补	-12311
其所	-12312
再生	-12313
农林	-12314
力求	-12315
单身	-12316
却未	-12317
双亲	-12318
取胜	-12319
可供	-12320
吃的	-12321
在五	-12322
声名	-12323
奇说	-12324
学到	-12325
客气	-12326
小牛	-12327
强森	-12328
形态	-12329
彤嘉	-12330
托罗	-12331
拉特	-12332
查禁	-12333
汇丰	-12334
河流	-12335
特征	-12336
现状	-12337
球会	-12338
男婴	-12339
盈利	-12340
盛大	-12341
神盾	-12342
种类	-12343
空调	-12344
粉碎	-12345
给了	-12346
缺陷	-12347
臭氧	-12348
营建	-12349
要有	-12350
该案	-12351
赛跑	-12352
起初	-12353
路边	-12354
进出	-12355
金边	-12356
降雨	-12357
革职	-12358
颇具	-12359
鲜少	-12360
鸟类	-12361
麦隆	-12362
▁主管	-12363
▁主要	-12364
▁众院	-12365
▁有人	-12366
一千万	-12367
下一步	-12368
也受到	-12369
也认为	-12370
仍继续	-12371
似乎是	-12372
净亏损	-12373
副外长	-12374
在七月	-12375
在现场	-12376
复制人	-12377
孩子的	-12378
将增加	-12379
并造成	-12380
张德培	-12381
愤怒的	-12382
排名第	-12383
新一波	-12384
新华社	-12385
有一百	-12386
的各种	-12387
的合作	-12388
的大型	-12389
的官方	-12390
的案子	-12391
的油价	-12392
的这些	-12393
维纳斯	-12394
获得了	-12395
赛末点	-12396
里程碑	-12397
马萨里	-12398
三十分钟	-12399
今年七月	-12400
利物浦队	-12401
办公大楼	-12402
印尼总统	-12403
可能引发	-12404
在西班牙	-12405
多国部队	-12406
强硬立场	-12407
当务之急	-12408
我们非常	-12409
提供协助	-12410
政界人士	-12411
最后一刻	-12412
核子计划	-12413
武器管制	-12414
目的是要	-12415
研究发现	-12416
贸易关系	-12417
重新开放	-12418
▁阿布杜拉	-12419
今年上半年	-12420
作以上表示	-12421
发言人艾瑞	-12422
要求匿名的	-12423
发展核子武器	-12424
难民事务高级专员公署	-12425
▁万	-12426
▁班	-12427
一组	-12428
不全	-12429
买主	-12430
二人	-12431
伯特	-12432
修宪	-12433
停飞	-12434
元凶	-12435
冲进	-12436
包办	-12437
发放	-12438
发自	-12439
商家	-12440
喂食	-12441
在向	-12442
处长	-12443
外卡	-12444
大威	-12445
安抚	-12446
宏都	-12447
定居	-12448
实践	-12449
宵禁	-12450
宿敌	-12451
山东	-12452
巡视	-12453
差点	-12454
巴里	-12455
市政	-12456
平藏	-12457
微幅	-12458
心力	-12459
意在	-12460
感激	-12461
扫射	-12462
扭曲	-12463
拉开	-12464
斋戒	-12465
施工	-12466
旅居	-12467
春天	-12468
杀戮	-12469
果岭	-12470
欧文	-12471
民警	-12472
泄露	-12473
波普	-12474
演变	-12475
灵柩	-12476
率的	-12477
画作	-12478
的低	-12479
相似	-12480
破了	-12481
社交	-12482
筹募	-12483
线路	-12484
绝食	-12485
缴交	-12486
苦战	-12487
荣耀	-12488
萨维	-12489
蓝色	-12490
行踪	-12491
触及	-12492
质量	-12493
软件	-12494
迪欧	-12495
适时	-12496
速食	-12497
雷斯	-12498
频传	-12499
鼓掌	-12500
---	-12501
▁又说	-12502
▁只有	-12503
▁新京	-12504
一月份	-12505
不足以	-12506
两年内	-12507
两年的	-12508
为目标	-12509
了解到	-12510
亚利桑	-12511
仍维持	-12512
克鲁斯	-12513
公积金	-12514
前不久	-12515
北方的	-12516
十五人	-12517
名列前	-12518
吸烟者	-12519
哈塔米	-12520
哈里里	-12521
基地的	-12522
多小时	-12523
大奖赛	-12524
就没有	-12525
已抵达	-12526
平方米	-12527
并宣布	-12528
弹劾案	-12529
感兴趣	-12530
我不会	-12531
托利亚	-12532
有没有	-12533
柯尔号	-12534
民航机	-12535
爱司球	-12536
的共同	-12537
的地位	-12538
的家人	-12539
的竞选	-12540
的警察	-12541
的许多	-12542
的道路	-12543
瞩目的	-12544
美国所	-12545
脱维亚	-12546
银行和	-12547
项目的	-12548
▁法新社	-12549
一万四千	-12550
今年九月	-12551
以四比六	-12552
名列第三	-12553
周年纪念	-12554
宏都拉斯	-12555
并未发现	-12556
当选连任	-12557
情报首长	-12558
打进决赛	-12559
接受审判	-12560
提克里特	-12561
新一回合	-12562
最后通牒	-12563
民主政治	-12564
爱滋病患	-12565
玛拉彤嘉	-12566
环境部长	-12567
的阿拉伯	-12568
结束以来	-12569
罹难者的	-12570
美国联邦	-12571
苏丹政府	-12572
这是一项	-12573
高度警戒	-12574
▁布希表示	-12575
万五千美元	-12576
丰富多彩的	-12577
外长裴瑞斯	-12578
感染禽流感	-12579
的报导指出	-12580
对伊拉克动武	-12581
民意调查显示	-12582
特拉伊克夫斯基	-12583
31	-12584
36	-12585
▁却	-12586
▁向	-12587
▁曼	-12588
。9	-12589
一封	-12590
三点	-12591
三盘	-12592
不惜	-12593
与日	-12594
丛林	-12595
买进	-12596
云南	-12597
五点	-12598
亚美	-12599
仍可	-12600
公立	-12601
共计	-12602
其在	-12603
冰岛	-12604
去职	-12605
各州	-12606
咨文	-12607
哈山	-12608
哈德	-12609
唱歌	-12610
园区	-12611
地上	-12612
基嫚	-12613
士丹	-12614
大厅	-12615
夺下	-12616
夺魁	-12617
孟买	-12618
学位	-12619
学术	-12620
宾客	-12621
少了	-12622
巴山	-12623
常务	-12624
干事	-12625
座谈	-12626
忽略	-12627
成份	-12628
损坏	-12629
探员	-12630
推展	-12631
政界	-12632
斯托	-12633
无聊	-12634
是自	-12635
每人	-12636
氧气	-12637
清白	-12638
爱情	-12639
班次	-12640
生下	-12641
的自	-12642
相处	-12643
真理	-12644
精确	-12645
而有	-12646
至九	-12647
舞蹈	-12648
艾德	-12649
苏拉	-12650
莱德	-12651
蝗虫	-12652
视频	-12653
调派	-12654
赎金	-12655
超然	-12656
进去	-12657
重开	-12658
阿华	-12659
▁凯利	-12660
▁参加	-12661
▁法院	-12662
▁鉴于	-12663
与我们	-12664
业务的	-12665
主义者	-12666
主办的	-12667
今天又	-12668
其中的	-12669
农作物	-12670
劳工部	-12671
后来居	-12672
在九月	-12673
女网赛	-12674
孩子们	-12675
完成了	-12676
对台湾	-12677
将获得	-12678
将面对	-12679
归功于	-12680
当局的	-12681
必要时	-12682
总司令	-12683
承诺将	-12684
撒哈拉	-12685
政治犯	-12686
期间的	-12687
本球季	-12688
柯斯塔	-12689
桑杰士	-12690
的一员	-12691
的一步	-12692
的不满	-12693
的作业	-12694
的前途	-12695
的生命	-12696
音乐会	-12697
▁但是在	-12698
一个月前	-12699
一百九十	-12700
一连串的	-12701
二千二百	-12702
今天结束	-12703
信息中心	-12704
共和党籍	-12705
其中一名	-12706
史无前例	-12707
呼吁美国	-12708
在加拿大	-12709
基础建设	-12710
小儿麻痹	-12711
引起争议	-12712
德州州长	-12713
我们将会	-12714
新闻部长	-12715
民主反对	-12716
没有什么	-12717
没有说明	-12718
澳洲政府	-12719
竹中平藏	-12720
维多利亚	-12721
警方逮捕	-12722
进一步的	-12723
举行的世界	-12724
二十七岁的	-12725
今天公布的	-12726
以色列政府	-12727
召开记者会	-12728
联合大公国	-12729
一九九九年的	-12730
参拜靖国神社	-12731
欧盟轮值主席	-12732
消息人士指出	-12733
约旦河西岸的	-12734
绿色和平组织	-12735
马萨里沙利夫	-12736
▁国际原子能总署	-12737
埃及总统穆巴拉克	-12738
民意调查结果显示	-12739
美国国防部长伦斯斐	-12740
▁十	-12741
▁台	-12742
▁徐	-12743
▁连	-12744
一块	-12745
一行	-12746
不相	-12747
业主	-12748
东岸	-12749
两球	-12750
主力	-12751
主流	-12752
交道	-12753
亨利	-12754
亿零	-12755
他人	-12756
佩特	-12757
使它	-12758
假设	-12759
克在	-12760
入场	-12761
公升	-12762
出事	-12763
分手	-12764
刑警	-12765
剧本	-12766
加重	-12767
同志	-12768
哈瓦	-12769
四大	-12770
国立	-12771
在南	-12772
坚守	-12773
大体	-12774
夺回	-12775
安然	-12776
宫内	-12777
家居	-12778
密特	-12779
将它	-12780
将比	-12781
尼在	-12782
属实	-12783
引来	-12784
恶名	-12785
戏院	-12786
我方	-12787
抓住	-12788
掌声	-12789
日趋	-12790
暴涨	-12791
更改	-12792
有个	-12793
木星	-12794
欧斯	-12795
此起	-12796
毛病	-12797
港元	-12798
焦虑	-12799
着作	-12800
福建	-12801
紫阳	-12802
纳加	-12803
缺失	-12804
罪魁	-12805
老婆	-12806
萨拉	-12807
被杀	-12808
视讯	-12809
触犯	-12810
财物	-12811
转会	-12812
较小	-12813
这款	-12814
迦纳	-12815
逃出	-12816
部曲	-12817
长跑	-12818
雄心	-12819
高温	-12820
▁电视	-12821
▁这样	-12822
▁阿米	-12823
七千名	-12824
与会的	-12825
与安全	-12826
以换取	-12827
会导致	-12828
六十名	-12829
到现在	-12830
加拉瓜	-12831
十五岁	-12832
原则上	-12833
原子弹	-12834
吸引力	-12835
在学校	-12836
多数的	-12837
大会的	-12838
好朋友	-12839
官员的	-12840
已不再	-12841
巴西队	-12842
当局说	-12843
戈巴契	-12844
我不能	-12845
或失踪	-12846
时间内	-12847
明尼加	-12848
是如何	-12849
步兵师	-12850
率领的	-12851
瑞士的	-12852
疫情的	-12853
的信函	-12854
的命令	-12855
的日期	-12856
的真正	-12857
票通过	-12858
航空业	-12859
艾格撒	-12860
被告知	-12861
诊断出	-12862
这两项	-12863
连续第	-12864
▁内政部	-12865
▁马哈地	-12866
一九七年	-12867
个国家的	-12868
作出回应	-12869
几个星期	-12870
尚未决定	-12871
展开会谈	-12872
我们预期	-12873
排名第二	-12874
救援行动	-12875
核子危机	-12876
民主运动	-12877
空气污染	-12878
行政首长	-12879
计票结果	-12880
访问期间	-12881
足球联盟	-12882
边界地区	-12883
返回地球	-12884
这项判决	-12885
遭到绑架	-12886
锦标赛的	-12887
▁日本银行	-12888
▁朝日新闻	-12889
一九七六年	-12890
一九八七年	-12891
关达那摩湾	-12892
口蹄疫病例	-12893
和加萨走廊	-12894
总理巴瑞克	-12895
总统大选中	-12896
恐怖主义的	-12897
扮演的角色	-12898
民主奋斗党	-12899
油国组织的	-12900
流行性感冒	-12901
的最后期限	-12902
阿富汗境内	-12903
首都巴格达	-12904
亿四千万美元	-12905
在美国公开赛	-12906
执政协商会议	-12907
08	-12908
▁且	-12909
▁帕	-12910
▁第	-12911
▁韦	-12912
一三	-12913
不自	-12914
两轮	-12915
主人	-12916
人家	-12917
以待	-12918
共谋	-12919
兼任	-12920
冠状	-12921
准确	-12922
加罗	-12923
勇夺	-12924
厂房	-12925
压迫	-12926
名义	-12927
圆形	-12928
圣火	-12929
外商	-12930
尔在	-12931
庞德	-12932
座车	-12933
影集	-12934
微笑	-12935
恶性	-12936
或在	-12937
战胜	-12938
房租	-12939
扰乱	-12940
把它	-12941
拜访	-12942
援手	-12943
摘金	-12944
收场	-12945
整理	-12946
暴民	-12947
有七	-12948
格说	-12949
民事	-12950
泡沫	-12951
派克	-12952
海盗	-12953
漫长	-12954
猪只	-12955
猪肉	-12956
票价	-12957
福祉	-12958
累累	-12959
约在	-12960
绿党	-12961
网页	-12962
而将	-12963
肠癌	-12964
胎儿	-12965
能为	-12966
自信	-12967
舒玛	-12968
虚拟	-12969
贯彻	-12970
载明	-12971
道理	-12972
阿必	-12973
领取	-12974
颠覆	-12975
▁--	-12976
▁企业	-12977
▁本周	-12978
一点六	-12979
七十杆	-12980
中美洲	-12981
为全球	-12982
主演的	-12983
五百人	-12984
他是在	-12985
以防范	-12986
传染给	-12987
及一名	-12988
另一场	-12989
史蒂芬	-12990
各国的	-12991
向警方	-12992
复杂的	-12993
奥克兰	-12994
官员和	-12995
对欧洲	-12996
对此一	-12997
已久的	-12998
布希统	-12999
布希说	-13000
库契马	-13001
所得税	-13002
所领导	-13003
斯塔尼	-13004
普罗迪	-13005
暴露在	-13006
有三名	-13007
此案的	-13008
温和派	-13009
照相机	-13010
的想法	-13011
的父母	-13012
的身分	-13013
皇太子	-13014
目前还	-13015
第一百	-13016
被判刑	-13017
赵紫阳	-13018
违反了	-13019
遭攻击	-13020
那加福	-13021
都已经	-13022
预定于	-13023
▁爱尔兰	-13024
▁葡萄牙	-13025
▁费德瑞	-13026
上午九时	-13027
六十八杆	-13028
化学物质	-13029
印尼政府	-13030
后来居上	-13031
四月一日	-13032
在温布顿	-13033
基尔库克	-13034
官方统计	-13035
成为一个	-13036
成为美国	-13037
抗议民众	-13038
搜狐科技	-13039
政治庇护	-13040
检查人员	-13041
胡志明市	-13042
金融风暴	-13043
顾问公司	-13044
一九八一年	-13045
今天在一项	-13046
十一月七日	-13047
奥斯卡最佳	-13048
布仑特原油	-13049
演说中表示	-13050
的行动电话	-13051
伊凡尼塞维奇	-13052
禁止核子扩散	-13053
中东和平路线图	-13054
印度和巴基斯坦	-13055
布宜诺斯艾利斯	-13056
美国联邦调查局	-13057
野生动物基金会	-13058
75	-13059
▁经	-13060
▁裴	-13061
一共	-13062
一心	-13063
一股	-13064
不等	-13065
中锋	-13066
丹佛	-13067
九洞	-13068
也使	-13069
亲属	-13070
估算	-13071
停摆	-13072
先决	-13073
出马	-13074
击倒	-13075
动身	-13076
助使	-13077
升到	-13078
华南	-13079
卡德	-13080
却不	-13081
变革	-13082
善意	-13083
四成	-13084
圣母	-13085
塔尼	-13086
增添	-13087
大师	-13088
套房	-13089
她对	-13090
安葬	-13091
宽松	-13092
寄给	-13093
富翁	-13094
小镇	-13095
少将	-13096
尾声	-13097
席丹	-13098
应由	-13099
当今	-13100
成龙	-13101
抛售	-13102
报的	-13103
抵触	-13104
挂牌	-13105
挤进	-13106
据悉	-13107
放下	-13108
时分	-13109
是指	-13110
景点	-13111
有何	-13112
有六	-13113
歌星	-13114
此后	-13115
气势	-13116
流产	-13117
海中	-13118
热浪	-13119
焚毁	-13120
狂欢	-13121
的李	-13122
相应	-13123
离境	-13124
私立	-13125
科夫	-13126
称许	-13127
穿戴	-13128
类股	-13129
精力	-13130
维兹	-13131
缩水	-13132
美好	-13133
肃贪	-13134
脚踏	-13135
苦难	-13136
蛋糕	-13137
行贿	-13138
设有	-13139
访客	-13140
贝洛	-13141
败选	-13142
辣斯	-13143
连线	-13144
造船	-13145
那次	-13146
▁之后	-13147
▁卡斯	-13148
▁周日	-13149
▁法庭	-13150
一年多	-13151
不过在	-13152
也发现	-13153
传染性	-13154
佛克斯	-13155
债权人	-13156
做什么	-13157
八月间	-13158
几年来	-13159
出不穷	-13160
口可乐	-13161
和澳洲	-13162
四百万	-13163
国营的	-13164
圣路易	-13165
在雪梨	-13166
大海啸	-13167
岁男子	-13168
已接受	-13169
并且说	-13170
并强调	-13171
幸存者	-13172
当前的	-13173
摄影师	-13174
是造成	-13175
是针对	-13176
暴风雪	-13177
曼表示	-13178
曾经在	-13179
有什么	-13180
杉山爱	-13181
正寻求	-13182
现阶段	-13183
的一半	-13184
的一环	-13185
的主因	-13186
的家庭	-13187
的服务	-13188
的资金	-13189
的这个	-13190
相当的	-13191
研究的	-13192
老年人	-13193
而无法	-13194
而美国	-13195
至九月	-13196
舒玛赫	-13197
被称为	-13198
被起诉	-13199
这是个	-13200
都无法	-13201
采取了	-13202
驻北京	-13203
▁苏格兰	-13204
两个星期	-13205
全国人民	-13206
十五日在	-13207
发展组织	-13208
可能无法	-13209
圣彼得堡	-13210
坎城影展	-13211
外交人员	-13212
大英国协	-13213
如果没有	-13214
官员透露	-13215
层出不穷	-13216
成员国的	-13217
提出辞呈	-13218
民主改革	-13219
消费支出	-13220
的以色列	-13221
相当大的	-13222
第四季的	-13223
访问平壤	-13224
这个数字	-13225
进行讨论	-13226
领先地位	-13227
高级主管	-13228
▁世界银行	-13229
三十一岁的	-13230
与阿拉法特	-13231
伊拉克北部	-13232
卡罗来纳州	-13233
帕金森氏症	-13234
引起争议的	-13235
罗马天主教	-13236
美国的经济	-13237
这起爆炸案	-13238
▁不愿具名的	-13239
▁到目前为止	-13240
于一九九八年	-13241
欧洲中央银行	-13242
民主党参议员	-13243
自由亚齐运动	-13244
▁白宫发言人麦克雷兰	-13245
▁昆	-13246
下半	-13247
不懈	-13248
为她	-13249
代言	-13250
众所	-13251
作好	-13252
作曲	-13253
佳的	-13254
充份	-13255
克洛	-13256
全身	-13257
农地	-13258
凯特	-13259
利息	-13260
十大	-13261
变种	-13262
号称	-13263
听审	-13264
品的	-13265
因其	-13266
国大	-13267
在在	-13268
坦帕	-13269
坦白	-13270
复发	-13271
天灾	-13272
官僚	-13273
宪章	-13274
展延	-13275
山谷	-13276
巴洛	-13277
强人	-13278
悬赏	-13279
想起	-13280
户外	-13281
所长	-13282
指为	-13283
放心	-13284
效益	-13285
新车	-13286
新鲜	-13287
是前	-13288
标签	-13289
格丽	-13290
模拟	-13291
浮动	-13292
渠道	-13293
爆冷	-13294
甲组	-13295
电缆	-13296
神奇	-13297
竞技	-13298
肺部	-13299
背负	-13300
背部	-13301
莫夫	-13302
菲南	-13303
葛莱	-13304
藉着	-13305
解体	-13306
赚进	-13307
跻身	-13308
身旁	-13309
过得	-13310
还能	-13311
适用	-13312
适逢	-13313
阿巴	-13314
零四	-13315
震荡	-13316
馀元	-13317
魏斯	-13318
黯淡	-13319
380	-13320
▁当年	-13321
▁当然	-13322
▁无论	-13323
▁最新	-13324
▁最终	-13325
▁网路	-13326
▁费雪	-13327
▁预计	-13328
与叛军	-13329
丧生的	-13330
为日本	-13331
他告诉	-13332
以来即	-13333
做生意	-13334
先进的	-13335
击败了	-13336
刊登在	-13337
叶尔勤	-13338
和两名	-13339
将宣布	-13340
将要求	-13341
就必须	-13342
巴布亚	-13343
并发症	-13344
当局在	-13345
打破了	-13346
挑战者	-13347
推动的	-13348
是什么	-13349
有一种	-13350
没什么	-13351
炼油厂	-13352
瓦纳兹	-13353
生产国	-13354
的主张	-13355
的人质	-13356
的过程	-13357
看不出	-13358
维勒班	-13359
罗宾逊	-13360
被绑架	-13361
警方的	-13362
认为是	-13363
选出的	-13364
部长们	-13365
首度在	-13366
▁乔治亚	-13367
▁该组织	-13368
下午一时	-13369
不断升高	-13370
主要因为	-13371
二十一名	-13372
五十岁的	-13373
今年以来	-13374
传奇人物	-13375
免疫系统	-13376
八国集团	-13377
六十七杆	-13378
六十九杆	-13379
六十岁的	-13380
包括两名	-13381
十二个月	-13382
发表一项	-13383
发表演讲	-13384
叛乱活动	-13385
可能高达	-13386
官员告诉	-13387
年度最佳	-13388
新闻简报	-13389
海岸防卫	-13390
白宫宝座	-13391
白金汉宫	-13392
的情形下	-13393
科夫斯基	-13394
约翰蓝侬	-13395
罪魁祸首	-13396
美国军事	-13397
这次会谈	-13398
逮捕行动	-13399
那个时候	-13400
▁美国今天	-13401
七十亿美元	-13402
二零零一年	-13403
人民共和国	-13404
伊拉克囚犯	-13405
攻击伊拉克	-13406
西尼罗病毒	-13407
▁美国参议院	-13408
▁麦克雷兰说	-13409
亿三千万美元	-13410
联合军事演习	-13411
▁美国财政部长	-13412
▁美国联邦调查局	-13413
伊拉克总统沙丹胡笙	-13414
▁国务院发言人包润石说	-13415
4,	-13416
▁汉	-13417
▁瑞	-13418
▁胡	-13419
一无	-13420
万计	-13421
两地	-13422
严苛	-13423
严词	-13424
中立	-13425
争霸	-13426
交保	-13427
交还	-13428
亲切	-13429
人犯	-13430
他于	-13431
以示	-13432
伊塔	-13433
会合	-13434
修好	-13435
停泊	-13436
分布	-13437
分散	-13438
分站	-13439
勃勃	-13440
南北	-13441
即时	-13442
双手	-13443
发育	-13444
句话	-13445
可观	-13446
司通	-13447
后被	-13448
四兆	-13449
圣经	-13450
培尔	-13451
士兰	-13452
多多	-13453
夺取	-13454
姊姊	-13455
家乐	-13456
家电	-13457
少校	-13458
尚有	-13459
居然	-13460
已久	-13461
带回	-13462
平面	-13463
开进	-13464
往后	-13465
性侵	-13466
总算	-13467
才刚	-13468
抗拒	-13469
担保	-13470
捕鱼	-13471
操控	-13472
散发	-13473
数额	-13474
斗士	-13475
无需	-13476
暂缓	-13477
有约	-13478
条文	-13479
消化	-13480
涉入	-13481
涨价	-13482
牙齿	-13483
狄恩	-13484
狱中	-13485
白血	-13486
看似	-13487
粉末	-13488
维利	-13489
罚锾	-13490
老公	-13491
脱颖	-13492
自制	-13493
航行	-13494
芳迪	-13495
行进	-13496
西区	-13497
路段	-13498
退役	-13499
遇难	-13500
问到	-13501
随便	-13502
集合	-13503
风潮	-13504
马达	-13505
驻韩	-13506
高呼	-13507
▁依据	-13508
▁医生	-13509
▁布雷	-13510
▁成为	-13511
▁比如	-13512
之后的	-13513
也不能	-13514
二十人	-13515
似乎已	-13516
六百名	-13517
冠军赛	-13518
出一个	-13519
创纪录	-13520
到今天	-13521
史考特	-13522
在越南	-13523
安哥拉	-13524
小孩子	-13525
已增至	-13526
已完成	-13527
巴双方	-13528
微生物	-13529
心血管	-13530
我喜欢	-13531
教宗的	-13532
数十年	-13533
数百人	-13534
是来自	-13535
有大约	-13536
正努力	-13537
比赛时	-13538
河南省	-13539
特斯拉	-13540
的力量	-13541
的女儿	-13542
的能源	-13543
的费用	-13544
的飞弹	-13545
第三代	-13546
第三天	-13547
纪录片	-13548
罗伯森	-13549
美巡赛	-13550
能够在	-13551
赔偿金	-13552
这次的	-13553
部电影	-13554
领先群	-13555
▁他们在	-13556
▁修威特	-13557
▁农业部	-13558
▁安理会	-13559
▁我认为	-13560
一万六千	-13561
五十万桶	-13562
公开市场	-13563
可能出现	-13564
合作组织	-13565
和联合国	-13566
国际安全	-13567
在十二月	-13568
在墨西哥	-13569
声明表示	-13570
就业市场	-13571
情势发展	-13572
感到满意	-13573
所以我们	-13574
报纸报导	-13575
无可避免	-13576
法塔组织	-13577
渡假胜地	-13578
爱德华兹	-13579
这项建议	-13580
迫切需要	-13581
马嘉柏皋	-13582
▁我们希望	-13583
▁搜狐娱乐	-13584
▁沃佛维茨	-13585
▁调查人员	-13586
一九七五年	-13587
两千万美元	-13588
八十亿美元	-13589
古茶拉底省	-13590
哈玛斯组织	-13591
在布鲁塞尔	-13592
攻击的目标	-13593
▁京华时报讯记者	-13594
,,	-13595
▁天	-13596
▁星	-13597
一季	-13598
一把	-13599
七位	-13600
举报	-13601
亚丁	-13602
人说	-13603
仓库	-13604
停在	-13605
停战	-13606
储油	-13607
光纤	-13608
免除	-13609
全程	-13610
兹曼	-13611
准则	-13612
列出	-13613
制订	-13614
加护	-13615
发林	-13616
国中	-13617
在未	-13618
基佛	-13619
外加	-13620
大将	-13621
夺标	-13622
安华	-13623
宝颜	-13624
尚待	-13625
居于	-13626
干涉	-13627
干的	-13628
必定	-13629
悲痛	-13630
房东	-13631
才有	-13632
抉择	-13633
提诺	-13634
新娘	-13635
既往	-13636
未婚	-13637
枪枝	-13638
欠缺	-13639
次官	-13640
止的	-13641
此人	-13642
死了	-13643
河北	-13644
洛姆	-13645
洛普	-13646
浏览	-13647
浩劫	-13648
海报	-13649
烟雾	-13650
牲口	-13651
登机	-13652
的罗	-13653
瞄准	-13654
破获	-13655
移送	-13656
缺少	-13657
而于	-13658
职工	-13659
肾脏	-13660
自焚	-13661
至关	-13662
艾克	-13663
蚊子	-13664
行使	-13665
野火	-13666
金刚	-13667
铁道	-13668
首战	-13669
▁三名	-13670
▁叛军	-13671
▁史卓	-13672
▁没有	-13673
▁金融	-13674
七个月	-13675
不满意	-13676
与世界	-13677
专注于	-13678
两千人	-13679
中国与	-13680
中部的	-13681
也包括	-13682
从美国	-13683
克瑞强	-13684
全球性	-13685
分钟时	-13686
十个月	-13687
十八个	-13688
只有在	-13689
告诉你	-13690
国内外	-13691
在某些	-13692
在目前	-13693
密苏里	-13694
将使得	-13695
布莱德	-13696
引发了	-13697
所以他	-13698
所在的	-13699
所属的	-13700
提高到	-13701
支援下	-13702
政权的	-13703
斋戒月	-13704
有关系	-13705
正面的	-13706
母公司	-13707
爆炸性	-13708
球员的	-13709
的交易	-13710
的反对	-13711
的另一	-13712
的年度	-13713
的特别	-13714
的限制	-13715
第一大	-13716
第四度	-13717
罕见的	-13718
被列为	-13719
超音速	-13720
转移到	-13721
这只是	-13722
进口额	-13723
都表示	-13724
里约热	-13725
面对面	-13726
▁科威特	-13727
一百万人	-13728
今天展开	-13729
候选人的	-13730
全世界最	-13731
全球暖化	-13732
公开露面	-13733
内阁阁员	-13734
卷土重来	-13735
可能已经	-13736
合格选民	-13737
回教团体	-13738
垃圾邮件	-13739
太空飞行	-13740
好战团体	-13741
对北韩的	-13742
数字显示	-13743
新加坡的	-13744
正式访问	-13745
直升机在	-13746
禁止进口	-13747
种族歧视	-13748
稍早表示	-13749
第三季的	-13750
第八种子	-13751
纪念仪式	-13752
表决结果	-13753
该地区的	-13754
该委员会	-13755
阿卡耶夫	-13756
附近地区	-13757
▁分析师说	-13758
▁欧布莱特	-13759
二十三岁的	-13760
其他国家的	-13761
工业化国家	-13762
广播公司的	-13763
总理霍华德	-13764
执行理事会	-13765
政府发言人	-13766
日本自卫队	-13767
的国家安全	-13768
第二号人物	-13769
▁阿布沙伊夫	-13770
人民协商会议	-13771
全球经济成长	-13772
加入世贸组织	-13773
回教好战份子	-13774
自由贸易协议	-13775
▁德国总理施若德	-13776
阿尔巴尼亚裔叛军	-13777
首脑欧萨玛宾拉登	-13778
49	-13779
6,	-13780
▁吕	-13781
▁把	-13782
▁查	-13783
▁遭	-13784
七次	-13785
主机	-13786
之谱	-13787
书籍	-13788
伦理	-13789
低价	-13790
体操	-13791
修女	-13792
光明	-13793
再起	-13794
加利	-13795
发改	-13796
君子	-13797
命名	-13798
和前	-13799
哈佛	-13800
商机	-13801
土制	-13802
坦雅	-13803
培训	-13804
塞拜	-13805
安乐	-13806
定于	-13807
帐篷	-13808
席的	-13809
帮派	-13810
弱点	-13811
影迷	-13812
得了	-13813
心中	-13814
所称	-13815
打消	-13816
拉说	-13817
拿出	-13818
摇摇	-13819
救治	-13820
斩获	-13821
施以	-13822
有趣	-13823
水位	-13824
法定	-13825
波里	-13826
游览	-13827
点名	-13828
烈士	-13829
特勤	-13830
狙击	-13831
现今	-13832
盐湖	-13833
研判	-13834
突变	-13835
筛检	-13836
筹措	-13837
米说	-13838
缓冲	-13839
美光	-13840
致癌	-13841
舞会	-13842
西比	-13843
要他	-13844
要将	-13845
解读	-13846
诚实	-13847
质询	-13848
赦免	-13849
辣妹	-13850
达致	-13851
送上	-13852
通道	-13853
难关	-13854
雅克	-13855
验证	-13856
高举	-13857
龃龉	-13858
300	-13859
▁东协	-13860
▁在这	-13861
▁电脑	-13862
▁非洲	-13863
上表示	-13864
东北方	-13865
为他们	-13866
为自己	-13867
也宣布	-13868
于美国	-13869
今年底	-13870
仍持续	-13871
传教士	-13872
但现在	-13873
公车站	-13874
动物的	-13875
单位的	-13876
受不了	-13877
和伊朗	-13878
和越南	-13879
四强赛	-13880
因涉及	-13881
坐公车	-13882
女朋友	-13883
对亚洲	-13884
将会是	-13885
已连续	-13886
巴拉圭	-13887
总理的	-13888
扬言将	-13889
报告的	-13890
新一代	-13891
是由于	-13892
是目前	-13893
曾警告	-13894
根据地	-13895
每天都	-13896
的争议	-13897
的影片	-13898
的标准	-13899
的病毒	-13900
的竞争	-13901
的高级	-13902
移交给	-13903
简单的	-13904
舒马赫	-13905
被要求	-13906
输油管	-13907
问题而	-13908
阿拉斯	-13909
▁事实上	-13910
▁南北韩	-13911
一九五年	-13912
严重关切	-13913
个会员国	-13914
中国官员	-13915
人权团体	-13916
他们相信	-13917
先决条件	-13918
八强赛中	-13919
南部地区	-13920
参众两院	-13921
号太空船	-13922
四十年来	-13923
国情咨文	-13924
国际贸易	-13925
在二一年	-13926
太空任务	-13927
引爆炸弹	-13928
技术人员	-13929
拒绝证实	-13930
改革计画	-13931
救援工作	-13932
普遍认为	-13933
核子计画	-13934
法国政府	-13935
法律行动	-13936
瓦砾堆中	-13937
罹患癌症	-13938
起火燃烧	-13939
足球协会	-13940
这是非常	-13941
这次事件	-13942
这项措施	-13943
邪恶轴心	-13944
▁佛莱谢说	-13945
▁阿米塔吉	-13946
一九八年代	-13947
一月二十日	-13948
二十八岁的	-13949
俄罗斯选手	-13950
六十亿美元	-13951
反对派领袖	-13952
发表演说时	-13953
智慧财产权	-13954
百分之十三	-13955
规模最大的	-13956
这个地区的	-13957
▁一九九八年	-13958
▁贝鲁斯柯尼	-13959
世界经济论坛	-13960
在一九九七年	-13961
消息人士透露	-13962
自杀攻击事件	-13963
飞弹防御计画	-13964
印度与巴基斯坦	-13965
▁南韩总统金大中	-13966
中国国家主席江泽民	-13967
▁-	-13968
▁市	-13969
▁湖	-13970
▁非	-13971
七八	-13972
万台	-13973
三四	-13974
三轮	-13975
上尉	-13976
与否	-13977
之势	-13978
付款	-13979
伊说	-13980
传球	-13981
信赖	-13982
务实	-13983
友善	-13984
双料	-13985
史塔	-13986
同比	-13987
后冠	-13988
后备	-13989
听众	-13990
品种	-13991
响应	-13992
哥大	-13993
哪些	-13994
场景	-13995
基改	-13996
基石	-13997
塔基	-13998
大事	-13999
她和	-14000
姐姐	-14001
客人	-14002
宣战	-14003
射门	-14004
巴赫	-14005
庄园	-14006
应在	-14007
康辛	-14008
征收	-14009
性和	-14010
我家	-14011
拳赛	-14012
政务	-14013
断定	-14014
日经	-14015
昨夜	-14016
曾遭	-14017
杜雀	-14018
欢度	-14019
武警	-14020
沃芬	-14021
河南	-14022
浪漫	-14023
海绵	-14024
深度	-14025
牵涉	-14026
现况	-14027
珍贵	-14028
瑞说	-14029
瓦兹	-14030
的首	-14031
监察	-14032
确立	-14033
称王	-14034
空运	-14035
能与	-14036
自家	-14037
虚弱	-14038
衰竭	-14039
赫尔	-14040
足坛	-14041
连署	-14042
逊王	-14043
那亚	-14044
鉴定	-14045
银河	-14046
错过	-14047
静脉	-14048
▁九月	-14049
▁英文	-14050
不动产	-14051
不舒服	-14052
不认为	-14053
世界最	-14054
乔斯班	-14055
二十多	-14056
产业省	-14057
以阻止	-14058
伊波拉	-14059
先前的	-14060
全都是	-14061
准备好	-14062
减少到	-14063
几天内	-14064
卡西亚	-14065
只不过	-14066
塞拜然	-14067
大卫营	-14068
太子港	-14069
夫表示	-14070
安德森	-14071
将开始	-14072
已确定	-14073
忧郁症	-14074
新宪法	-14075
是他的	-14076
曾担任	-14077
格罗庞	-14078
水资源	-14079
泰国的	-14080
生活在	-14081
田纳西	-14082
留下的	-14083
的事业	-14084
的动物	-14085
的画面	-14086
的行程	-14087
的进口	-14088
紧张的	-14089
警官说	-14090
贾克逊	-14091
这样做	-14092
镇附近	-14093
▁反对党	-14094
▁美国在	-14095
三星电子	-14096
中东危机	-14097
以巴冲突	-14098
保护措施	-14099
公共电台	-14100
冠军奖杯	-14101
十五分钟	-14102
南威尔斯	-14103
参加比赛	-14104
完全没有	-14105
将于本月	-14106
工作小组	-14107
已经造成	-14108
得不得了	-14109
所引发的	-14110
拉脱维亚	-14111
数以万计	-14112
日本国民	-14113
每个人都	-14114
海峡时报	-14115
烟草公司	-14116
犯罪行为	-14117
电视节目	-14118
的时候了	-14119
粮农组织	-14120
紧急事务	-14121
网路服务	-14122
美国牛肉	-14123
脱颖而出	-14124
蒙上阴影	-14125
解决办法	-14126
进行研究	-14127
退出比赛	-14128
▁南韩政府	-14129
▁金融时报	-14130
▁麦克雷兰	-14131
一九九年代	-14132
九百万美元	-14133
二十四日在	-14134
二零零三年	-14135
今年第一季	-14136
卫生组织的	-14137
四十五岁的	-14138
市场占有率	-14139
总理温家宝	-14140
斯洛伐克的	-14141
▁华尔街日报	-14142
七比六七比四	-14143
女王伊丽莎白	-14144
美国国会议员	-14145
遭恐怖攻击事件	-14146
▁白宫发言人佛莱谢说	-14147
▁唐	-14148
▁长	-14149
一头	-14150
一本	-14151
一辈	-14152
下旬	-14153
丝特	-14154
两方	-14155
五岁	-14156
交代	-14157
亿至	-14158
他很	-14159
依靠	-14160
元旦	-14161
公益	-14162
关门	-14163
分居	-14164
分的	-14165
分行	-14166
刊物	-14167
则因	-14168
动态	-14169
勉强	-14170
升温	-14171
反制	-14172
吃了	-14173
合乎	-14174
吉说	-14175
命中	-14176
哈根	-14177
商用	-14178
围堵	-14179
地在	-14180
埋葬	-14181
声请	-14182
大象	-14183
孤儿	-14184
宁可	-14185
小岛	-14186
应有	-14187
情的	-14188
我还	-14189
才华	-14190
指令	-14191
援引	-14192
文说	-14193
斯图	-14194
曼尼	-14195
杆菌	-14196
杰伦	-14197
板球	-14198
柯恩	-14199
树木	-14200
步伐	-14201
源自	-14202
漫画	-14203
热身	-14204
独自	-14205
琪士	-14206
男网	-14207
疏失	-14208
着重	-14209
移往	-14210
稳固	-14211
老鹰	-14212
肺癌	-14213
落的	-14214
行凶	-14215
表扬	-14216
装有	-14217
试点	-14218
该州	-14219
说他	-14220
谢尔	-14221
身高	-14222
达阵	-14223
过重	-14224
这点	-14225
迷你	-14226
遵循	-14227
▁中央	-14228
▁女子	-14229
▁并且	-14230
三百一	-14231
也使得	-14232
二十个	-14233
二千名	-14234
仍然是	-14235
他预期	-14236
任金兹	-14237
克斯说	-14238
化妆品	-14239
十七岁	-14240
参加在	-14241
发改委	-14242
受重伤	-14243
史蒂文	-14244
国民兵	-14245
在没有	-14246
奋进号	-14247
对美元	-14248
将访问	-14249
山区的	-14250
已呼吁	-14251
希布伦	-14252
形式的	-14253
我自己	-14254
捷克的	-14255
旅行的	-14256
明尼苏	-14257
曾试图	-14258
法国和	-14259
法国队	-14260
爆裂物	-14261
电视机	-14262
的商业	-14263
的患者	-14264
的规模	-14265
的重点	-14266
省省长	-14267
石油的	-14268
突击队	-14269
第三位	-14270
终场前	-14271
能获得	-14272
至今仍	-14273
虽然在	-14274
被送到	-14275
身上的	-14276
达希尔	-14277
这两位	-14278
适用于	-14279
▁查维斯	-14280
▁财务省	-14281
一家医院	-14282
五千五百	-14283
以三比六	-14284
债权银行	-14285
全球最大	-14286
六十六杆	-14287
击败对手	-14288
去年八月	-14289
合资企业	-14290
呼吁民众	-14291
在喀布尔	-14292
场比赛中	-14293
基于安全	-14294
头号种子	-14295
如果他们	-14296
已经结束	-14297
我们一直	-14298
我们呼吁	-14299
改革措施	-14300
昨天下午	-14301
核子设施	-14302
波罗的海	-14303
濒临绝种	-14304
犹太屯垦	-14305
美军士兵	-14306
足球联赛	-14307
车臣叛军	-14308
这可能是	-14309
进行这项	-14310
遭到破坏	-14311
▁他指的是	-14312
万美元奖金	-14313
伊拉克重建	-14314
在加萨走廊	-14315
在阿富汗的	-14316
感染爱滋病	-14317
接受法新社	-14318
日本和南韩	-14319
联邦参议员	-14320
雅罗育总统	-14321
黛安娜王妃	-14322
▁克莉丝特丝	-14323
对伊拉克开战	-14324
成长了百分之	-14325
支持恐怖主义	-14326
日报今天报导	-14327
百分之三十五	-14328
百分之零点一	-14329
首席经济学家	-14330
▁国际传真社引述	-14331
与俄罗斯总统蒲亭	-14332
巴基斯坦总统穆夏拉夫	-14333
▁刚	-14334
▁崔	-14335
一贯	-14336
不敌	-14337
不符	-14338
主使	-14339
之力	-14340
二二	-14341
以求	-14342
任教	-14343
会让	-14344
侯格	-14345
分支	-14346
删减	-14347
博览	-14348
卡瑞	-14349
卫报	-14350
受益	-14351
受邀	-14352
古斯	-14353
只想	-14354
吞噬	-14355
回顾	-14356
国库	-14357
国语	-14358
圆满	-14359
城的	-14360
声援	-14361
奥里	-14362
威而	-14363
子和	-14364
字眼	-14365
宫泽	-14366
将此	-14367
小平	-14368
巡弋	-14369
度纳	-14370
开辟	-14371
德仁	-14372
总局	-14373
房产	-14374
所受	-14375
投诚	-14376
昭彰	-14377
暑假	-14378
暴雨	-14379
有钱	-14380
杜马	-14381
柏吾	-14382
桃园	-14383
模糊	-14384
每位	-14385
洪灾	-14386
涌进	-14387
深切	-14388
清晰	-14389
激起	-14390
炮轰	-14391
犹豫	-14392
班迪	-14393
生殖	-14394
的十	-14395
石头	-14396
社长	-14397
简讯	-14398
脚踝	-14399
舒缓	-14400
船长	-14401
若是	-14402
虽未	-14403
衬衫	-14404
说出	-14405
较多	-14406
返乡	-14407
还得	-14408
这番	-14409
违禁	-14410
道贺	-14411
重获	-14412
马龙	-14413
鼓吹	-14414
...	-14415
▁这支	-14416
七美元	-14417
三十分	-14418
主要在	-14419
之一是	-14420
也警告	-14421
五千人	-14422
使他们	-14423
前表示	-14424
千禧年	-14425
在比赛	-14426
在罗马	-14427
失踪者	-14428
好好地	-14429
将减少	-14430
将展开	-14431
尚比亚	-14432
巡逻艇	-14433
巴山约	-14434
并获得	-14435
我一直	-14436
我们仍	-14437
我感到	-14438
所有人	-14439
教科文	-14440
无人机	-14441
无条件	-14442
是一大	-14443
曼哈坦	-14444
每个月	-14445
比预期	-14446
汤玛斯	-14447
病患的	-14448
的困境	-14449
的恐怖	-14450
的案件	-14451
的空间	-14452
的金融	-14453
的预测	-14454
的预算	-14455
盐湖城	-14456
第十六	-14457
纪念碑	-14458
自己是	-14459
菁英赛	-14460
解除对	-14461
警察和	-14462
证监会	-14463
该机构	-14464
起诉书	-14465
轨道上	-14466
较大的	-14467
达拉斯	-14468
这是自	-14469
都柏林	-14470
▁他认为	-14471
▁众议院	-14472
从业集团	-14473
他们将在	-14474
他的政府	-14475
南亚海啸	-14476
告诉我们	-14477
喀什米尔	-14478
国内需求	-14479
在马尼拉	-14480
复制人类	-14481
大部分是	-14482
将于明年	-14483
就职典礼	-14484
尼加拉瓜	-14485
希望借此	-14486
振兴经济	-14487
数以百万	-14488
晋级四强	-14489
游击队的	-14490
目前已有	-14491
石油价格	-14492
粮食计画	-14493
红土球场	-14494
美国人的	-14495
考古学家	-14496
航太总署	-14497
营养不良	-14498
观察组织	-14499
这项报告	-14500
这项条约	-14501
道琼工业	-14502
部长会议	-14503
里约热内	-14504
重新考虑	-14505
马里兰州	-14506
龚萨雷兹	-14507
举行的会谈	-14508
和欧洲联盟	-14509
多科夫斯基	-14510
民主党议员	-14511
管理委员会	-14512
警方发言人	-14513
一名巴勒斯坦	-14514
巴勒斯坦人民	-14515
事务助理国务卿	-14516
▁美国总统柯林顿	-14517
▁石油输出国家组织	-14518
▁白宫发言人麦克雷兰说	-14519
77	-14520
▁单	-14521
▁未	-14522
▁潘	-14523
▁称	-14524
」,	-14525
三成	-14526
上将	-14527
东海	-14528
中级	-14529
交接	-14530
交界	-14531
仅在	-14532
仅能	-14533
仓促	-14534
以东	-14535
住处	-14536
关怀	-14537
冰河	-14538
冲走	-14539
出资	-14540
分为	-14541
创伤	-14542
力普	-14543
叛变	-14544
史提	-14545
合组	-14546
咨询	-14547
哺乳	-14548
在九	-14549
墓园	-14550
大刀	-14551
奖章	-14552
奶奶	-14553
子上	-14554
容纳	-14555
对比	-14556
将因	-14557
就将	-14558
局部	-14559
岗位	-14560
布局	-14561
幼童	-14562
建功	-14563
录制	-14564
得过	-14565
性能	-14566
您们	-14567
手上	-14568
折扣	-14569
敬意	-14570
斯利	-14571
旗鼓	-14572
无霸	-14573
晚报	-14574
普查	-14575
普鲁	-14576
有空	-14577
核发	-14578
梅铎	-14579
水患	-14580
派员	-14581
浮现	-14582
深表	-14583
溺毙	-14584
激素	-14585
火警	-14586
热爱	-14587
爆竹	-14588
版权	-14589
特任	-14590
甲骨	-14591
皮书	-14592
站上	-14593
粉丝	-14594
纪律	-14595
缺点	-14596
罚球	-14597
联想	-14598
联调	-14599
聚会	-14600
般的	-14601
裁武	-14602
警政	-14603
讽刺	-14604
诉状	-14605
误解	-14606
诸塞	-14607
赫恩	-14608
走高	-14609
跟她	-14610
车厂	-14611
转为	-14612
达兰	-14613
进帐	-14614
远远	-14615
配角	-14616
问卷	-14617
降温	-14618
随机	-14619
零八	-14620
骚乱	-14621
高地	-14622
麻州	-14623
▁哈里	-14624
▁她的	-14625
▁海珊	-14626
▁男子	-14627
一直未	-14628
七百名	-14629
不论是	-14630
两周内	-14631
中受伤	-14632
主席的	-14633
也因此	-14634
人士的	-14635
任天堂	-14636
但最后	-14637
佘契尔	-14638
六月底	-14639
则报导	-14640
十万名	-14641
十九岁	-14642
十二岁	-14643
危险性	-14644
及日本	-14645
只表示	-14646
各政党	-14647
和台湾	-14648
和鲁岛	-14649
喷射机	-14650
在他们	-14651
在四月	-14652
在明天	-14653
在第二	-14654
基本法	-14655
基本面	-14656
多万人	-14657
大法官	-14658
大赛中	-14659
奎斯特	-14660
她表示	-14661
就是在	-14662
尽一切	-14663
并指控	-14664
开始时	-14665
当时他	-14666
总公司	-14667
总统巴	-14668
患者的	-14669
扩大的	-14670
旅行社	-14671
更容易	-14672
有一次	-14673
极右派	-14674
栋建筑	-14675
棕榈滩	-14676
演说时	-14677
甲骨文	-14678
的班机	-14679
的财务	-14680
而导致	-14681
联盟党	-14682
舞台上	-14683
莉莎白	-14684
被击毙	-14685
被问及	-14686
走下坡	-14687
运动场	-14688
连锁店	-14689
金额达	-14690
银行业	-14691
集会时	-14692
高血压	-14693
▁利比亚	-14694
▁哈玛斯	-14695
一亿四千	-14696
三千三百	-14697
上午十时	-14698
专家小组	-14699
亚美尼亚	-14700
今天晚间	-14701
作出决定	-14702
内阁部长	-14703
厚生劳动	-14704
发展计划	-14705
回教世界	-14706
因为这些	-14707
大国家党	-14708
宗教自由	-14709
恶名昭彰	-14710
我们准备	-14711
战争期间	-14712
所有国家	-14713
揭开序幕	-14714
最后一站	-14715
最后一轮	-14716
枪击事件	-14717
没有必要	-14718
生活方式	-14719
科技公司	-14720
经济活动	-14721
联赛冠军	-14722
谢瓦纳兹	-14723
过去一年	-14724
过渡政府	-14725
这项发现	-14726
这项消息	-14727
里兹联队	-14728
陷入困境	-14729
鲁塞斯基	-14730
▁他们表示	-14731
▁澳大利亚	-14732
▁这项协议	-14733
一九六七年	-14734
压倒性胜利	-14735
多数党领袖	-14736
总统卢武铉	-14737
的世界纪录	-14738
的百分之五	-14739
的话报导说	-14740
的辩护律师	-14741
科罗拉多州	-14742
美军指挥官	-14743
在法国公开赛	-14744
奥斯卡金像奖	-14745
击出低于标准杆	-14746
诺贝尔和平奖得主	-14747
▁内	-14748
▁塔	-14749
▁黎	-14750
一是	-14751
一桩	-14752
下车	-14753
不平	-14754
不悦	-14755
不清	-14756
世代	-14757
主政	-14758
互不	-14759
五亿	-14760
亟需	-14761
什图	-14762
供油	-14763
先遣	-14764
全能	-14765
养鸡	-14766
几近	-14767
则被	-14768
剧情	-14769
助手	-14770
劳资	-14771
南美	-14772
叙述	-14773
古柯	-14774
均为	-14775
增为	-14776
奉献	-14777
对着	-14778
就绪	-14779
布洛	-14780
带原	-14781
年长	-14782
幸好	-14783
强度	-14784
得的	-14785
忙碌	-14786
或缺	-14787
执勤	-14788
批判	-14789
拍落	-14790
新建	-14791
旅程	-14792
无所	-14793
日皇	-14794
时光	-14795
是的	-14796
更能	-14797
有十	-14798
杆数	-14799
格尔	-14800
武汉	-14801
比前	-14802
汉诺	-14803
法治	-14804
消退	-14805
渲染	-14806
游乐	-14807
物体	-14808
环节	-14809
的六	-14810
的无	-14811
的车	-14812
立方	-14813
米尼	-14814
类型	-14815
精密	-14816
终将	-14817
给她	-14818
脚下	-14819
腿部	-14820
舞厅	-14821
草地	-14822
荣幸	-14823
获知	-14824
血栓	-14825
行情	-14826
规章	-14827
货机	-14828
选拔	-14829
银幕	-14830
降价	-14831
霍夫	-14832
面包	-14833
顺子	-14834
驻日	-14835
高昂	-14836
鲁兹	-14837
▁相关	-14838
▁预定	-14839
一直到	-14840
不好的	-14841
两千零	-14842
个小时	-14843
中获得	-14844
也不是	-14845
伤害到	-14846
做的事	-14847
关键性	-14848
划时代	-14849
创新高	-14850
加油站	-14851
只小鸟	-14852
同意让	-14853
同时在	-14854
哈瓦那	-14855
喀麦隆	-14856
四小时	-14857
在政治	-14858
大约是	-14859
居住的	-14860
希特勒	-14861
当局将	-14862
很漂亮	-14863
德国人	-14864
感恩节	-14865
成年人	-14866
我必须	-14867
扩大到	-14868
接班人	-14869
接触到	-14870
敢死队	-14871
无法在	-14872
曾两度	-14873
有责任	-14874
此一来	-14875
热那亚	-14876
的决心	-14877
的团体	-14878
的打击	-14879
的水准	-14880
的病患	-14881
的联合	-14882
的记者	-14883
称之为	-14884
第五名	-14885
紧接着	-14886
约三百	-14887
罗培兹	-14888
葛拉芙	-14889
警方与	-14890
贫穷的	-14891
这三名	-14892
逮捕令	-14893
▁今天在	-14894
▁泰晤士	-14895
▁这是自	-14896
人士指出	-14897
仁慕尼黑	-14898
今天稍晚	-14899
分割手术	-14900
前往美国	-14901
加护病房	-14902
十七岁的	-14903
国际组织	-14904
妮可基嫚	-14905
宣布辞职	-14906
德国选手	-14907
我们并未	-14908
携手合作	-14909
新泽西州	-14910
欧元地区	-14911
炸弹爆炸	-14912
特任大臣	-14913
的义大利	-14914
的候选人	-14915
石油产量	-14916
罹难人数	-14917
美元奖金	-14918
访问美国	-14919
财务大臣	-14920
财政大臣	-14921
资本市场	-14922
这方面的	-14923
违反人权	-14924
金正日在	-14925
防范措施	-14926
高峰会上	-14927
▁不过他说	-14928
▁北方联盟	-14929
一九八二年	-14930
为期两天的	-14931
为百分之二	-14932
人士的话说	-14933
分析家认为	-14934
房地产市场	-14935
百分之十八	-14936
百分之十六	-14937
的百分之三	-14938
的百分之二	-14939
菲律宾南部	-14940
迫击炮攻击	-14941
国际恐怖主义	-14942
外长伊凡诺夫	-14943
署长艾巴拉迪	-14944
北韩领袖金正日	-14945
美国中央情报局	-14946
▁巴勒斯坦领袖阿拉法特	-14947
▁图	-14948
▁女	-14949
▁水	-14950
▁齐	-14951
一方	-14952
一看	-14953
三零	-14954
上年	-14955
与新	-14956
之子	-14957
五大	-14958
休旅	-14959
佐野	-14960
佛朗	-14961
例外	-14962
供电	-14963
凯莉	-14964
分开	-14965
分隔	-14966
创设	-14967
前在	-14968
动画	-14969
卵子	-14970
卸下	-14971
厕所	-14972
反叛	-14973
发达	-14974
喷洒	-14975
围绕	-14976
国小	-14977
在北	-14978
在外	-14979
地块	-14980
孕妇	-14981
库兹	-14982
应可	-14983
德尔	-14984
愿景	-14985
戒烟	-14986
所苦	-14987
打的	-14988
抱着	-14989
拉萨	-14990
捐出	-14991
摆平	-14992
文物	-14993
断裂	-14994
斯和	-14995
正十	-14996
殊荣	-14997
毒素	-14998
泰铢	-14999
海水	-15000
海洛	-15001
潜入	-15002
炮击	-15003
电线	-15004
疲惫	-15005
登基	-15006
的沙	-15007
眼光	-15008
石化	-15009
精子	-15010
纤维	-15011
给付	-15012
罗曼	-15013
船舰	-15014
要看	-15015
要素	-15016
认证	-15017
设限	-15018
谷底	-15019
路的	-15020
车主	-15021
近郊	-15022
这三	-15023
选美	-15024
重型	-15025
野蛮	-15026
风云	-15027
马来	-15028
高价	-15029
▁不少	-15030
▁原本	-15031
▁大陆	-15032
▁已经	-15033
▁新的	-15034
东南方	-15035
乘客和	-15036
五十年	-15037
亚马逊	-15038
交易员	-15039
他将会	-15040
但尚未	-15041
你们的	-15042
公司与	-15043
六十万	-15044
几乎是	-15045
出生于	-15046
务必要	-15047
占全球	-15048
反对者	-15049
发现有	-15050
可能于	-15051
可能将	-15052
向中国	-15053
因为她	-15054
在此次	-15055
型客机	-15056
威胁到	-15057
对人类	-15058
将于二	-15059
将派遣	-15060
幕僚长	-15061
废弃物	-15062
总书记	-15063
总理艾	-15064
扳回一	-15065
斯特丹	-15066
是可以	-15067
是我的	-15068
更有效	-15069
杜雀娃	-15070
检查站	-15071
派出所	-15072
犯下的	-15073
生育率	-15074
的两倍	-15075
的人们	-15076
的停火	-15077
的天气	-15078
的成果	-15079
的案例	-15080
的治疗	-15081
的衣服	-15082
的部份	-15083
的首席	-15084
稍早在	-15085
第一步	-15086
而丧生	-15087
自杀式	-15088
舒特勒	-15089
被美国	-15090
要求在	-15091
计划将	-15092
谈话中	-15093
这么多	-15094
▁在这项	-15095
▁我知道	-15096
▁这两个	-15097
一亿美元	-15098
七十一杆	-15099
两千三百	-15100
五十公尺	-15101
即将来临	-15102
参加一项	-15103
夺得冠军	-15104
实况转播	-15105
宣誓就任	-15106
密西根州	-15107
居高不下	-15108
开始进行	-15109
提出抗议	-15110
摩托罗拉	-15111
本周稍后	-15112
正在研究	-15113
武装份子	-15114
电视转播	-15115
的原因是	-15116
的话指出	-15117
继续努力	-15118
美国支持	-15119
联军部队	-15120
证券交易	-15121
超级市场	-15122
这项指控	-15123
造成严重	-15124
阿富汗人	-15125
人民解放军	-15126
今天警告说	-15127
干细胞研究	-15128
最大规模的	-15129
经济不景气	-15130
美国侦察机	-15131
记者会表示	-15132
副发言人艾瑞	-15133
发现号太空梭	-15134
在记者会中说	-15135
民主反对联盟	-15136
百分之三十三	-15137
飞弹防御计划	-15138
▁日本经济新闻说	-15139
7,	-15140
▁乌	-15141
▁何	-15142
▁石	-15143
一空	-15144
不详	-15145
东源	-15146
丢掉	-15147
两处	-15148
两支	-15149
个案	-15150
也正	-15151
争辩	-15152
互信	-15153
人将	-15154
侦查	-15155
信孝	-15156
党籍	-15157
兰经	-15158
兹尼	-15159
出门	-15160
即在	-15161
厨房	-15162
台海	-15163
吉祥	-15164
哈希	-15165
哥本	-15166
商场	-15167
外围	-15168
存底	-15169
孟年	-15170
安曼	-15171
寺庙	-15172
封杀	-15173
将让	-15174
布条	-15175
并指	-15176
弟第	-15177
恶意	-15178
悲伤	-15179
拉潘	-15180
捕捉	-15181
损及	-15182
推断	-15183
提克	-15184
时会	-15185
更快	-15186
有着	-15187
机动	-15188
校方	-15189
欧美	-15190
水泥	-15191
波湾	-15192
烟火	-15193
猩猩	-15194
球衣	-15195
的约	-15196
盘据	-15197
盼望	-15198
知悉	-15199
破解	-15200
示范	-15201
秒钟	-15202
穆沙	-15203
穿梭	-15204
管线	-15205
红雀	-15206
美食	-15207
者和	-15208
莎拉	-15209
落地	-15210
要去	-15211
警示	-15212
贾拉	-15213
贿款	-15214
超前	-15215
踢球	-15216
这宗	-15217
迫性	-15218
遥控	-15219
都兹	-15220
镜报	-15221
闭门	-15222
防毒	-15223
难免	-15224
难度	-15225
顿说	-15226
风力	-15227
鸡肉	-15228
麻萨	-15229
麻醉	-15230
黎各	-15231
黑暗	-15232
▁东芝	-15233
▁八月	-15234
▁其后	-15235
▁可以	-15236
▁按照	-15237
▁苏丹	-15238
▁迄今	-15239
▁通过	-15240
▁麦可	-15241
三比克	-15242
与政治	-15243
两天后	-15244
两百万	-15245
什么的	-15246
他准备	-15247
以对抗	-15248
任命案	-15249
几分钟	-15250
十五国	-15251
却没有	-15252
反映了	-15253
可说是	-15254
周年的	-15255
和安全	-15256
和欧盟	-15257
在三月	-15258
奥斯陆	-15259
好几个	-15260
安东尼	-15261
将受到	-15262
将有助	-15263
小规模	-15264
已承诺	-15265
已拒绝	-15266
布雷克	-15267
带来了	-15268
并提供	-15269
影响的	-15270
总统和	-15271
总额达	-15272
我们是	-15273
所说的	-15274
持有的	-15275
接受的	-15276
攀升至	-15277
有三十	-15278
本身的	-15279
柯利亚	-15280
癌细胞	-15281
的一架	-15282
的主嫌	-15283
的主权	-15284
的增加	-15285
的效果	-15286
的权力	-15287
的秘密	-15288
的评估	-15289
看好的	-15290
第四个	-15291
等方面	-15292
结构性	-15293
而成为	-15294
职人员	-15295
要如何	-15296
要求将	-15297
谈判中	-15298
近期内	-15299
这笔钱	-15300
都不会	-15301
集中营	-15302
领先者	-15303
麦卡尼	-15304
▁在英国	-15305
▁如果你	-15306
一般预料	-15307
三菱汽车	-15308
两国领袖	-15309
争议性的	-15310
二十公里	-15311
于此同时	-15312
今天正式	-15313
任何国家	-15314
健康状况	-15315
共产主义	-15316
军事法庭	-15317
出席这项	-15318
反托辣斯	-15319
可能遭到	-15320
哥本哈根	-15321
商界领袖	-15322
四十岁的	-15323
回教民兵	-15324
在二零一	-15325
在今天的	-15326
在日本的	-15327
威斯康辛	-15328
媒体记者	-15329
对我来说	-15330
将进一步	-15331
展开谈判	-15332
戒备森严	-15333
无法确定	-15334
是世界上	-15335
暴力活动	-15336
由联合国	-15337
电视频道	-15338
町村信孝	-15339
的会谈中	-15340
破产保护	-15341
社会福利	-15342
竭尽全力	-15343
继续维持	-15344
美国士兵	-15345
美国空军	-15346
英格兰队	-15347
获得通过	-15348
裔美国人	-15349
证券公司	-15350
这次地震	-15351
预料将在	-15352
麻萨诸塞	-15353
▁在伊拉克	-15354
▁美国海军	-15355
三十二岁的	-15356
世界各地的	-15357
二十九日在	-15358
今日美国报	-15359
即将卸任的	-15360
四十万美元	-15361
国防官员说	-15362
总统查维斯	-15363
民族解放军	-15364
百分之十七	-15365
里约热内卢	-15366
瑟琳娜威廉丝	-15367
福特汽车公司	-15368
阿诺史瓦辛格	-15369
巴勒斯坦自治区	-15370
保护野生动物基金会	-15371
▁毕	-15372
▁陶	-15373
一到	-15374
一连	-15375
七六	-15376
不讳	-15377
专机	-15378
两届	-15379
中弹	-15380
主控	-15381
也应	-15382
仅以	-15383
代号	-15384
以此	-15385
价钱	-15386
你会	-15387
你好	-15388
倾听	-15389
偏低	-15390
做事	-15391
全市	-15392
关押	-15393
其间	-15394
几名	-15395
凶嫌	-15396
出线	-15397
分成	-15398
制成	-15399
劝告	-15400
发病	-15401
受过	-15402
哥华	-15403
喀索	-15404
国债	-15405
多样	-15406
大关	-15407
大略	-15408
头子	-15409
奉令	-15410
妈吗	-15411
客运	-15412
就算	-15413
州市	-15414
布达	-15415
帕克	-15416
延揽	-15417
建言	-15418
形同	-15419
意向	-15420
我去	-15421
扬弃	-15422
措词	-15423
措辞	-15424
撙节	-15425
改写	-15426
无虞	-15427
时段	-15428
是继	-15429
有朝	-15430
林说	-15431
柏曼	-15432
案情	-15433
检体	-15434
歌剧	-15435
残忍	-15436
水道	-15437
江苏	-15438
注定	-15439
消弭	-15440
滋味	-15441
滨海	-15442
环比	-15443
瑞奇	-15444
申柯	-15445
界定	-15446
的死	-15447
稽核	-15448
突出	-15449
笔记	-15450
者中	-15451
腺癌	-15452
致电	-15453
航程	-15454
艾氏	-15455
荒谬	-15456
荷马	-15457
营销	-15458
落马	-15459
蜘蛛	-15460
装饰	-15461
要把	-15462
解救	-15463
谋和	-15464
败仗	-15465
赈灾	-15466
跌到	-15467
转捩	-15468
轰动	-15469
输入	-15470
远见	-15471
迟到	-15472
选前	-15473
通膨	-15474
都拉	-15475
重现	-15476
震动	-15477
韩森	-15478
首领	-15479
魁北	-15480
鹰派	-15481
麦考	-15482
▁以军	-15483
▁爆炸	-15484
▁稍后	-15485
不仅是	-15486
与澳洲	-15487
两百一	-15488
主办国	-15489
也遭到	-15490
二十岁	-15491
于七月	-15492
五分钟	-15493
今天仍	-15494
以加强	-15495
作最后	-15496
保持人	-15497
六百万	-15498
副局长	-15499
劳动节	-15500
化学品	-15501
十四人	-15502
和华府	-15503
四十年	-15504
四美元	-15505
地表示	-15506
大罢工	-15507
季节性	-15508
学中文	-15509
学生的	-15510
小时候	-15511
小行星	-15512
工会的	-15513
巨无霸	-15514
已导致	-15515
已接获	-15516
必须有	-15517
总统在	-15518
成交量	-15519
所提出	-15520
支持下	-15521
时间来	-15522
普什图	-15523
正十郎	-15524
正处于	-15525
此行的	-15526
毕业生	-15527
游泳池	-15528
狮子山	-15529
病人的	-15530
的新高	-15531
的电话	-15532
的组织	-15533
的身份	-15534
看电视	-15535
纽喀索	-15536
而来的	-15537
艺术家	-15538
葛罗斯	-15539
葛莱美	-15540
葡萄酒	-15541
行动是	-15542
被看好	-15543
该国的	-15544
较高的	-15545
这个月	-15546
那么多	-15547
郊区的	-15548
▁据美国	-15549
▁金正日	-15550
▁黎巴嫩	-15551
一万七千	-15552
与土耳其	-15553
世界领袖	-15554
两个小时	-15555
中央政府	-15556
中小企业	-15557
亚塞拜然	-15558
从事间谍	-15559
他们正在	-15560
健康问题	-15561
几个月来	-15562
刑事法庭	-15563
北韩核武	-15564
医院治疗	-15565
可能不会	-15566
各国代表	-15567
合作伙伴	-15568
同时表示	-15569
向前迈进	-15570
告诉他们	-15571
和义大利	-15572
外交努力	-15573
外籍人士	-15574
奥斯卡奖	-15575
对俄罗斯	-15576
川口顺子	-15577
市场需求	-15578
并且表示	-15579
建设性的	-15580
强烈抗议	-15581
恢复对话	-15582
我们将在	-15583
执行任务	-15584
新力公司	-15585
有关方面	-15586
格林威尔	-15587
爱沙尼亚	-15588
电影公司	-15589
百万美元	-15590
目前仍在	-15591
经济前景	-15592
航空总署	-15593
规模最大	-15594
言论自由	-15595
访问中说	-15596
负面影响	-15597
还有其他	-15598
造成两名	-15599
造成任何	-15600
遭到杀害	-15601
锦标赛中	-15602
▁最高法院	-15603
▁空中巴士	-15604
▁这名官员	-15605
一名发言人	-15606
三十七岁的	-15607
二十二日在	-15608
五千万美元	-15609
向记者表示	-15610
排名第一的	-15611
数以百万计	-15612
经常帐赤字	-15613
以低于标准杆	-15614
医院接受治疗	-15615
炸弹爆炸事件	-15616
百分之二十二	-15617
警方发言人说	-15618
总统米洛塞维奇	-15619
巴勒斯坦自治当局	-15620
▁教宗若望保禄二世	-15621
38	-15622
39	-15623
▁青	-15624
▁飞	-15625
一夜	-15626
一小	-15627
上千	-15628
上路	-15629
上项	-15630
不成	-15631
不通	-15632
专栏	-15633
业内	-15634
两具	-15635
中日	-15636
之上	-15637
九成	-15638
买到	-15639
交割	-15640
从前	-15641
从小	-15642
他因	-15643
但不	-15644
位居	-15645
兑换	-15646
全家	-15647
全盘	-15648
冗长	-15649
军中	-15650
军阀	-15651
几家	-15652
出乎	-15653
出货	-15654
切除	-15655
列斯	-15656
创意	-15657
功夫	-15658
动向	-15659
劳勃	-15660
勇往	-15661
化武	-15662
占地	-15663
卵巢	-15664
厘清	-15665
又是	-15666
反日	-15667
召唤	-15668
吉普	-15669
名额	-15670
后即	-15671
和二	-15672
哈伯	-15673
均衡	-15674
坚挺	-15675
堆积	-15676
增率	-15677
士官	-15678
士林	-15679
复元	-15680
头牛	-15681
安妮	-15682
定价	-15683
宝宝	-15684
宝贝	-15685
客观	-15686
将士	-15687
已无	-15688
巴姆	-15689
巴提	-15690
性别	-15691
感应	-15692
懂得	-15693
执意	-15694
扩充	-15695
抢得	-15696
拉提	-15697
放假	-15698
断绝	-15699
新药	-15700
晒出	-15701
期中	-15702
李文	-15703
枪械	-15704
染患	-15705
津贴	-15706
活塞	-15707
流浪	-15708
浪潮	-15709
添加	-15710
渺茫	-15711
爆出	-15712
片的	-15713
痊愈	-15714
的他	-15715
的原	-15716
的圣	-15717
监护	-15718
秒八	-15719
穆勒	-15720
穷人	-15721
突显	-15722
米苏	-15723
精准	-15724
约两	-15725
纯粹	-15726
练球	-15727
维生	-15728
缘故	-15729
缴械	-15730
美东	-15731
美女	-15732
肝脏	-15733
英超	-15734
莉娜	-15735
菲尔	-15736
行经	-15737
裁撤	-15738
该部	-15739
诺鲁	-15740
货品	-15741
赌场	-15742
赤棉	-15743
起在	-15744
跌落	-15745
路人	-15746
输球	-15747
远比	-15748
速水	-15749
造价	-15750
道夫	-15751
遴选	-15752
郝尔	-15753
钓鱼	-15754
颇有	-15755
馀额	-15756
首开	-15757
驻伊	-15758
高端	-15759
高音	-15760
150	-15761
▁上月	-15762
▁会议	-15763
▁初步	-15764
▁名列	-15765
▁大宇	-15766
▁时事	-15767
▁贝克	-15768
▁辛赫	-15769
▁领导	-15770
下星期	-15771
与亚洲	-15772
主持的	-15773
也开始	-15774
买东西	-15775
仅表示	-15776
他强调	-15777
以作为	-15778
八百万	-15779
军队的	-15780
出版的	-15781
则认为	-15782
加斯加	-15783
十六世	-15784
否决权	-15785
国内政	-15786
在埃及	-15787
坚定的	-15788
复兴党	-15789
大量的	-15790
对欧盟	-15791
工作者	-15792
布希和	-15793
布罗陀	-15794
开出的	-15795
当我们	-15796
志愿者	-15797
新回合	-15798
日本和	-15799
昆士兰	-15800
昆都兹	-15801
是去年	-15802
是属于	-15803
是相当	-15804
有五名	-15805
爆炸物	-15806
甘比尔	-15807
生活中	-15808
的合约	-15809
的形象	-15810
的禁令	-15811
的金额	-15812
第十五	-15813
等其他	-15814
经济部	-15815
节车厢	-15816
被捕后	-15817
设立的	-15818
转捩点	-15819
较小的	-15820
这两人	-15821
零售业	-15822
▁叙利亚	-15823
一千多名	-15824
不好意思	-15825
专家指出	-15826
为首联军	-15827
人死亡的	-15828
今天早晨	-15829
仍然存在	-15830
以外地区	-15831
伤亡人数	-15832
伸出援手	-15833
住院治疗	-15834
出庭应讯	-15835
副总经理	-15836
十二月份	-15837
可能爆发	-15838
国际会议	-15839
在上半场	-15840
外交事务	-15841
情报人员	-15842
所使用的	-15843
有许多人	-15844
服用禁药	-15845
朝鲜民主	-15846
期货价格	-15847
格罗庞提	-15848
森林大火	-15849
殖民统治	-15850
比利时的	-15851
的受害者	-15852
的菲律宾	-15853
直布罗陀	-15854
经济论坛	-15855
美国希望	-15856
表达关切	-15857
言之过早	-15858
这个组织	-15859
这项交易	-15860
金牌得主	-15861
高峰会谈	-15862
▁新华社说	-15863
一千五百名	-15864
一级方程式	-15865
七大工业国	-15866
今年第二季	-15867
副国防部长	-15868
厚生劳动省	-15869
四十八小时	-15870
外交通商部	-15871
欧元兑美元	-15872
海岸防卫队	-15873
百分之十九	-15874
的国家之一	-15875
的塞尔维亚	-15876
英国公开赛	-15877
通讯社报导	-15878
▁分析家指出	-15879
▁米洛塞维奇	-15880
万五千美元的	-15881
美洲国家组织	-15882
道琼工业指数	-15883
北海布仑特原油	-15884
阿拉伯联合大公国	-15885
46	-15886
5,	-15887
▁信	-15888
▁山	-15889
▁左	-15890
▁广	-15891
▁赖	-15892
一代	-15893
七天	-15894
三至	-15895
下榻	-15896
中途	-15897
为数	-15898
举重	-15899
之初	-15900
之名	-15901
乐见	-15902
于世	-15903
五项	-15904
以方	-15905
低落	-15906
住了	-15907
佛像	-15908
假帐	-15909
党和	-15910
六岁	-15911
关颖	-15912
减为	-15913
分发	-15914
列名	-15915
初次	-15916
协力	-15917
双人	-15918
古代	-15919
古森	-15920
合适	-15921
吉他	-15922
同业	-15923
同为	-15924
四家	-15925
四至	-15926
在四	-15927
地标	-15928
塔台	-15929
塞维	-15930
外线	-15931
太华	-15932
夺金	-15933
奎格	-15934
子星	-15935
宁街	-15936
它所	-15937
察觉	-15938
将球	-15939
希说	-15940
开刀	-15941
弥漫	-15942
当其	-15943
影坛	-15944
怀特	-15945
性感	-15946
悼念	-15947
托斯	-15948
抗药	-15949
护卫	-15950
拒不	-15951
招募	-15952
招架	-15953
捕获	-15954
收支	-15955
无恙	-15956
日记	-15957
是二	-15958
李契	-15959
染上	-15960
树立	-15961
格力	-15962
欲坠	-15963
殆尽	-15964
水库	-15965
沈没	-15966
治愈	-15967
洗衣	-15968
洞赛	-15969
犯了	-15970
甘地	-15971
的内	-15972
的她	-15973
盘中	-15974
相形	-15975
研制	-15976
简化	-15977
系的	-15978
翻覆	-15979
老化	-15980
而成	-15981
而易	-15982
荣衔	-15983
落居	-15984
裁军	-15985
误差	-15986
课税	-15987
过量	-15988
返抵	-15989
这群	-15990
遗骸	-15991
遥遥	-15992
都曾	-15993
都没	-15994
金门	-15995
鏖战	-15996
问鼎	-15997
阻断	-15998
除去	-15999
零后	-16000
音响	-16001
400	-16002
▁到了	-16003
▁台北	-16004
▁她们	-16005
▁曾在	-16006
▁此前	-16007
▁美方	-16008
▁这批	-16009
一样的	-16010
三角洲	-16011
不以为	-16012
中国将	-16013
于四月	-16014
于昨天	-16015
五十个	-16016
他们要	-16017
会晤了	-16018
克鲁兹	-16019
八美元	-16020
其实是	-16021
十万人	-16022
十四个	-16023
国际法	-16024
在本届	-16025
在调查	-16026
在非洲	-16027
型飞机	-16028
奥运的	-16029
威而钢	-16030
安达信	-16031
将可以	-16032
尚尼亚	-16033
强劲的	-16034
战斗中	-16035
手足口	-16036
才开始	-16037
找到了	-16038
承包商	-16039
政府所	-16040
是不是	-16041
有关联	-16042
杀伤力	-16043
杆并列	-16044
李显龙	-16045
枪战中	-16046
核废料	-16047
格丽特	-16048
流行乐	-16049
渥太华	-16050
潜水艇	-16051
澳洲队	-16052
父母亲	-16053
生产线	-16054
的叛军	-16055
的地步	-16056
的对话	-16057
的方向	-16058
的评论	-16059
的食物	-16060
精神号	-16061
终于在	-16062
给他们	-16063
蔓延至	-16064
行为的	-16065
西北方	-16066
计画中	-16067
议会的	-16068
较预期	-16069
连体婴	-16070
邓小平	-16071
领域的	-16072
食品暨	-16073
▁大部分	-16074
▁她又说	-16075
▁霍华德	-16076
一个月内	-16077
三个国家	-16078
不负责任	-16079
中东问题	-16080
二百七十	-16081
五十年来	-16082
今天中午	-16083
今年稍后	-16084
债信评等	-16085
全力支持	-16086
其中许多	-16087
冷战时期	-16088
十月七日	-16089
印度国会	-16090
参与这项	-16091
可能还会	-16092
各国外长	-16093
在此同时	-16094
塔利班的	-16095
女士表示	-16096
实施制裁	-16097
戴拉鲁亚	-16098
所提供的	-16099
摇摇欲坠	-16100
新科学家	-16101
施加压力	-16102
最高纪录	-16103
海啸侵袭	-16104
火箭攻击	-16105
瑞士法郎	-16106
的成长率	-16107
的支持度	-16108
石油需求	-16109
种族隔离	-16110
立场超然	-16111
统计显示	-16112
美国人质	-16113
透过电话	-16114
金融体系	-16115
领导下的	-16116
▁一名美国	-16117
▁声明指出	-16118
东南亚国协	-16119
二零一五年	-16120
六十四岁的	-16121
大规模毁灭	-16122
太平洋地区	-16123
心脏病发作	-16124
晋级第二轮	-16125
柯林顿政府	-16126
格林威尔号	-16127
▁南韩国防部	-16128
▁研究人员说	-16129
回教解放阵线	-16130
民主党候选人	-16131
汽车炸弹攻击	-16132
百分之七十五	-16133
盖达组织成员	-16134
官员告诉法新社	-16135
▁美国国务卿莱斯	-16136
女王伊丽莎白二世	-16137
严重急性呼吸道症候群疫情	-16138
参谋首长联席会议主席迈尔斯	-16139
52	-16140
▁主	-16141
▁蓝	-16142
一席	-16143
一杆	-16144
不予	-16145
不啻	-16146
了约	-16147
五周	-16148
产经	-16149
人已	-16150
人造	-16151
他想	-16152
价码	-16153
伤重	-16154
伴随	-16155
但其	-16156
佐娃	-16157
侮辱	-16158
保镳	-16159
做成	-16160
冬运	-16161
力敌	-16162
功效	-16163
勇士	-16164
化合	-16165
匹柏	-16166
南欧	-16167
厂长	-16168
参展	-16169
友邦	-16170
古丁	-16171
句点	-16172
同行	-16173
名次	-16174
商谈	-16175
器的	-16176
地图	-16177
埋在	-16178
天价	-16179
学费	-16180
宏观	-16181
宛如	-16182
寒冷	-16183
崛起	-16184
已成	-16185
常见	-16186
年在	-16187
库森	-16188
应是	-16189
急需	-16190
慷慨	-16191
手拍	-16192
拉多	-16193
指认	-16194
挪用	-16195
捐血	-16196
接手	-16197
描绘	-16198
擅长	-16199
时数	-16200
昌星	-16201
朝着	-16202
未遂	-16203
本次	-16204
机长	-16205
李鹏	-16206
染病	-16207
正轨	-16208
民用	-16209
沈重	-16210
沉船	-16211
法务	-16212
深具	-16213
湄公	-16214
特点	-16215
理财	-16216
的情	-16217
眼的	-16218
神户	-16219
窘境	-16220
竞逐	-16221
精采	-16222
终端	-16223
置于	-16224
职权	-16225
茱蒂	-16226
蒙德	-16227
虔诚	-16228
见证	-16229
詹姆	-16230
资方	-16231
起跑	-16232
跑者	-16233
辉瑞	-16234
进食	-16235
逃到	-16236
逐退	-16237
通告	-16238
邮务	-16239
长龙	-16240
闪电	-16241
阿帕	-16242
阿裔	-16243
陨石	-16244
雅拉	-16245
风光	-16246
高潮	-16247
▁人们	-16248
▁他并	-16249
▁佛州	-16250
▁依照	-16251
▁据说	-16252
▁接着	-16253
▁日前	-16254
▁明天	-16255
▁读卖	-16256
▁雪梨	-16257
▁雷根	-16258
三美元	-16259
下议院	-16260
中扮演	-16261
乘客的	-16262
了这个	-16263
二百一	-16264
于九月	-16265
人民军	-16266
他们正	-16267
他并未	-16268
任务是	-16269
但是我	-16270
停留在	-16271
克莱门	-16272
公顷的	-16273
列火车	-16274
加州的	-16275
助理说	-16276
十一天	-16277
十三人	-16278
四分卫	-16279
在参院	-16280
如果要	-16281
完全不	-16282
完成的	-16283
家人的	-16284
对南韩	-16285
对这种	-16286
将决定	-16287
将负责	-16288
开会时	-16289
我们应	-16290
我无法	-16291
所引起	-16292
接受了	-16293
昨天曾	-16294
是自从	-16295
晚间在	-16296
有两人	-16297
有四名	-16298
本月底	-16299
检查哨	-16300
法庭上	-16301
滑落到	-16302
炸弹客	-16303
燃料棒	-16304
爱媛丸	-16305
的一周	-16306
的办法	-16307
的大陆	-16308
的投票	-16309
的援助	-16310
的构想	-16311
的武装	-16312
的演说	-16313
的难民	-16314
的项目	-16315
程度的	-16316
维芳迪	-16317
美国及	-16318
而引发	-16319
艾佛森	-16320
菲立浦	-16321
表现得	-16322
被控在	-16323
被逮捕	-16324
计画将	-16325
费瑞拉	-16326
达佛区	-16327
这位前	-16328
阿尔卑	-16329
阿尔及	-16330
首当其	-16331
首次在	-16332
▁在日本	-16333
▁在这个	-16334
二十一个	-16335
二十日在	-16336
二年十月	-16337
人权组织	-16338
使用这种	-16339
元人民币	-16340
六十五杆	-16341
冲突事件	-16342
凌晨二时	-16343
华盛顿的	-16344
印第安纳	-16345
去年七月	-16346
国营企业	-16347
在电话中	-16348
女子网球	-16349
宪法法庭	-16350
对于美国	-16351
巴格达的	-16352
必须采取	-16353
无法获得	-16354
最惨重的	-16355
最高领袖	-16356
棕榈滩郡	-16357
没有理由	-16358
法律规定	-16359
经济危机	-16360
继续保持	-16361
美国市场	-16362
要求日本	-16363
观光胜地	-16364
贸易盈余	-16365
贸易谈判	-16366
镇压行动	-16367
▁这项报告	-16368
▁除此之外	-16369
上午十一时	-16370
伊拉克南部	-16371
备受争议的	-16372
库玛拉彤嘉	-16373
总理吴作栋	-16374
我们的国家	-16375
教科文组织	-16376
的恐怖份子	-16377
美国和英国	-16378
阿姆斯特丹	-16379
▁一九九七年	-16380
▁佛罗里达州	-16381
▁搜狐娱乐讯	-16382
拥有核子武器	-16383
通用汽车公司	-16384
消费者物价指数	-16385
民主党总统候选人凯瑞	-16386
56	-16387
7-	-16388
76	-16389
▁像	-16390
▁恩	-16391
▁赵	-16392
一成	-16393
七成	-16394
两辆	-16395
书的	-16396
事前	-16397
以两	-16398
余地	-16399
信号	-16400
修理	-16401
俾路	-16402
借贷	-16403
储量	-16404
克利	-16405
全长	-16406
关岛	-16407
减免	-16408
剂量	-16409
加彭	-16410
助攻	-16411
势均	-16412
化工	-16413
去除	-16414
又被	-16415
发送	-16416
取决	-16417
取出	-16418
台南	-16419
各省	-16420
名誉	-16421
后所	-16422
和在	-16423
团员	-16424
均在	-16425
坏了	-16426
坦言	-16427
填补	-16428
奈特	-16429
她已	-16430
安心	-16431
容量	-16432
尔特	-16433
已告	-16434
平稳	-16435
年华	-16436
康迪	-16437
开创	-16438
开来	-16439
彰显	-16440
志工	-16441
惊险	-16442
慰问	-16443
抢购	-16444
抱歉	-16445
挣扎	-16446
掠夺	-16447
提倡	-16448
摄护	-16449
放款	-16450
时常	-16451
昔日	-16452
普敦	-16453
机票	-16454
杜瓦	-16455
来往	-16456
杭州	-16457
欣喜	-16458
步行	-16459
流失	-16460
火爆	-16461
爷爷	-16462
献金	-16463
王国	-16464
的对	-16465
直至	-16466
硬体	-16467
索赔	-16468
绍尔	-16469
网址	-16470
罗素	-16471
置信	-16472
而代	-16473
而以	-16474
胸部	-16475
自首	-16476
舒适	-16477
艾利	-16478
角落	-16479
记载	-16480
试管	-16481
诚意	-16482
详述	-16483
赚取	-16484
起步	-16485
身着	-16486
远的	-16487
迪尔	-16488
适度	-16489
降下	-16490
马侃	-16491
骑兵	-16492
▁捷克	-16493
▁整个	-16494
▁石油	-16495
▁约旦	-16496
▁艾瑞	-16497
▁银行	-16498
▁马丁	-16499
一点七	-16500
三十多	-16501
下降至	-16502
不断地	-16503
不要再	-16504
为中国	-16505
也强调	-16506
交通部	-16507
伊利诺	-16508
休旅车	-16509
会继续	-16510
但他的	-16511
俾路支	-16512
停滞不	-16513
十八洞	-16514
半世纪	-16515
南华早	-16516
可能比	-16517
名人堂	-16518
吸引了	-16519
员工的	-16520
在爆炸	-16521
地主国	-16522
复苏的	-16523
官员已	-16524
将会见	-16525
将利用	-16526
将高达	-16527
就已经	-16528
已经是	-16529
应该要	-16530
开幕式	-16531
打交道	-16532
政府为	-16533
是否为	-16534
有多达	-16535
民调中	-16536
水手队	-16537
法国人	-16538
消耗量	-16539
然后在	-16540
理事长	-16541
的准备	-16542
的医疗	-16543
的布希	-16544
的最好	-16545
的死亡	-16546
的经费	-16547
的节目	-16548
第一场	-16549
而且在	-16550
而获得	-16551
联合会	-16552
被询及	-16553
警察在	-16554
警方和	-16555
计画在	-16556
过去曾	-16557
造成一	-16558
阿济兹	-16559
面临的	-16560
额外的	-16561
魁北克	-16562
▁参议院	-16563
▁台湾的	-16564
一如既往	-16565
上任以来	-16566
下午四时	-16567
不愿说明	-16568
世界和平	-16569
世界大赛	-16570
两千四百	-16571
主管当局	-16572
举行双边	-16573
于二一年	-16574
亿日圆的	-16575
今年元月	-16576
令人意外	-16577
伊莉莎白	-16578
克拉荷马	-16579
创纪录的	-16580
势均力敌	-16581
单一货币	-16582
参赛资格	-16583
双方同意	-16584
和加拿大	-16585
国家领袖	-16586
坦尚尼亚	-16587
大学教授	-16588
央行总裁	-16589
密苏里州	-16590
已经获得	-16591
年成长率	-16592
当局今天	-16593
快速成长	-16594
总统卡赛	-16595
感到遗憾	-16596
戈巴契夫	-16597
成员包括	-16598
扳回一城	-16599
投资人的	-16600
抵达北京	-16601
提供援助	-16602
提出控告	-16603
文件显示	-16604
日本国内	-16605
是伊拉克	-16606
有朝一日	-16607
来到每桶	-16608
核能电厂	-16609
派遣部队	-16610
涅夫斯基	-16611
生物学家	-16612
的录影带	-16613
第二季的	-16614
罪名起诉	-16615
蓬勃发展	-16616
访问北韩	-16617
调查行动	-16618
贸易组织	-16619
足球明星	-16620
这是我们	-16621
这种情形	-16622
进行攻击	-16623
选举人票	-16624
间的关系	-16625
韩杜雀娃	-16626
首当其冲	-16627
▁读卖新闻	-16628
三十三岁的	-16629
三十六岁的	-16630
五十四岁的	-16631
亚太地区的	-16632
发言人指出	-16633
四十一岁的	-16634
布希总统的	-16635
攻击阿富汗	-16636
暨发展组织	-16637
海军陆战队	-16638
的经济复苏	-16639
盐川正十郎	-16640
统一部长官	-16641
美国与欧洲	-16642
贸易自由化	-16643
进一步说明	-16644
▁巴勒斯坦人	-16645
加入欧洲联盟	-16646
巴勒斯坦人在	-16647
新闻报导指出	-16648
盖达组织战士	-16649
研究结果显示	-16650
解决这个问题	-16651
▁这名发言人说	-16652
成长百分之零点	-16653
国际货币基金会的	-16654
禁止核子扩散条约	-16655
▁美国国家航空暨太空总署	-16656
▁亲	-16657
▁后	-16658
▁坎	-16659
▁百	-16660
一劫	-16661
万豪	-16662
三亿	-16663
三起	-16664
下葬	-16665
不止	-16666
不理	-16667
丢掷	-16668
严惩	-16669
中山	-16670
五至	-16671
交警	-16672
交运	-16673
产下	-16674
仅剩	-16675
他正	-16676
企鹅	-16677
休会	-16678
伤患	-16679
俄方	-16680
俱增	-16681
先例	-16682
六成	-16683
凌虐	-16684
功臣	-16685
加大	-16686
劣势	-16687
医治	-16688
卡洛	-16689
反扑	-16690
受精	-16691
可爱	-16692
可让	-16693
呕吐	-16694
员警	-16695
周前	-16696
地检	-16697
场外	-16698
塔瓦	-16699
墨尼	-16700
大炮	-16701
太高	-16702
好让	-16703
妥当	-16704
子里	-16705
孙子	-16706
季度	-16707
它说	-16708
客场	-16709
宰杀	-16710
将和	-16711
少的	-16712
居次	-16713
屋内	-16714
师大	-16715
席卷	-16716
并论	-16717
庭讯	-16718
彗星	-16719
影音	-16720
往返	-16721
征召	-16722
心态	-16723
心灵	-16724
悄悄	-16725
患病	-16726
我和	-16727
战况	-16728
托说	-16729
扣除	-16730
扫除	-16731
搏斗	-16732
摘得	-16733
收缴	-16734
政客	-16735
数次	-16736
斯达	-16737
日起	-16738
春季	-16739
普顿	-16740
暴跌	-16741
月底	-16742
有望	-16743
根除	-16744
格外	-16745
款待	-16746
残余	-16747
比曼	-16748
气喘	-16749
水中	-16750
水兵	-16751
洽谈	-16752
流向	-16753
溜马	-16754
特质	-16755
狄克	-16756
用餐	-16757
疏忽	-16758
的全	-16759
皇宫	-16760
相提	-16761
知情	-16762
短程	-16763
硬币	-16764
社团	-16765
神舟	-16766
禁地	-16767
系在	-16768
索取	-16769
约达	-16770
维安	-16771
绿地	-16772
羞辱	-16773
者是	-16774
而对	-16775
能将	-16776
艾米	-16777
衣物	-16778
裔的	-16779
订户	-16780
试着	-16781
该处	-16782
该行	-16783
赢了	-16784
走进	-16785
躲避	-16786
转达	-16787
过滤	-16788
过高	-16789
都对	-16790
重炮	-16791
金永	-16792
钢品	-16793
阅兵	-16794
阳明	-16795
随身	-16796
雪佛	-16797
驱动	-16798
高空	-16799
▁三菱	-16800
▁也是	-16801
▁卡达	-16802
▁史密	-16803
▁后者	-16804
▁工会	-16805
▁昨晚	-16806
▁机场	-16807
▁这笔	-16808
三十个	-16809
下一代	-16810
也应该	-16811
也相当	-16812
于六月	-16813
交货的	-16814
以争取	-16815
以电话	-16816
休威特	-16817
会增加	-16818
估计的	-16819
作任何	-16820
使我们	-16821
八十万	-16822
军政府	-16823
则是在	-16824
创始人	-16825
占上风	-16826
取消对	-16827
只花了	-16828
台湾省	-16829
各式各	-16830
后立即	-16831
和政治	-16832
哈发林	-16833
大本营	-16834
大都是	-16835
安乐死	-16836
将不再	-16837
将再度	-16838
将立即	-16839
将迎战	-16840
尼尔说	-16841
并接受	-16842
形成了	-16843
情不自	-16844
意义的	-16845
感觉到	-16846
所学校	-16847
投票日	-16848
斯图加	-16849
是欧洲	-16850
最近才	-16851
杰出的	-16852
每年有	-16853
民主与	-16854
爱阿华	-16855
班迪恩	-16856
理论上	-16857
痴呆症	-16858
的一支	-16859
的中东	-16860
的功能	-16861
的发现	-16862
的大楼	-16863
的大量	-16864
的家属	-16865
的旅客	-16866
的核心	-16867
的欢迎	-16868
的病人	-16869
的范围	-16870
的讨论	-16871
的预期	-16872
目前尚	-16873
真的很	-16874
真的是	-16875
知名度	-16876
第二任	-16877
至今已	-16878
花莲县	-16879
藤森谦	-16880
被列入	-16881
被用来	-16882
解决了	-16883
詹姆士	-16884
订定的	-16885
设备的	-16886
还会有	-16887
这显示	-16888
这种事	-16889
通讯员	-16890
遭淘汰	-16891
邻国的	-16892
驾驶人	-16893
5000	-16894
▁他呼吁	-16895
▁司法部	-16896
▁安南说	-16897
▁数百名	-16898
▁这两名	-16899
。900	-16900
一直没有	-16901
三十年来	-16902
三百六十	-16903
上午八时	-16904
不利影响	-16905
不愿具名	-16906
与此同时	-16907
两场比赛	-16908
亿人民币	-16909
以一比一	-16910
作成决定	-16911
划时代的	-16912
卡车司机	-16913
发现任何	-16914
可能影响	-16915
同时呼吁	-16916
在这方面	-16917
在雅加达	-16918
外汇存底	-16919
必须获得	-16920
总统宝座	-16921
恐怖威胁	-16922
情况良好	-16923
情报显示	-16924
意见分歧	-16925
成为世界	-16926
所产生的	-16927
报导指称	-16928
拥有核武	-16929
提出要求	-16930
支持这项	-16931
数小时后	-16932
整体而言	-16933
新政府的	-16934
日产汽车	-16935
日本公司	-16936
昨天晚上	-16937
曾经表示	-16938
毛派叛军	-16939
电视辩论	-16940
的最低点	-16941
的领导人	-16942
级驱逐舰	-16943
能源总署	-16944
艾拉卡特	-16945
讨论有关	-16946
访问日本	-16947
费尼可夫	-16948
还有许多	-16949
这场战争	-16950
进行检验	-16951
追加预算	-16952
逃过一劫	-16953
金大中的	-16954
金融集团	-16955
食品安全	-16956
▁布莱尔说	-16957
▁经济学家	-16958
▁美国白宫	-16959
▁这场比赛	-16960
一九八三年	-16961
三十八岁的	-16962
三千万美元	-16963
五十三岁的	-16964
以来的首次	-16965
六十三岁的	-16966
十月十二日	-16967
卡西亚诺夫	-16968
坦米尔之虎	-16969
塔斯社引述	-16970
布莱尔首相	-16971
朝鲜半岛的	-16972
田径锦标赛	-16973
的攻击事件	-16974
经常帐盈余	-16975
陈水扁总统	-16976
二十四小时内	-16977
共和党参议员	-16978
发动军事攻击	-16979
在伊拉克境内	-16980
媒体今天报导	-16981
的美国大使馆	-16982
联邦基金利率	-16983
甘乃迪太空中心	-16984
行政长官布雷默	-16985
精神领袖达赖喇嘛	-16986
阿布沙伊夫游击队	-16987
▁美国联邦准备理事会主席葛林斯潘	-16988
59	-16989
69	-16990
▁明	-16991
▁看	-16992
▁雅	-16993
一六	-16994
一律	-16995
一案	-16996
一流	-16997
为平	-16998
丽莎	-16999
也没	-17000
乡镇	-17001
买了	-17002
乳牛	-17003
五国	-17004
亦曾	-17005
亲近	-17006
人中	-17007
休斯	-17008
会是	-17009
传给	-17010
储蓄	-17011
先是	-17012
典范	-17013
出手	-17014
到他	-17015
加薪	-17016
卡塔	-17017
印刷	-17018
即被	-17019
史丹	-17020
吉奇	-17021
名模	-17022
周知	-17023
商议	-17024
四万	-17025
围困	-17026
圣塔	-17027
地夫	-17028
垦丁	-17029
多么	-17030
大雪	-17031
好吗	-17032
宁愿	-17033
完了	-17034
家畜	-17035
小国	-17036
层的	-17037
山上	-17038
岩石	-17039
峡谷	-17040
巴特	-17041
幽默	-17042
床上	-17043
延到	-17044
开了	-17045
开往	-17046
强国	-17047
当成	-17048
彭博	-17049
得起	-17050
忠实	-17051
怀抱	-17052
思议	-17053
悉数	-17054
惩处	-17055
我爱	-17056
戴上	-17057
戴尔	-17058
扭伤	-17059
抗体	-17060
招待	-17061
探望	-17062
摧残	-17063
撤走	-17064
支柱	-17065
旋风	-17066
是位	-17067
期能	-17068
查看	-17069
梦魇	-17070
气管	-17071
法人	-17072
注重	-17073
涨势	-17074
烦恼	-17075
牛津	-17076
独特	-17077
狭窄	-17078
王位	-17079
用功	-17080
的书	-17081
相左	-17082
礼貌	-17083
神鬼	-17084
票选	-17085
签字	-17086
红海	-17087
维特	-17088
网域	-17089
而致	-17090
蒲隆	-17091
衔接	-17092
装设	-17093
调控	-17094
跑出	-17095
路径	-17096
身价	-17097
转机	-17098
过失	-17099
连战	-17100
都说	-17101
错了	-17102
阴霾	-17103
阿玛	-17104
马蒂	-17105
骨髓	-17106
高压	-17107
鳄鱼	-17108
▁丰田	-17109
▁事发	-17110
▁劳工	-17111
▁外界	-17112
▁本届	-17113
▁联军	-17114
▁预期	-17115
一万名	-17116
为一百	-17117
九百万	-17118
也发生	-17119
也因为	-17120
也成为	-17121
二美元	-17122
五十分	-17123
人感染	-17124
他并且	-17125
他必须	-17126
作上述	-17127
作出的	-17128
冠军战	-17129
决定在	-17130
十二年	-17131
十四岁	-17132
南德拉	-17133
卡比拉	-17134
反禁药	-17135
可兰经	-17136
可是我	-17137
可能再	-17138
可能要	-17139
可获得	-17140
向法院	-17141
和他们	-17142
在瑞士	-17143
塑胶袋	-17144
妮佐娃	-17145
宫内厅	-17146
将于本	-17147
帮我们	-17148
并同意	-17149
座冠军	-17150
我看到	-17151
所在地	-17152
拉希德	-17153
拒绝让	-17154
文件中	-17155
时报说	-17156
是唯一	-17157
是基于	-17158
最快速	-17159
有不少	-17160
有资格	-17161
来这里	-17162
柏格说	-17163
桑琪士	-17164
气象厅	-17165
洛克比	-17166
湄公河	-17167
环境下	-17168
球队的	-17169
的乘客	-17170
的人员	-17171
的保护	-17172
的军队	-17173
的方案	-17174
省省会	-17175
约翰松	-17176
纳加夫	-17177
给台湾	-17178
致命性	-17179
菲利浦	-17180
蔓延到	-17181
负成长	-17182
转变为	-17183
这方面	-17184
里表示	-17185
隶属于	-17186
领袖说	-17187
驾驶的	-17188
▁不过在	-17189
▁在纽约	-17190
▁希拉蕊	-17191
▁日本的	-17192
▁梵蒂冈	-17193
▁莱斯说	-17194
▁裴瑞斯	-17195
三千八百	-17196
不会改变	-17197
不可思议	-17198
不可或缺	-17199
与加拿大	-17200
两千七百	-17201
中国方面	-17202
二千七百	-17203
亚洲各国	-17204
交货价格	-17205
人工验票	-17206
今天继续	-17207
以六比七	-17208
全国人大	-17209
公共工程	-17210
公司总裁	-17211
判处死刑	-17212
加强合作	-17213
印象深刻	-17214
发表简短	-17215
发言人黎	-17216
可能会有	-17217
名列前茅	-17218
国防预算	-17219
大多数的	-17220
奥巴山约	-17221
宣布退出	-17222
将在明年	-17223
已经超过	-17224
接受媒体	-17225
日本首相	-17226
日益增加	-17227
有问题的	-17228
武器扩散	-17229
狂牛症的	-17230
生命危险	-17231
画面显示	-17232
的前一天	-17233
的得票率	-17234
相提并论	-17235
种族主义	-17236
第一阶段	-17237
谈话中说	-17238
负起责任	-17239
进行对话	-17240
银行帐户	-17241
阿尔卑斯	-17242
▁交易商说	-17243
▁山普拉斯	-17244
▁救难人员	-17245
一九七七年	-17246
一九七八年	-17247
二十五日在	-17248
八大工业国	-17249
军事委员会	-17250
哈玛斯集团	-17251
回教什叶派	-17252
总统当选人	-17253
成为第一位	-17254
核能发电厂	-17255
汤姆克鲁斯	-17256
自民党总裁	-17257
谴责以色列	-17258
麻萨诸塞州	-17259
▁柯斯杜尼查	-17260
和平号太空站	-17261
大满贯赛冠军	-17262
恐怖攻击行动	-17263
数十亿美元的	-17264
百分之三十六	-17265
百分之零点五	-17266
自由贸易区的	-17267
艾斯特拉达的	-17268
食品暨药物管理局	-17269
09	-17270
▁丹	-17271
▁乔	-17272
▁叶	-17273
▁合	-17274
▁省	-17275
▁鲍	-17276
、、	-17277
一线	-17278
丁堡	-17279
万斯	-17280
中正	-17281
举例	-17282
之余	-17283
也就	-17284
他从	-17285
以八	-17286
以其	-17287
众人	-17288
住所	-17289
俊雄	-17290
保全	-17291
停靠	-17292
元的	-17293
光是	-17294
八天	-17295
公克	-17296
六次	-17297
再添	-17298
再见	-17299
分化	-17300
分店	-17301
剧烈	-17302
加雅	-17303
务局	-17304
南区	-17305
参访	-17306
变数	-17307
史奈	-17308
各有	-17309
吉拉	-17310
同仁	-17311
同伙	-17312
名流	-17313
后悔	-17314
吸食	-17315
哈维	-17316
四国	-17317
团长	-17318
坠入	-17319
增无	-17320
壳牌	-17321
头巾	-17322
委国	-17323
存的	-17324
安徽	-17325
家具	-17326
小报	-17327
小麦	-17328
尖峰	-17329
尼兹	-17330
尼柯	-17331
居间	-17332
带进	-17333
底下	-17334
弊端	-17335
弱的	-17336
归化	-17337
征兆	-17338
心意	-17339
怀念	-17340
思科	-17341
惯例	-17342
成衣	-17343
我所	-17344
挑起	-17345
挥杆	-17346
挽回	-17347
损毁	-17348
探勘	-17349
揭发	-17350
摩擦	-17351
收押	-17352
日昨	-17353
明朗	-17354
易于	-17355
晓得	-17356
月间	-17357
李小	-17358
极了	-17359
果真	-17360
查扣	-17361
栖息	-17362
欢乐	-17363
欢欣	-17364
止痛	-17365
正以	-17366
注目	-17367
流传	-17368
港市	-17369
灭火	-17370
灵魂	-17371
特务	-17372
狂热	-17373
猥亵	-17374
珍惜	-17375
珠宝	-17376
生机	-17377
生死	-17378
的摩	-17379
督察	-17380
硬件	-17381
神情	-17382
积雪	-17383
空服	-17384
终究	-17385
结算	-17386
给与	-17387
美孚	-17388
者与	-17389
腹部	-17390
至为	-17391
若不	-17392
表情	-17393
被害	-17394
被炸	-17395
规格	-17396
言词	-17397
誉为	-17398
讲述	-17399
证管	-17400
贝瑞	-17401
起因	-17402
身手	-17403
轮椅	-17404
还算	-17405
迟疑	-17406
递交	-17407
防堵	-17408
隔夜	-17409
难忘	-17410
面具	-17411
顽抗	-17412
颠复	-17413
风气	-17414
鸣枪	-17415
龙江	-17416
▁卫冕	-17417
▁汽车	-17418
▁美元	-17419
▁距离	-17420
▁阿诺	-17421
一年后	-17422
一般的	-17423
万人次	-17424
上升至	-17425
不久后	-17426
不会对	-17427
两人都	-17428
中包括	-17429
也已经	-17430
于五月	-17431
于八月	-17432
他没有	-17433
以武力	-17434
伊布拉	-17435
会外赛	-17436
关颖珊	-17437
前首相	-17438
十九个	-17439
十六个	-17440
南非的	-17441
又发生	-17442
及南韩	-17443
可能因	-17444
向他们	-17445
和印尼	-17446
四十万	-17447
因担心	-17448
因此而	-17449
国主义	-17450
国家中	-17451
在加州	-17452
在台北	-17453
在周末	-17454
在进行	-17455
型飞弹	-17456
太空中	-17457
安全和	-17458
家乐福	-17459
尼坦雅	-17460
并购案	-17461
广场上	-17462
微软的	-17463
德国队	-17464
总人口	-17465
戏剧性	-17466
才得以	-17467
托拉波	-17468
星期六	-17469
是一件	-17470
是亚洲	-17471
普莱斯	-17472
有希望	-17473
杀害了	-17474
来访的	-17475
杯冠军	-17476
极可能	-17477
标准的	-17478
流行病	-17479
海默症	-17480
温哥华	-17481
演出的	-17482
热气球	-17483
瑞斯说	-17484
生命的	-17485
的丈夫	-17486
的优势	-17487
的后果	-17488
的士兵	-17489
的小孩	-17490
的差距	-17491
的成本	-17492
的手段	-17493
的收入	-17494
的独立	-17495
的船只	-17496
的边界	-17497
的预估	-17498
移民局	-17499
第一项	-17500
等国家	-17501
等议题	-17502
经理人	-17503
罗马队	-17504
而这是	-17505
被取消	-17506
象征性	-17507
这将使	-17508
部表示	-17509
▁专家说	-17510
▁台北市	-17511
▁孟加拉	-17512
▁这位前	-17513
一名美国	-17514
一场比赛	-17515
一致通过	-17516
一般相信	-17517
万四千人	-17518
三十五名	-17519
为伊拉克	-17520
为期两天	-17521
乔治亚州	-17522
二十二名	-17523
二十五人	-17524
五人丧生	-17525
五十公里	-17526
人士认为	-17527
今天击出	-17528
今年十月	-17529
他们没有	-17530
关系密切	-17531
加入欧元	-17532
十字路口	-17533
受到威胁	-17534
受到感染	-17535
受欢迎的	-17536
同时指出	-17537
在土耳其	-17538
安全情势	-17539
市场经济	-17540
情况稳定	-17541
情报官员	-17542
我们要求	-17543
我的朋友	-17544
托拉波拉	-17545
报导中说	-17546
教育部长	-17547
新决议案	-17548
方面表示	-17549
是美国的	-17550
最高荣誉	-17551
有关各方	-17552
核子试爆	-17553
根本没有	-17554
武装冲突	-17555
民主国家	-17556
气候变化	-17557
爆发疫情	-17558
玛格丽特	-17559
瑞典选手	-17560
电影明星	-17561
电话公司	-17562
的不确定	-17563
的决议案	-17564
的大部分	-17565
的报告说	-17566
的目标是	-17567
第二大城	-17568
第二阶段	-17569
组成一个	-17570
至今尚未	-17571
行政院长	-17572
表示感谢	-17573
被任命为	-17574
要求他们	-17575
足球劲旅	-17576
路易斯安	-17577
身体健康	-17578
过去几天	-17579
这项法律	-17580
非常严重	-17581
高球选手	-17582
▁伦斯斐在	-17583
▁国际奥会	-17584
▁媒体报导	-17585
▁柯林顿说	-17586
▁根据一项	-17587
▁消息人士	-17588
▁赖比瑞亚	-17589
三月二十日	-17590
为百分之三	-17591
伊拉克政府	-17592
前所未有的	-17593
发动大规模	-17594
口蹄疫疫情	-17595
总统卡斯楚	-17596
本月十一日	-17597
罗德里格斯	-17598
职棒大联盟	-17599
驻巴基斯坦	-17600
▁本报讯记者	-17601
于去年十二月	-17602
八时台北时间	-17603
南斯拉夫联邦	-17604
发言人今天说	-17605
在阿富汗境内	-17606
温室效应气体	-17607
瓦斯涅夫斯基	-17608
紧张情势升高	-17609
美国经济成长	-17610
奥林匹克委员会	-17611
联合国武检人员	-17612
阿富汗塔利班政权	-17613
▁派	-17614
与她	-17615
两成	-17616
争冠	-17617
亚佛	-17618
交涉	-17619
亲眼	-17620
仅占	-17621
代替	-17622
优于	-17623
优良	-17624
传单	-17625
低廉	-17626
体质	-17627
信奉	-17628
党政	-17629
入院	-17630
兰说	-17631
兴起	-17632
内含	-17633
凯萨	-17634
前曾	-17635
南淳	-17636
反攻	-17637
叫停	-17638
可用	-17639
和新	-17640
哈说	-17641
器材	-17642
四倍	-17643
基德	-17644
塑造	-17645
大半	-17646
大感	-17647
宁泽	-17648
守卫	-17649
密度	-17650
导航	-17651
布什	-17652
平时	-17653
思维	-17654
成行	-17655
抗战	-17656
拉抬	-17657
掉了	-17658
放火	-17659
整修	-17660
施放	-17661
旁观	-17662
无视	-17663
无限	-17664
是她	-17665
普里	-17666
暖身	-17667
曾获	-17668
有待	-17669
李德	-17670
柯夫	-17671
正视	-17672
步上	-17673
演练	-17674
潮流	-17675
照常	-17676
独得	-17677
猴子	-17678
生计	-17679
畅旺	-17680
疗养	-17681
的光	-17682
的本	-17683
的黎	-17684
真空	-17685
破碎	-17686
碰上	-17687
礼服	-17688
纳的	-17689
腹泻	-17690
自主	-17691
致歉	-17692
试试	-17693
该署	-17694
谣传	-17695
辽宁	-17696
这趟	-17697
郑重	-17698
里曼	-17699
门店	-17700
阔斧	-17701
陌生	-17702
首例	-17703
鸦片	-17704
▁他对	-17705
▁很多	-17706
▁接近	-17707
▁摩根	-17708
▁罗伯	-17709
▁这件	-17710
一般人	-17711
万一千	-17712
下台后	-17713
不管是	-17714
专家们	-17715
东北亚	-17716
两国在	-17717
两国间	-17718
中东的	-17719
中国菜	-17720
也同样	-17721
也曾在	-17722
他们就	-17723
他对于	-17724
他打算	-17725
他自己	-17726
以一百	-17727
以交换	-17728
企业和	-17729
但后来	-17730
保守的	-17731
做准备	-17732
八十名	-17733
公布了	-17734
制作人	-17735
十一人	-17736
变得更	-17737
古柯硷	-17738
向媒体	-17739
在伊朗	-17740
在同一	-17741
在地上	-17742
在大陆	-17743
地检署	-17744
大爆炸	-17745
太大的	-17746
嫌疑人	-17747
宁泽涛	-17748
完整的	-17749
将协助	-17750
将造成	-17751
将针对	-17752
尼尔森	-17753
工人的	-17754
已加强	-17755
已警告	-17756
并准备	-17757
并将在	-17758
并重申	-17759
康贝尔	-17760
据称是	-17761
数十万	-17762
新一轮	-17763
旅游业	-17764
无辜的	-17765
日本与	-17766
有意义	-17767
李光耀	-17768
椭圆形	-17769
欧元兑	-17770
汽车业	-17771
法院的	-17772
珍妮佛	-17773
瘾君子	-17774
的主谋	-17775
的医院	-17776
的强烈	-17777
的总部	-17778
的房子	-17779
的选择	-17780
目的地	-17781
相反的	-17782
穆萨维	-17783
网路的	-17784
脚踏车	-17785
萨德的	-17786
访问了	-17787
诸如此	-17788
诺瓦克	-17789
谈判后	-17790
较前年	-17791
还不够	-17792
这里的	-17793
部队和	-17794
都受到	-17795
高雄市	-17796
黑名单	-17797
▁卡斯楚	-17798
▁蒲亭说	-17799
▁观察家	-17800
▁诺贝尔	-17801
▁阿巴斯	-17802
一百万桶	-17803
不过他们	-17804
专业人士	-17805
两千八百	-17806
严重威胁	-17807
中东情势	-17808
主管官员	-17809
事件发生	-17810
五十美元	-17811
他们可以	-17812
他们必须	-17813
关键时刻	-17814
其中一个	-17815
军事官员	-17816
冠军头衔	-17817
减税方案	-17818
出人意料	-17819
刑警组织	-17820
反以色列	-17821
发动政变	-17822
叛乱组织	-17823
向下修正	-17824
和塔利班	-17825
坚决反对	-17826
大都会队	-17827
太空探测	-17828
安全会议	-17829
官员证实	-17830
布拉希米	-17831
德维勒班	-17832
我们决定	-17833
抨击美国	-17834
排名第一	-17835
接受这项	-17836
支持他的	-17837
是在美国	-17838
暂时关闭	-17839
的大使馆	-17840
的青少年	-17841
移植手术	-17842
红色警戒	-17843
纪念活动	-17844
纽几内亚	-17845
结果发现	-17846
美国必须	-17847
美国陆军	-17848
菲律宾人	-17849
要求政府	-17850
运动组织	-17851
这种说法	-17852
这项攻击	-17853
道格拉斯	-17854
部会首长	-17855
阿尔及尔	-17856
食物中毒	-17857
▁标准普尔	-17858
▁这项会议	-17859
个工作机会	-17860
二零零二年	-17861
以色列坦克	-17862
军事指挥官	-17863
和其他国家	-17864
哲宁难民营	-17865
在巴勒斯坦	-17866
在这项比赛	-17867
展开大规模	-17868
布伦特原油	-17869
德意志银行	-17870
提出警告说	-17871
的经济衰退	-17872
石油天然气	-17873
美国与中国	-17874
被判处死刑	-17875
裔赛普勒斯	-17876
防卫厅长官	-17877
阿根廷选手	-17878
▁中国外交部	-17879
▁去年十二月	-17880
与巴勒斯坦人	-17881
于一九九七年	-17882
今天在总奖额	-17883
减少了百分之	-17884
十时台北时间	-17885
朝鲜民主主义	-17886
民族解放阵线	-17887
百分之一点五	-17888
百分之三十七	-17889
百分之五十五	-17890
百分之六十五	-17891
▁截至目前为止	-17892
美国公开赛冠军	-17893
▁世界排名第一的	-17894
北韩领导人金正日	-17895
菲律宾总统雅罗育	-17896
美国联邦准备理事会	-17897
▁现	-17898
一早	-17899
一票	-17900
三场	-17901
下调	-17902
不公	-17903
不善	-17904
不曾	-17905
两造	-17906
举国	-17907
买回	-17908
了对	-17909
争相	-17910
二一	-17911
亚裔	-17912
他自	-17913
伤口	-17914
体坛	-17915
余人	-17916
便衣	-17917
保释	-17918
偶尔	-17919
克莉	-17920
公认	-17921
减薪	-17922
分数	-17923
列举	-17924
则对	-17925
前才	-17926
半夜	-17927
变更	-17928
只差	-17929
合成	-17930
吉林	-17931
土机	-17932
在位	-17933
在意	-17934
坐牢	-17935
型车	-17936
夹克	-17937
好奇	-17938
妮兹	-17939
娃娃	-17940
它会	-17941
室的	-17942
家庄	-17943
富国	-17944
将能	-17945
尼曼	-17946
帆船	-17947
平板	-17948
年报	-17949
年间	-17950
并让	-17951
康乃	-17952
康纳	-17953
开张	-17954
开议	-17955
张家	-17956
性格	-17957
战备	-17958
掌管	-17959
接再	-17960
救起	-17961
文艺	-17962
日立	-17963
有数	-17964
有益	-17965
李维	-17966
林德	-17967
止跌	-17968
法航	-17969
浓度	-17970
深深	-17971
港币	-17972
源于	-17973
然大	-17974
特里	-17975
瑞夫	-17976
瓦尔	-17977
田说	-17978
看了	-17979
禁制	-17980
禽鸟	-17981
筹划	-17982
约谈	-17983
绝无	-17984
绝非	-17985
绩效	-17986
编纂	-17987
耶斯	-17988
职网	-17989
脊椎	-17990
莉雅	-17991
蝴蝶	-17992
要角	-17993
语音	-17994
诱因	-17995
起义	-17996
起伏	-17997
躺在	-17998
远较	-17999
追思	-18000
送达	-18001
遇上	-18002
野洋	-18003
金恩	-18004
问他	-18005
阻塞	-18006
降幅	-18007
限购	-18008
霍伯	-18009
青春	-18010
首场	-18011
▁司机	-18012
▁对此	-18013
▁据信	-18014
▁据称	-18015
▁政治	-18016
▁沙芬	-18017
▁直到	-18018
一九一	-18019
三十岁	-18020
三宝颜	-18021
三连霸	-18022
下来的	-18023
不超过	-18024
亚历山	-18025
以刺激	-18026
以抗议	-18027
伊利安	-18028
其次是	-18029
出身的	-18030
则指出	-18031
别人的	-18032
动植物	-18033
十三岁	-18034
华府的	-18035
参加的	-18036
发生过	-18037
受到的	-18038
可能为	-18039
可行性	-18040
各派系	-18041
同一天	-18042
和一个	-18043
和家人	-18044
和泰国	-18045
喜爱的	-18046
四十人	-18047
国政府	-18048
在会议	-18049
在美军	-18050
培尔松	-18051
基金的	-18052
大会上	-18053
如果有	-18054
媒体的	-18055
对人体	-18056
对布希	-18057
对所有	-18058
将出席	-18059
将加强	-18060
已提出	-18061
已逐渐	-18062
已采取	-18063
市附近	-18064
并且在	-18065
并未对	-18066
开发中	-18067
怎么做	-18068
成长了	-18069
拍摄的	-18070
摧毁了	-18071
是在二	-18072
是导致	-18073
最高可	-18074
最高点	-18075
未传出	-18076
来不及	-18077
栋房屋	-18078
核子弹	-18079
桥本龙	-18080
珍珠港	-18081
男朋友	-18082
留学生	-18083
疫苗的	-18084
的三个	-18085
的区域	-18086
的好处	-18087
的嫌犯	-18088
的政党	-18089
的新低	-18090
的法案	-18091
的男性	-18092
的真实	-18093
的设计	-18094
的详细	-18095
皮尔丝	-18096
目前被	-18097
稳定的	-18098
第二起	-18099
给中国	-18100
而造成	-18101
背景下	-18102
致词时	-18103
荷兰的	-18104
被劫持	-18105
远低于	-18106
都希望	-18107
都相当	-18108
闻名的	-18109
隐私权	-18110
马可仕	-18111
麦克风	-18112
▁小泉在	-18113
▁戴凡波	-18114
▁瓦巴依	-18115
▁财政部	-18116
万欧元的	-18117
万豪酒店	-18118
三十五分	-18119
上半年的	-18120
严重打击	-18121
举行一项	-18122
也不知道	-18123
了一口气	-18124
二十三名	-18125
二千四百	-18126
于十一月	-18127
今年八月	-18128
令人满意	-18129
以七比六	-18130
任期届满	-18131
住在一起	-18132
公共场所	-18133
公开表示	-18134
其中多数	-18135
内阁改组	-18136
分析师说	-18137
加州州长	-18138
北部地区	-18139
医疗人员	-18140
发展计画	-18141
可口可乐	-18142
和土耳其	-18143
和新加坡	-18144
回教教士	-18145
因为它们	-18146
在总奖金	-18147
在英格兰	-18148
士兵丧生	-18149
官员认为	-18150
实验室的	-18151
将于十月	-18152
就任总统	-18153
展开攻击	-18154
已经宣布	-18155
已经死亡	-18156
影艺学院	-18157
快速反应	-18158
恢复谈判	-18159
感到愤怒	-18160
感染病毒	-18161
所举行的	-18162
所带来的	-18163
政府机构	-18164
杯足球赛	-18165
欧盟各国	-18166
波多黎各	-18167
爆发以来	-18168
生活品质	-18169
的一封信	-18170
的第一步	-18171
的行动中	-18172
监督机构	-18173
科学家说	-18174
移动通信	-18175
获得释放	-18176
藤森谦也	-18177
西南部的	-18178
负责监督	-18179
赛后表示	-18180
这个机会	-18181
这是美国	-18182
采取任何	-18183
重大打击	-18184
降低成本	-18185
飞弹防卫	-18186
▁新闻周刊	-18187
▁时代杂志	-18188
一百亿美元	-18189
与欧洲联盟	-18190
东耶路撒冷	-18191
为百分之四	-18192
事件发生后	-18193
二零一四年	-18194
五十九岁的	-18195
他所领导的	-18196
对伊拉克的	-18197
日本外务省	-18198
未来几个月	-18199
桥本龙太郎	-18200
瓦希德总统	-18201
研究中心的	-18202
芮氏规模六	-18203
贫穷国家的	-18204
阿富汗人民	-18205
▁日本财务省	-18206
▁美国众议院	-18207
亿八千万美元	-18208
全国民主联盟	-18209
圣伯多禄广场	-18210
百分之四十五	-18211
首都史高比耶	-18212
▁世界贸易组织	-18213
▁国际特赦组织	-18214
公开市场委员会	-18215
法国公开赛冠军	-18216
美国网球公开赛	-18217
董事长兼执行长	-18218
阿富汗首都喀布尔	-18219
▁季	-18220
▁宋	-18221
▁蔡	-18222
三种	-18223
上届	-18224
上最	-18225
下课	-18226
不肯	-18227
东德	-18228
东正	-18229
两点	-18230
中对	-18231
中年	-18232
他仍	-18233
代为	-18234
以赴	-18235
以轻	-18236
优点	-18237
但有	-18238
供需	-18239
偷窃	-18240
偿付	-18241
偿债	-18242
公营	-18243
冒出	-18244
军团	-18245
冲入	-18246
减低	-18247
出入	-18248
则从	-18249
剥削	-18250
势将	-18251
北非	-18252
十国	-18253
卖血	-18254
双塔	-18255
可危	-18256
各级	-18257
后座	-18258
喝彩	-18259
四胜	-18260
在七	-18261
在阿	-18262
在马	-18263
多克	-18264
大于	-18265
失窃	-18266
失衡	-18267
头上	-18268
好久	-18269
安诺	-18270
宗旨	-18271
审计	-18272
宪兵	-18273
小区	-18274
岌岌	-18275
已婚	-18276
带往	-18277
年金	-18278
康诺	-18279
建成	-18280
强而	-18281
得好	-18282
快报	-18283
总量	-18284
惠特	-18285
愤慨	-18286
我说	-18287
戒严	-18288
手腕	-18289
抓获	-18290
抢走	-18291
报到	-18292
报警	-18293
拱手	-18294
拿地	-18295
持刀	-18296
指的	-18297
振作	-18298
排球	-18299
提雅	-18300
撤消	-18301
改装	-18302
整整	-18303
早产	-18304
时就	-18305
明日	-18306
景观	-18307
替补	-18308
最坏	-18309
未见	-18310
权限	-18311
杜森	-18312
果子	-18313
染色	-18314
查核	-18315
模范	-18316
毫米	-18317
水坝	-18318
海事	-18319
海德	-18320
澎湃	-18321
灵顿	-18322
烤肉	-18323
熊猫	-18324
王宫	-18325
球奖	-18326
瓦台	-18327
用了	-18328
用地	-18329
由此	-18330
电机	-18331
电气	-18332
痕迹	-18333
的山	-18334
相隔	-18335
矛头	-18336
确凿	-18337
移师	-18338
穆迪	-18339
窒息	-18340
纳吉	-18341
纳多	-18342
绕行	-18343
维系	-18344
罗勃	-18345
罗德	-18346
罚金	-18347
美术	-18348
肩膀	-18349
胰岛	-18350
胳针	-18351
自豪	-18352
融入	-18353
败北	-18354
赞许	-18355
走到	-18356
起即	-18357
起床	-18358
起草	-18359
跑到	-18360
踪影	-18361
车道	-18362
轰出	-18363
输血	-18364
达斯	-18365
运河	-18366
这张	-18367
这本	-18368
遗余	-18369
配套	-18370
采集	-18371
里奇	-18372
防疫	-18373
隆克	-18374
随同	-18375
霍华	-18376
驱离	-18377
高盛	-18378
▁一架	-18379
▁史诺	-18380
▁布里	-18381
▁这条	-18382
一切都	-18383
一点九	-18384
三天内	-18385
不支持	-18386
之后说	-18387
之行的	-18388
九月底	-18389
于二月	-18390
五比七	-18391
人权的	-18392
今天是	-18393
他们有	-18394
以促进	-18395
伊朗的	-18396
会不会	-18397
作曲家	-18398
公里外	-18399
具遗体	-18400
凸显了	-18401
剩下的	-18402
十公里	-18403
协会说	-18404
博览会	-18405
占领的	-18406
印度教	-18407
及中国	-18408
取决于	-18409
取而代	-18410
只是在	-18411
可疑的	-18412
合并后	-18413
和其它	-18414
和另外	-18415
哈里森	-18416
四十岁	-18417
四天的	-18418
国家和	-18419
在南部	-18420
在德州	-18421
威尔森	-18422
存在着	-18423
将寻求	-18424
将用来	-18425
就是要	-18426
局表示	-18427
已使得	-18428
已通过	-18429
已逮捕	-18430
市场对	-18431
并不能	-18432
成功地	-18433
报纸说	-18434
指控他	-18435
挥舞着	-18436
数分钟	-18437
新闻稿	-18438
无异议	-18439
是这个	-18440
是透过	-18441
有利于	-18442
林东源	-18443
歌剧院	-18444
派人士	-18445
海绵状	-18446
独特的	-18447
环境的	-18448
的人生	-18449
的保证	-18450
的大幅	-18451
的宗教	-18452
的幕后	-18453
的提议	-18454
的来源	-18455
的非洲	-18456
皇马队	-18457
签署了	-18458
篮网队	-18459
约有一	-18460
组委会	-18461
统一部	-18462
联调局	-18463
节目中	-18464
西方的	-18465
这一点	-18466
这两种	-18467
这种新	-18468
速水优	-18469
都同意	-18470
长期的	-18471
阿帕契	-18472
阿必尚	-18473
零组件	-18474
黑龙江	-18475
▁在伦敦	-18476
▁尤申科	-18477
▁左里克	-18478
▁英特尔	-18479
一个月的	-18480
与会人士	-18481
与塔利班	-18482
中心主任	-18483
九十分钟	-18484
五分之一	-18485
什么时候	-18486
今天同意	-18487
今天将在	-18488
今天接受	-18489
今天进入	-18490
佛罗里达	-18491
全国团结	-18492
六千四百	-18493
前往北韩	-18494
北部城市	-18495
协调部长	-18496
南部城市	-18497
南非选手	-18498
原本预定	-18499
反恐行动	-18500
叛乱分子	-18501
四千四百	-18502
国营电台	-18503
在中国的	-18504
在二二年	-18505
外长唐纳	-18506
多明尼加	-18507
大刀阔斧	-18508
天主教会	-18509
将在下周	-18510
岌岌可危	-18511
市场担心	-18512
年代初期	-18513
开庭审理	-18514
当局已经	-18515
总统任期	-18516
新任总统	-18517
无法立即	-18518
有关单位	-18519
极端主义	-18520
欧洲议会	-18521
油价今天	-18522
流行音乐	-18523
激进组织	-18524
王室成员	-18525
由于担心	-18526
的第一个	-18527
相当严重	-18528
维持不变	-18529
美国国家	-18530
能源价格	-18531
自治政府	-18532
获得胜利	-18533
访问北京	-18534
负责调查	-18535
赢得世界	-18536
超级巨星	-18537
踢进一球	-18538
过后不久	-18539
这些措施	-18540
遭到起诉	-18541
采取紧急	-18542
重大进展	-18543
▁他并表示	-18544
▁报导又说	-18545
▁艾巴拉迪	-18546
一月三十日	-18547
在耶路撒冷	-18548
安全委员会	-18549
总统瓦希德	-18550
情报委员会	-18551
数十人受伤	-18552
日内瓦公约	-18553
武装直升机	-18554
汽车制造厂	-18555
美国与英国	-18556
进入伊拉克	-18557
通讯社引述	-18558
于一九九六年	-18559
亿九千万美元	-18560
什叶派回教徒	-18561
以色列直升机	-18562
分离主义份子	-18563
四十八小时内	-18564
增加百分之三	-18565
环法自由车赛	-18566
百分之二十八	-18567
百分之四十七	-18568
百分之零点二	-18569
财政大臣布朗	-18570
霍多科夫斯基	-18571
首都蒙罗维亚	-18572
哥伦比亚革命军	-18573
阿富汗临时政府	-18574
联合国武器检查人员	-18575
一盘	-18576
下任	-18577
不绝	-18578
不败	-18579
世通	-18580
两亿	-18581
主宰	-18582
之家	-18583
之星	-18584
也向	-18585
产权	-18586
伉俪	-18587
伤心	-18588
侦办	-18589
党羽	-18590
农药	-18591
切实	-18592
列在	-18593
券商	-18594
卡诺	-18595
却被	-18596
厚的	-18597
去做	-18598
双发	-18599
可为	-18600
咳嗽	-18601
回事	-18602
塔说	-18603
境界	-18604
外贸	-18605
天天	-18606
契机	-18607
如下	-18608
妮雅	-18609
姆说	-18610
尔曼	-18611
就以	-18612
尼可	-18613
巨头	-18614
已不	-18615
延搁	-18616
开办	-18617
开革	-18618
得太	-18619
怎样	-18620
恭喜	-18621
恳求	-18622
扩及	-18623
承办	-18624
投给	-18625
折磨	-18626
拉伤	-18627
挥手	-18628
攻坚	-18629
无须	-18630
日银	-18631
时日	-18632
明罕	-18633
普吉	-18634
未定	-18635
李威	-18636
杜绝	-18637
来宾	-18638
棺木	-18639
横滨	-18640
歇尔	-18641
此番	-18642
母牛	-18643
民生	-18644
泄漏	-18645
法兹	-18646
法医	-18647
浓雾	-18648
清算	-18649
满满	-18650
爆破	-18651
牢房	-18652
牧师	-18653
特性	-18654
珍娜	-18655
电路	-18656
登说	-18657
秒九	-18658
秒五	-18659
窃听	-18660
系因	-18661
纵使	-18662
绝望	-18663
维纳	-18664
缓缓	-18665
罗兹	-18666
美机	-18667
肯色	-18668
背包	-18669
至五	-18670
良机	-18671
芮吉	-18672
行走	-18673
衍生	-18674
表的	-18675
装修	-18676
要做	-18677
观望	-18678
试飞	-18679
语气	-18680
赠送	-18681
赢过	-18682
辩方	-18683
过份	-18684
运往	-18685
还以	-18686
这处	-18687
连下	-18688
道奇	-18689
遵照	-18690
酗酒	-18691
酵素	-18692
量级	-18693
金援	-18694
问世	-18695
霍普	-18696
领队	-18697
频仍	-18698
马辛	-18699
高校	-18700
魔鬼	-18701
麦拉	-18702
▁倘若	-18703
▁即将	-18704
▁原来	-18705
▁新航	-18706
▁智利	-18707
▁现任	-18708
▁西藏	-18709
▁询及	-18710
▁赛后	-18711
一周年	-18712
下午二	-18713
与古巴	-18714
与越南	-18715
个月前	-18716
中心说	-18717
主要为	-18718
于今天	-18719
亚丁港	-18720
亚军的	-18721
他们曾	-18722
他本人	-18723
以前的	-18724
伊利瑟	-18725
会影响	-18726
会议时	-18727
传出后	-18728
伯拉罕	-18729
但他说	-18730
侦测到	-18731
先发制	-18732
全球最	-18733
公开信	-18734
共同体	-18735
再接再	-18736
利益的	-18737
制造出	-18738
北韩在	-18739
十六岁	-18740
十月间	-18741
卡巴拉	-18742
同一个	-18743
哈里逊	-18744
四千人	-18745
在一处	-18746
在奥运	-18747
在距离	-18748
基因的	-18749
多元化	-18750
大城市	-18751
大楼的	-18752
奥兰多	-18753
如果我	-18754
它已经	-18755
安全暨	-18756
将军说	-18757
将出战	-18758
已夺走	-18759
年以来	-18760
并敦促	-18761
当事人	-18762
性骚扰	-18763
所发生	-18764
技术上	-18765
搭公车	-18766
收盘时	-18767
新生儿	-18768
是今年	-18769
是印尼	-18770
是布希	-18771
根本不	-18772
正当性	-18773
正进行	-18774
泛世通	-18775
消防队	-18776
然不同	-18777
的了解	-18778
的交通	-18779
的信徒	-18780
的前述	-18781
的意愿	-18782
直落三	-18783
破发点	-18784
科医师	-18785
等因素	-18786
类动物	-18787
精密的	-18788
约五百	-18789
纳表示	-18790
美好的	-18791
自己在	-18792
获选为	-18793
认为他	-18794
议题上	-18795
这两家	-18796
这意味	-18797
通缉犯	-18798
那一天	-18799
都知道	-18800
铀浓缩	-18801
阳明山	-18802
阵营的	-18803
高尔的	-18804
▁外交部	-18805
▁大多数	-18806
▁库尔登	-18807
▁据日本	-18808
▁英国的	-18809
一线城市	-18810
一美元兑	-18811
七千五百	-18812
万人口中	-18813
三千九百	-18814
专家认为	-18815
两百三十	-18816
二百六十	-18817
互不侵犯	-18818
人民法院	-18819
亿五千万	-18820
他们可能	-18821
他们是否	-18822
他的家人	-18823
企业获利	-18824
克森美孚	-18825
典型肺炎	-18826
军事设施	-18827
农林水产	-18828
凌晨一时	-18829
北韩难民	-18830
医院接受	-18831
十五岁的	-18832
发动攻势	-18833
叛乱团体	-18834
司法当局	-18835
增加一倍	-18836
大部分的	-18837
安全保证	-18838
安全首长	-18839
并未提及	-18840
开始实施	-18841
开幕典礼	-18842
很有意思	-18843
感到忧心	-18844
支持者的	-18845
明确表示	-18846
最近一次	-18847
最高法庭	-18848
机场起飞	-18849
武装团体	-18850
电脑公司	-18851
电话电报	-18852
的新加坡	-18853
的销售量	-18854
研究成果	-18855
社会大众	-18856
紧急状况	-18857
美国战机	-18858
获得晋级	-18859
行政部门	-18860
调高利率	-18861
费尔普斯	-18862
身体状况	-18863
这是自从	-18864
这次攻击	-18865
这项访问	-18866
进入美国	-18867
连续第三	-18868
透过网路	-18869
通缉要犯	-18870
金融政策	-18871
领导地位	-18872
马拉度纳	-18873
▁南韩联合	-18874
▁英国政府	-18875
▁这项声明	-18876
▁这项计划	-18877
▁这项计画	-18878
▁这项调查	-18879
三十五岁的	-18880
三十四岁的	-18881
中东地区的	-18882
举行历史性	-18883
二十八日在	-18884
伊拉克政权	-18885
分析家指出	-18886
十二月一日	-18887
十五亿美元	-18888
在二次大战	-18889
外交官表示	-18890
太平洋岛国	-18891
巴勒斯坦的	-18892
是很重要的	-18893
欧盟会员国	-18894
温布顿网赛	-18895
菲律宾政府	-18896
▁美元兑日圆	-18897
北韩核子危机	-18898
奋进号太空梭	-18899
恐怖份子攻击	-18900
洛克希德马汀	-18901
百分之二十七	-18902
百分之四十四	-18903
自一九九八年	-18904
▁美国国务院说	-18905
特任大臣竹中平藏	-18906
41	-18907
53	-18908
78	-18909
▁博	-18910
▁朴	-18911
▁科	-18912
▁至	-18913
▁较	-18914
一堂	-18915
一角	-18916
万达	-18917
上季	-18918
上学	-18919
上百	-18920
下场	-18921
不宜	-18922
不赀	-18923
乐趣	-18924
争吵	-18925
亚银	-18926
亿人	-18927
传来	-18928
传票	-18929
传讯	-18930
佛莱	-18931
偕同	-18932
公用	-18933
六位	-18934
六四	-18935
写的	-18936
军车	-18937
出掌	-18938
击伤	-18939
击球	-18940
前三	-18941
剧中	-18942
卖座	-18943
卧虎	-18944
却有	-18945
厮杀	-18946
取暖	-18947
取自	-18948
可使	-18949
同属	-18950
员的	-18951
员说	-18952
喝采	-18953
因雨	-18954
在圣	-18955
在距	-18956
基恩	-18957
多方	-18958
大排	-18959
大片	-18960
天使	-18961
失效	-18962
奖学	-18963
媒介	-18964
对上	-18965
尾蛇	-18966
屈一	-18967
工时	-18968
布置	-18969
希林	-18970
广受	-18971
库曼	-18972
开球	-18973
往年	-18974
很长	-18975
情治	-18976
我才	-18977
托儿	-18978
扫描	-18979
找回	-18980
拆款	-18981
拜耳	-18982
捐献	-18983
摆在	-18984
放映	-18985
方说	-18986
无功	-18987
既有	-18988
本笃	-18989
杜恩	-18990
格鲁	-18991
正为	-18992
比四	-18993
毛泽	-18994
民政	-18995
河川	-18996
派往	-18997
淡水	-18998
淹水	-18999
漠视	-19000
热心	-19001
爱戴	-19002
牛奶	-19003
猫王	-19004
瑞比	-19005
瑞谢	-19006
生理	-19007
用油	-19008
画家	-19009
留学	-19010
疫苖	-19011
病症	-19012
痛失	-19013
的该	-19014
的钱	-19015
目光	-19016
相向	-19017
短曲	-19018
祖母	-19019
禁航	-19020
紧要	-19021
约三	-19022
纳队	-19023
绝佳	-19024
统合	-19025
缴纳	-19026
网将	-19027
肇因	-19028
胜过	-19029
能对	-19030
脸上	-19031
花钱	-19032
藏龙	-19033
裤子	-19034
西安	-19035
观礼	-19036
规画	-19037
讶异	-19038
诉请	-19039
诠释	-19040
课题	-19041
谎言	-19042
豆腐	-19043
财源	-19044
足轻	-19045
逃税	-19046
逃脱	-19047
选定	-19048
邦兹	-19049
郡的	-19050
酿酒	-19051
重击	-19052
铁轨	-19053
门户	-19054
降为	-19055
隔天	-19056
静坐	-19057
革新	-19058
颁赠	-19059
默默	-19060
▁中华	-19061
▁值此	-19062
▁共有	-19063
▁咸信	-19064
▁教廷	-19065
▁油价	-19066
▁海军	-19067
▁社会	-19068
▁首先	-19069
一星期	-19070
三十天	-19071
不正常	-19072
两万人	-19073
两国的	-19074
中华队	-19075
为人质	-19076
为他的	-19077
也是在	-19078
于上周	-19079
从日本	-19080
从现在	-19081
他们被	-19082
他无法	-19083
他曾在	-19084
以及与	-19085
传出的	-19086
伯明罕	-19087
儿童的	-19088
克里门	-19089
公斤的	-19090
六十岁	-19091
关节炎	-19092
分别在	-19093
制度的	-19094
制成的	-19095
十三年	-19096
十八人	-19097
占领区	-19098
卡申柯	-19099
即使是	-19100
参加过	-19101
发射的	-19102
发斯特	-19103
另一家	-19104
另一种	-19105
只获得	-19106
合法的	-19107
和服务	-19108
在柏林	-19109
在网路	-19110
在面对	-19111
妇女和	-19112
家庭的	-19113
巫师队	-19114
已取得	-19115
布兰妮	-19116
干事长	-19117
总统与	-19118
感染率	-19119
我们与	-19120
才能够	-19121
执导的	-19122
扩大至	-19123
捷运站	-19124
摇滚乐	-19125
星期五	-19126
条件是	-19127
来处理	-19128
柴伊夫	-19129
毛泽东	-19130
民众在	-19131
沃芬森	-19132
洗衣机	-19133
涉案的	-19134
火箭队	-19135
点七五	-19136
电动车	-19137
的一艘	-19138
的关税	-19139
的内阁	-19140
的印象	-19141
的回应	-19142
的年轻	-19143
的政权	-19144
的演出	-19145
的私人	-19146
相当高	-19147
约三十	-19148
给美国	-19149
署署长	-19150
蒲隆地	-19151
被困在	-19152
进出口	-19153
选手艾	-19154
遭击毙	-19155
首屈一	-19156
1995	-19157
▁吴作栋	-19158
▁布希与	-19159
不受欢迎	-19160
中国人民	-19161
举行公投	-19162
今天挥出	-19163
他们表示	-19164
以色列和	-19165
伊布拉欣	-19166
六百五十	-19167
前独裁者	-19168
北韩方面	-19169
十四岁的	-19170
千万美元	-19171
卧虎藏龙	-19172
参谋总长	-19173
可以看到	-19174
四人死亡	-19175
国泰航空	-19176
在维也纳	-19177
在马德里	-19178
基督教徒	-19179
备受争议	-19180
安全警卫	-19181
对我们的	-19182
市场预期	-19183
平民丧生	-19184
强烈支持	-19185
恢复平静	-19186
折衷方案	-19187
拿下冠军	-19188
持续增加	-19189
提出控诉	-19190
提出正式	-19191
撞机事件	-19192
明天将在	-19193
暴力攻击	-19194
最有价值	-19195
最近几周	-19196
汽车市场	-19197
法兰西斯	-19198
物价指数	-19199
疑似感染	-19200
竞争激烈	-19201
签署协议	-19202
米苏阿里	-19203
美国不会	-19204
美国股市	-19205
股价指数	-19206
能源开发	-19207
至关重要	-19208
致力推动	-19209
莫三比克	-19210
获得解决	-19211
表示愿意	-19212
许多地区	-19213
贸易逆差	-19214
迄今为止	-19215
这个区域	-19216
这个城市	-19217
这是一种	-19218
进口关税	-19219
逃离家园	-19220
造成伤亡	-19221
预定明年	-19222
驻韩美军	-19223
高峰会后	-19224
▁他们两人	-19225
▁官员们说	-19226
▁每日新闻	-19227
▁该报引述	-19228
二十万美元	-19229
会计年度的	-19230
全球最大的	-19231
半导体公司	-19232
印尼峇里岛	-19233
去年第四季	-19234
发表的声明	-19235
否则将面临	-19236
和马来西亚	-19237
国家组织的	-19238
国家统计局	-19239
巴基斯坦的	-19240
总统柯林顿	-19241
我们将继续	-19242
拜仁慕尼黑	-19243
松了一口气	-19244
波音七四七	-19245
的最新一期	-19246
石油公司的	-19247
联合政府的	-19248
金大中总统	-19249
防治爱滋病	-19250
高球锦标赛	-19251
▁布希在白宫	-19252
一名发言人说	-19253
一百五十万桶	-19254
九月二十八日	-19255
以美国为首的	-19256
其中包括一名	-19257
国际足球总会	-19258
恐怖分子攻击	-19259
日本经济新闻	-19260
百分之五十一	-19261
的巴勒斯坦人	-19262
美军在伊拉克	-19263
副总统梅嘉娃蒂	-19264
十五分台北时间	-19265
印尼民主奋斗党	-19266
澳洲网球公开赛	-19267
▁泰国总理戴克辛	-19268
前往靖国神社参拜	-19269
国内生产毛额成长率	-19270
4。	-19271
▁提	-19272
一颗	-19273
三艘	-19274
不料	-19275
不舍	-19276
专制	-19277
东山	-19278
丢弃	-19279
丹妮	-19280
主意	-19281
之类	-19282
乐视	-19283
了前	-19284
云集	-19285
五到	-19286
仍会	-19287
从二	-19288
以九	-19289
传回	-19290
作弊	-19291
偷偷	-19292
八岁	-19293
公墓	-19294
六度	-19295
共用	-19296
内有	-19297
写作	-19298
决战	-19299
出让	-19300
击溃	-19301
副本	-19302
助力	-19303
助选	-19304
劲扬	-19305
十余	-19306
十倍	-19307
千人	-19308
南端	-19309
卡通	-19310
厘米	-19311
原谅	-19312
古城	-19313
和约	-19314
商的	-19315
善尽	-19316
喉咙	-19317
国歌	-19318
地缘	-19319
复仇	-19320
大噪	-19321
天下	-19322
妮西	-19323
姿势	-19324
它也	-19325
宾馆	-19326
导游	-19327
小吃	-19328
山脉	-19329
岁月	-19330
崎岖	-19331
已和	-19332
布托	-19333
应声	-19334
底线	-19335
引领	-19336
弱势	-19337
强奸	-19338
彩券	-19339
彩色	-19340
往前	-19341
往访	-19342
征求	-19343
很想	-19344
打死	-19345
投注	-19346
拉马	-19347
拥护	-19348
挞伐	-19349
接壤	-19350
推升	-19351
推选	-19352
提说	-19353
搁浅	-19354
摇摆	-19355
摊牌	-19356
撤除	-19357
救火	-19358
教区	-19359
斋月	-19360
明智	-19361
星光	-19362
星国	-19363
曾将	-19364
最重	-19365
未必	-19366
未被	-19367
来回	-19368
板上	-19369
果断	-19370
棋王	-19371
楼盘	-19372
比对	-19373
求偿	-19374
注视	-19375
洛特	-19376
演化	-19377
热切	-19378
片子	-19379
物业	-19380
犯行	-19381
玛莉	-19382
生于	-19383
眼泪	-19384
矿坑	-19385
税制	-19386
空域	-19387
答称	-19388
粒子	-19389
统帅	-19390
翼翼	-19391
考生	-19392
而为	-19393
脸部	-19394
脾气	-19395
致哀	-19396
舍弃	-19397
航舰	-19398
苏菲	-19399
英航	-19400
荷西	-19401
莫拉	-19402
装配	-19403
要让	-19404
警长	-19405
论点	-19406
诚摰	-19407
该校	-19408
调涨	-19409
质问	-19410
费率	-19411
践踏	-19412
身在	-19413
运气	-19414
连同	-19415
追击	-19416
选项	-19417
遗址	-19418
遥远	-19419
那一	-19420
都可	-19421
配置	-19422
里奥	-19423
重达	-19424
野说	-19425
金杯	-19426
销路	-19427
阴性	-19428
零下	-19429
零时	-19430
顽强	-19431
题目	-19432
首役	-19433
高点	-19434
黄蜂	-19435
黎世	-19436
默哀	-19437
▁一辆	-19438
▁五月	-19439
▁布鲁	-19440
▁本季	-19441
▁此事	-19442
一百人	-19443
一部分	-19444
三百人	-19445
下一次	-19446
不再是	-19447
与另外	-19448
与和平	-19449
为主题	-19450
也证实	-19451
二比六	-19452
二百名	-19453
产业的	-19454
仅有的	-19455
他一直	-19456
代表的	-19457
令我们	-19458
以及对	-19459
以支持	-19460
以结束	-19461
以维持	-19462
但仍有	-19463
养殖场	-19464
凯瑞的	-19465
到最后	-19466
刺胳针	-19467
参赛的	-19468
双子星	-19469
反对票	-19470
发布了	-19471
发表了	-19472
受困在	-19473
台湾人	-19474
史匹柏	-19475
司司长	-19476
否则将	-19477
和发展	-19478
和宗教	-19479
和香港	-19480
咖啡馆	-19481
响尾蛇	-19482
唐宁街	-19483
嘉年华	-19484
土地上	-19485
在叶门	-19486
在周日	-19487
在空中	-19488
坎贝尔	-19489
增长率	-19490
大主教	-19491
大多是	-19492
夷为平	-19493
她们的	-19494
如果在	-19495
客机的	-19496
对政府	-19497
就不会	-19498
已引发	-19499
已达成	-19500
巴黎的	-19501
布什尔	-19502
希尔说	-19503
希望与	-19504
形容为	-19505
很快就	-19506
或任何	-19507
所发动	-19508
所遭遇	-19509
所采取	-19510
打算在	-19511
拍卖会	-19512
拒绝了	-19513
拥挤的	-19514
支安打	-19515
新能源	-19516
明年将	-19517
是法国	-19518
朋友们	-19519
未具名	-19520
权力的	-19521
果子狸	-19522
死者的	-19523
波哥大	-19524
火车头	-19525
爆发了	-19526
爱丁堡	-19527
牛仔裤	-19528
甚至在	-19529
甚至连	-19530
电子业	-19531
的估计	-19532
的使用	-19533
的初步	-19534
的大门	-19535
的教宗	-19536
的数据	-19537
的泰国	-19538
的细胞	-19539
的阴影	-19540
破纪录	-19541
第三国	-19542
签订的	-19543
经常在	-19544
统治的	-19545
胰岛素	-19546
脆弱的	-19547
节目的	-19548
苏贝洛	-19549
茵斯基	-19550
被罢黜	-19551
被警方	-19552
设定的	-19553
购房者	-19554
赛事中	-19555
赢得了	-19556
跟他们	-19557
这艘船	-19558
退休的	-19559
遭美国	-19560
遭警方	-19561
都非常	-19562
里面的	-19563
项罪名	-19564
飞机上	-19565
1996	-19566
▁东帝汶	-19567
▁据了解	-19568
▁美国队	-19569
一万八千	-19570
三千四百	-19571
上周表示	-19572
不过我们	-19573
与新加坡	-19574
与日俱增	-19575
主要城市	-19576
之后不久	-19577
二十六名	-19578
二十年的	-19579
五亿美元	-19580
交通部长	-19581
今天发布	-19582
他的儿子	-19583
众所周知	-19584
俄罗斯与	-19585
全美各地	-19586
其中两人	-19587
内容包括	-19588
再接再厉	-19589
办公室的	-19590
北韩放弃	-19591
医学中心	-19592
十三岁的	-19593
卷录音带	-19594
发射一枚	-19595
吃的东西	-19596
四千八百	-19597
回教组织	-19598
国际合作	-19599
塞尔提克	-19600
外交官员	-19601
外长费雪	-19602
大幅降低	-19603
如此一来	-19604
委员会在	-19605
对台军售	-19606
强烈谴责	-19607
恐怖团体	-19608
感到震惊	-19609
慈善机构	-19610
手足口症	-19611
拉夫罗夫	-19612
政府宣布	-19613
新闻信托	-19614
无论如何	-19615
晨报记者	-19616
普什图族	-19617
更多时间	-19618
[...]
